/**
  ******************************************************************************
  * @file    cooler_data_params.c
  * @author  AST Embedded Analytics Research Platform
  * @date    Tue Aug 22 08:36:40 2023
  * @brief   AI Tool Automatic Code Generator for Embedded NN computing
  ******************************************************************************
  * Copyright (c) 2023 STMicroelectronics.
  * All rights reserved.
  *
  * This software is licensed under terms that can be found in the LICENSE file
  * in the root directory of this software component.
  * If no LICENSE file comes with this software, it is provided AS-IS.
  ******************************************************************************
  */

#include "cooler_data_params.h"


/**  Activations Section  ****************************************************/
ai_handle g_cooler_activations_table[1 + 2] = {
  AI_HANDLE_PTR(AI_MAGIC_MARKER),
  AI_HANDLE_PTR(NULL),
  AI_HANDLE_PTR(AI_MAGIC_MARKER),
};




/**  Weights Section  ********************************************************/
AI_ALIGNED(32)
const ai_u64 s_cooler_weights_array_u64[57826] = {
  0xbd6d99da3c785848U, 0xbd5202923cc79408U, 0xbceaec8cbd7934eaU, 0xbc238458bb460140U,
  0xbda21b98ba818cc0U, 0x3d7c96483d8f1678U, 0xbd0f68f6b98a6800U, 0xbd9b4eaf3b8c83c0U,
  0xbd24a7853c6be9f8U, 0x3c8850b8bbf22a10U, 0x3d2f2e603d52b9c8U, 0x3c9b2f0c3cc58260U,
  0x3cea11943cfa5bdcU, 0x3d415c8cbd40b2b2U, 0xbd83d0b33c5e9e48U, 0x3d0c61f03d63d970U,
  0x3d116dc8bd086241U, 0x3da4ff30bd1acbe5U, 0xbd022ef1bc568a98U, 0xbd547efb3d92a352U,
  0x3da19f90bc2555f0U, 0x3d5909e03ba5a5c0U, 0x3d18bc38bb843320U, 0xbd62eb96bd8eed0cU,
  0x3c2d5c603bd4ead0U, 0xbd140a99bd7d23a4U, 0x3d411d843cdec33cU, 0x3d84a35abd8b9213U,
  0xbd92a5afbd0dc3adU, 0x3b03f8a03c202188U, 0x3d493ef83d230378U, 0xbd0d083d3bef5a30U,
  0x3bcb68c0bcde71b4U, 0x3d8f9dd63c8e86f0U, 0xbd393075bd718a28U, 0x3d075cc83d98dbb2U,
  0xbd44bbacbced7448U, 0x3c7a23603d92a2c0U, 0x3da53330bc9a9c3cU, 0xbcdea3ca3c89ffdcU,
  0xbc508c10bd386f23U, 0xbd5179b83d8deda0U, 0x3c59ec08bc8ef580U, 0xbd93db893b796700U,
  0xbbbe97b03d1ed0faU, 0x3d3055183c8cc184U, 0xbcf633bcb9eb0f00U, 0xbd318b6bbd952e8aU,
  0xbd96b3343d29cc62U, 0xbd203a45bccbd370U, 0x3c2066003c8b05d8U, 0xbcb87e223c6b0290U,
  0xbcd3ffe03d33d2dcU, 0xbd9a65963cbf5e6cU, 0x3d3c6fb03c3b1058U, 0xbc91f99c3d504790U,
  0x3d839f60bc93b0f4U, 0xbd1a67a63d4a04ecU, 0x3d93333ebd19e875U, 0xbcc2cfc03b7a9d20U,
  0x3d5b5b54ba92d540U, 0xbd811e5f3d621d0cU, 0xbd2bf5df3d8e88d4U, 0x3d5ce86c3d9ee8feU,
  0x3d5be3203d0a168aU, 0xbd2c1fc0bc3a3388U, 0x3d470d24bc915be0U, 0xbd22c537bd4b6e57U,
  0x3d354310bd207623U, 0x3d626a303ba3bec0U, 0xbd8df4963d066bfcU, 0xbbbd90703c194028U,
  0xbce63516bca913d6U, 0x3be35f203ab05f00U, 0x3ccad474bc450a10U, 0xbd2e4551bb3b65e0U,
  0x3d304b22bd0a8b95U, 0x3bbe75703d7d53c8U, 0x3d68c8ccbca46e5cU, 0x3c0137983d9159aaU,
  0xbd860fe4bd4b3a5cU, 0xbc8ad6f43c3af910U, 0xba7ec3803c35e8b0U, 0xbc615c703d80890cU,
  0xbc964fee3d95c7a8U, 0x3d91d358bcabed06U, 0x3b0e7820ba451200U, 0x3d2fbf4a3d905688U,
  0xbda107fb3d811ad6U, 0x3ce542b43d13ab96U, 0x3d2fcc7c3d872b92U, 0xbd3157ad3d5d7390U,
  0xbd5cf824bd91c34cU, 0x3c785a70bcbfcbf6U, 0x3d5a598c3da52b32U, 0xbd77b69ebcf5c054U,
  0xbd956a933ce66bb0U, 0xbd5915bebd5d84b0U, 0x3d0c5cd439f99700U, 0x3c8c632cbb4d7d60U,
  0xbc5648c83ce2712cU, 0xbd7391c43d2d8b40U, 0x3d14e73ebd9836b4U, 0x3c8de43c3c305918U,
  0x3d8fd418bcdd26a6U, 0xbd87592a3d8d612eU, 0xbd805f343c9b2480U, 0xbd838fa8bc4a1b50U,
  0xbd9a14a1bc4a8c58U, 0x3d9429723cb50c30U, 0x3d946e6c3cee7d34U, 0xbd853f9b3d11bc8cU,
  0xbd444d5c3c006a68U, 0x3c5c4008bc662470U, 0xbbf2c900bd83c730U, 0x3c86a5283ba7e1a0U,
  0xbcad3e963c2795a8U, 0x3da590ae3cae9b70U, 0xbcc05234bbb2e2a0U, 0x3d4d5f60bd8469f1U,
  0x3c7536d83d70591cU, 0x3d47d2383d82e74aU, 0x3da168623d18121eU, 0x3c7056d83d725614U,
  0x3d2c182c3badb7a0U, 0xbbc97ce03da082f6U, 0xbd910bc23d841a2aU, 0xbd29b9c5bbb87530U,
  0x3d5d0244bd1816a1U, 0xbd818871bd2defd8U, 0x3d6432ac3cc7eae4U, 0x3c7fe270bd1dc136U,
  0xbd70c24ebd9639b4U, 0x3d3e7544bc8ef398U, 0x3d9a6c7cbd832826U, 0x3d12f3e2bda34578U,
  0xbd03352f3d693638U, 0xbd936ffb3d572ab0U, 0xbd2a2015bd4c88faU, 0xb9c45d00bd7f3a9cU,
  0x3d21db12bc856a10U, 0x3d5ff6f43d6f131cU, 0xbd8c9dcb3d8a7a66U, 0xbd6fd41dbabe5980U,
  0xbcddfadebd455492U, 0x3d6b2c183d4ae1c4U, 0xbd57a7adbd93c0acU, 0xbc63cb40bc7f3330U,
  0x3ceee5803d27ac32U, 0xbc9f7b32bc8a7554U, 0x3d9846ea3d188caeU, 0x3b7e7c003d6edb64U,
  0x3d4520483d1591f8U, 0x3d944426bcf5d334U, 0xbbcb22903d40e6ecU, 0x3d31860abd6be8aaU,
  0xbc0495903d0d8a12U, 0x3bc7a7803d9c541eU, 0x3d64fdc4baf96840U, 0x3cbf3004b83d6800U,
  0xbc70ad08bd6bb24cU, 0x3d5286ccbb520400U, 0x3d84483c3d86497eU, 0x3d546db83d7f4ce8U,
  0xbc7d14f03aa6c940U, 0xbba605c0bc61a2f0U, 0x3d935d1a3d75b450U, 0x3ab196c03c39b668U,
  0x3d27d9a23bf92530U, 0x3d2eacf6bd476ee1U, 0x3d4e94403c8b963cU, 0xbd8e36fe3d59d880U,
  0x3d2ec7b23d8fb1a4U, 0xbd74a3063d8e69c4U, 0xbd99b6c73cc4c46cU, 0xbd48ee3f3d2f2b00U,
  0x3d679cd43b7a4820U, 0xbd49287abcdfed3cU, 0x3d8e5738bbc2c3d0U, 0x3d4de4b43ceedb30U,
  0xbd5194fcbd731e48U, 0xbca52742bd7cb2f6U, 0x3d1a7d5a3d92bee4U, 0x3d8738f2bcc61824U,
  0xbca18aeabd3febf5U, 0xbcd40af2bd98c39eU, 0xbd30e9cabd751a7eU, 0x3d8fad203d4e64f0U,
  0x3bfc9de03c3932c8U, 0xbd7ddd86bd068e58U, 0xbc3459f83d44eebcU, 0x3d8d35b4bcb83b08U,
  0x3d815d6ebda47634U, 0x3d642c6cbd750442U, 0x3bd35f80bd5150b6U, 0x3d44ddccbd3c1b7dU,
  0xbc506c503cec0430U, 0xbd9c8beb3cb82e38U, 0xbd14f076b9ccdd00U, 0xbd1aaa913baad5e0U,
  0x3d50e9f03cbca1b0U, 0xbc9c7558bc8c9ca8U, 0xbd17942f3cc6d464U, 0xbd8e19a2bd2cbb3cU,
  0xbc9857723d9cffa6U, 0x3d5d9f88bd052b21U, 0x3cdb40e4bb811910U, 0x3d9174863d9019b8U,
  0xbac652c03c6a0c68U, 0x3d5356443d8ca316U, 0x3d3a1fa0bc155e18U, 0x3cf690c8bda0b9bcU,
  0x3d1661503d892d6eU, 0xbd1dec6dbc1e2b40U, 0xbc8383a83d8306d6U, 0x3cfe5f3c3b8fd210U,
  0x3cabae00b9ad6500U, 0x3d2aa5e6bb1c90c0U, 0xbc383880bd69bf18U, 0xbda04065bd91104cU,
  0x3d244e163d8e10eaU, 0xbd45fda9bbfd6990U, 0x3ad0a780bd94e9ecU, 0xbc80a5ac3bc2bce0U,
  0xbd8b937bbc29c780U, 0x3d8c6284bca5de0cU, 0xbda4fb273a323e80U, 0xbd39d6a33ba64740U,
  0xbc5762103d8491deU, 0x3d5ea834bd81ca80U, 0xbcd60826bd349e8cU, 0x3d2c1d243d2941aeU,
  0x3d0b5852bced68d6U, 0xbd9f2bce3ccdef70U, 0xbd4ce32ebd6c5f5dU, 0xbd83556ebd85f441U,
  0xbcc58bd4bcecb514U, 0xbd1921f1bd28c606U, 0x3ca377fcbc3fc328U, 0xbd409b1cbc115450U,
  0xbd72926a3d4a597cU, 0x3c698cd8bda1b1d9U, 0x3d8ae59cbc632a10U, 0x3bc819503d20513cU,
  0xbcd70ed2bd8f255dU, 0x3d48a2e0bd16afe6U, 0x3d1c080aba4ac000U, 0x3ca8e6203d93535cU,
  0xbcb578ba3d7a4e0cU, 0x3cc9d5e03d93a80aU, 0xbce4f26e3c903ff4U, 0x3bfea6d0bc749b20U,
  0x3c4c75b0bd47459cU, 0x3bdcc4f0bd06802dU, 0x3d9f8fae3bc00380U, 0x3b1831403d947e7cU,
  0xbd2a55d33addde80U, 0x3cafaf283cc84c28U, 0x3bc33de03c99a560U, 0x3d6336a83d220004U,
  0x3c891954bc06a7d8U, 0xbd59add03d0edf6cU, 0x3be3a3303d1a8a98U, 0xbcb200283c19f660U,
  0xbd7438bbbc9d0f12U, 0x3d72c9603cd850dcU, 0x3cc2fd8c3b4dfe60U, 0x3d8c7fe2bda143d9U,
  0xbd7a053bbc418308U, 0x3c731c18bd5ca634U, 0x3d893f823d2db862U, 0x3c98c2a43d8f555eU,
  0x3ceaa1083c385c78U, 0xbd50fe9c3d9e74beU, 0x3ccd4d303bbf6870U, 0xbd20019ebced178cU,
  0xbd7a88ba3c77d648U, 0x3d711984bd80dbc9U, 0x3d6e94643c9fb500U, 0xbd372dfb3d9507acU,
  0xbd25da3a3c846998U, 0xbd15dba33d5e2d9cU, 0xbce5528e3be73060U, 0xbc2c3740bd8e9172U,
  0xbcce3c5e3d97b684U, 0xbd6d6f1bbd136564U, 0xbd972e4f3d958a30U, 0xbcba9988bbbd8520U,
  0x3d4376903cfbdb38U, 0xbd4add7c3d6c67ccU, 0x3d467d90bd0c6727U, 0x3d8a562ebd7dcc3eU,
  0x3d8a194c3d498d84U, 0xbd924e5d3c883e48U, 0x3d85073abd157c96U, 0xbd203ed2bd0dc336U,
  0x3cb3de70bd779cceU, 0xbd9f5f023d0eebfaU, 0x3d28df16bd3ce318U, 0xbd4df04a3c8f87fcU,
  0xbd9c0b68bd51c90cU, 0xbbf706c03c3cb6a8U, 0xbcef465a3d7b9fc0U, 0x3d1b25263d521148U,
  0x3bc47840bc6b1408U, 0xbd615e083c99931cU, 0xbc94d400bd0aedcfU, 0xbd5aee823d31ddecU,
  0xbd2c80d3bcc4088aU, 0x3c3650e83d9bef30U, 0xbda1c898bd3b88f0U, 0x3d9cba24bd92e798U,
  0x3d2f4736bce89900U, 0xbd5aeae43d398e8cU, 0xbcaa4f74bda3374aU, 0x3d5d28203c0536f0U,
  0xbccb6236bd95bcbaU, 0x3ce3a7f0bd025aecU, 0xbd28558c3d5d6288U, 0xbbc68a90bda07db2U,
  0x3d388190bd9047dcU, 0xbcdd7f2c3d933f76U, 0x3d831b3e3d915af8U, 0x3cf5a0783b906890U,
  0x3c9a6a70bd2cfc2dU, 0xbd9c41783d876cc2U, 0x3d01d31e3ccf6df8U, 0x3bb742003d7405f4U,
  0xb9755800bd99735aU, 0x3d5ab4b0bce58726U, 0x3d24ff423d8372b0U, 0x3cec7bd8bd2957deU,
  0x3d586488bd9d503eU, 0x3c089620bbf87e30U, 0xbd094cde3c3a11c0U, 0xbd06bb0d3c41c878U,
  0xbd117e22bc53bbb8U, 0xbd2ae03b3d58d008U, 0xbc4cfed03d23c99aU, 0xbda291cabc4b79b0U,
  0x3d385ab43c101728U, 0xbd8553ba3b9d3280U, 0xbd28a9d93d20d594U, 0x3d91de14bd8f243eU,
  0xbd14d849bd04b44fU, 0xbcdb3bb6bd0730beU, 0xbd1425e73d820534U, 0xbd80b6fb3d6ac3b4U,
  0xbda0c012bd45cc49U, 0xbd7827e23cd35218U, 0x3d6e32e4bd081388U, 0xbd9a2b6b3d43bc6cU,
  0x3c89d3c4bd8b221bU, 0xbc471a903d8d7ef6U, 0xbc834828bc0dd600U, 0xbd9702043d8930fcU,
  0xbcfdc70c3aeaf580U, 0xbd887f713cb30a78U, 0x3ce82478bce3cb06U, 0x3d3c67f8bb3b3120U,
  0xbd3fcf28bcae0e9aU, 0xbb53d1c0bd9c29dbU, 0x3da4d9fabd9c77ccU, 0xbd8cc8113da19cfeU,
  0xbd82de27bda2a093U, 0xbd9a9d6bbd5f5f6eU, 0x3d6286a8bd30ced9U, 0xbcf11e203d749684U,
  0x3d7db6ecbcc6c16eU, 0xbc0341b03ce10680U, 0xbd1f8fdfbd1786aaU, 0x3da0eddcbd1afeb0U,
  0x3d3da700bd9c12ffU, 0x3b5f18a03d9d0bd4U, 0xbd62895239faae00U, 0x3d3d545cbd0d43f1U,
  0x3c9e73cc3c61a288U, 0x3cdbd430bd9a5482U, 0xbcd4a552bb502040U, 0x3d55917c3cf5afb8U,
  0xbd055d5bbd36b1e7U, 0xbd706dcdbcf09c20U, 0x3d1612123c9a85b8U, 0x3c5fc480bd264ab3U,
  0x3d99a1cb3dca4d4dU, 0xbc6b77e4bcce35abU, 0xbd502613bd652afeU, 0xbd22de35bd74c911U,
  0x3d618e753cc78322U, 0xbc89d1b63d3bb05bU, 0x3d36129f3c970aaaU, 0xbd5c221dbd4c20ceU,
  0xbd6102df3d04ecf6U, 0xbc9bd7423da0aaaeU, 0x3c8c3c063d924789U, 0xbc10c576bd95b9e6U,
  0xbcfdbbee3d76b733U, 0xbccc41dcbd8fa813U, 0xbdc40d9e3cc2bd2dU, 0x3d4bcce7bdc548bdU,
  0x3d33d9aa3d3bdbd3U, 0x3cc7821bbd6013f2U, 0x3d9c3a6fbc1a2594U, 0x3b2fdf37bd1dd8e4U,
  0x3dbc5425bd85ae6cU, 0x3ce4e27fbd00fe42U, 0xbd9f944fbd252dd3U, 0x3d2ac45cbd1afce9U,
  0xba25d2e2bd78eb60U, 0xbc314bd53b05ff38U, 0x3d3b58733c4d8c71U, 0x3d2f83fe3cc9742aU,
  0xbd3833c7bd0c434bU, 0x3dc7026e3c0d5075U, 0xbcbcc46e3d88a4dcU, 0x3dc6bd9a3c3d65ebU,
  0x3d16e1e53beb8039U, 0xbd51981a3d211cc7U, 0xbbf49f3cbd67e41aU, 0xbd2bf287ba1d2ac3U,
  0x3bf7f926bd4401a8U, 0x3bfafda13ca28340U, 0x3db46d2b3d1bacecU, 0x3da376733d5cab1aU,
  0x3ba05c0dbcf03017U, 0x3cff197bbcb31aa7U, 0x3cff5792bbf82e50U, 0xbc40c9f83d48ccebU,
  0xbbcacbf9bc8c9498U, 0xbda6c687bc8d4e58U, 0x3d64b602bd8e929eU, 0x3dba22a43ca11b85U,
  0x3cc55fe2bca46b29U, 0x3db9616b3db8b440U, 0x3d27aeaebd69e688U, 0x3d7951b53d26e2e6U,
  0x3d1c47903d669d08U, 0xbd0f230eba615c17U, 0x3b8e0fecbbf96827U, 0xbdae0337bb173692U,
  0xbd5db7c6bb9c09ebU, 0x3d640cbc3d80a86bU, 0x3d8990b4b9d2b22fU, 0x3d9a5d6a3da81b43U,
  0x3da783a13db6a99dU, 0xbd19058f3ceee2a9U, 0x3d84346a3d7ffbf2U, 0x3d241a373d51b480U,
  0xbd59f20e3d387012U, 0xbcd12432bbd88339U, 0xbb40ec46bd53c2efU, 0xbd398eda3b09986fU,
  0x3d979351bd91d8a6U, 0xbbc5b10b3d985a97U, 0x3dad16a53d1a4024U, 0x3d5a3ce93daf2d3dU,
  0xbbea72b53da1bcc4U, 0x39fc6012bd97ad70U, 0xbda4953b3d76b6bcU, 0x3cb03a36bcda00e5U,
  0x3c4b938c3d497a55U, 0x3ceadd9e3d4a63b4U, 0x3cd4cd71bd85e528U, 0x3d94eb2cbd2d8709U,
  0xbcd471dfbc9072a0U, 0xbd08428a3d1cad61U, 0xbd53a4143d76e7f2U, 0x3ce7f5613d922b4fU,
  0x3d5459df3d10c0e4U, 0x3d49d3ee3d1d476dU, 0x3d4dba9f3c515017U, 0x3c202dc1bdc230d8U,
  0xbd6d55edbda1ff26U, 0x39ca17e2bd7f945eU, 0x3a214c9dbbd9a228U, 0xbc9b09fc3dd013c8U,
  0x3c55b3fb3d84c6beU, 0xbce26eae3d0eec18U, 0x3d901692bc575b1fU, 0xbd815c5dbdc9540aU,
  0xbd995269bd0b05ddU, 0xbc99b48dbd7af2b8U, 0xbc9acdd0bdae05aeU, 0x3da29e67bd3ef33aU,
  0xbd3174303d8fff33U, 0x3d1fab383d0b5ea9U, 0xbd489f20bbe8ae0fU, 0xbce820733d57deffU,
  0xbd5d8c8c3d0a7239U, 0x3d7c2080bd959ff2U, 0x3c3225fdbd29ca43U, 0xbd6521a9bd950e3cU,
  0x3b63075a3d6acac7U, 0x3d5fff443d9454f5U, 0x3d9fd3c13da13da2U, 0x3dc7a014bd26beadU,
  0x3d8b5cb83cbe276bU, 0xbd89b7323dbff511U, 0xbd87b6743d7e2889U, 0xbd9f14efbcd47122U,
  0x3d37ed1abcf406baU, 0xbd908fbabda3c346U, 0x3c2869d7bd0590a3U, 0x3c88c269bb48a5f2U,
  0x3a5e233dbd39a4e6U, 0x3d549a0c3cf0aa77U, 0x3c5383d8bd02c507U, 0xbcc478efbc709bd3U,
  0x3d9042523d2b3965U, 0x3cca0ec73bb19066U, 0xbc6fd5d73ca64cb0U, 0xbc511a5d3ca92d6fU,
  0x3c8b14753cfca5e4U, 0xbd0fbf793d1c10c1U, 0xbd3c58e93d774e27U, 0xbcbdbc083b30bf2cU,
  0xbce2787b3db5aaefU, 0x3b9973903c0f6555U, 0xbcea3fb6bd84f9beU, 0x3d45544dbd95f7dbU,
  0xbcddf99cbd8b2f1aU, 0xbd92dfe4bd8d7babU, 0xbd43f1f43cf38207U, 0xbd1cdbe53d8a60b6U,
  0x3da7a63abd0b2acdU, 0xbd3cea36bb348364U, 0xbc7925773cc3660bU, 0xbc085b013bab1770U,
  0x3c62eb783cb8dae1U, 0x3d88450bbd05746dU, 0x3c15ca2fbd98eca8U, 0x3d4be09b3d592ee6U,
  0xbd7a374dbd9fd841U, 0xbd894ea93c7c7599U, 0x3d945957bda6c7b7U, 0x3d217e01bc06e548U,
  0x3ce463dfbd3b424aU, 0x3d406c843d4f633eU, 0xbca171e73d0abca9U, 0xbd639bd83cf0d1dcU,
  0xbc5d332ebdbbd0c8U, 0xbcac49d7bdb47d7fU, 0xbdc3c452bb5ef121U, 0xbd558d59bd5dc244U,
  0x3ceba897bd811e25U, 0x3d2cce74bd782be4U, 0x3dbc79da3b06d9c7U, 0xbd28340e3d5bbda9U,
  0xbd43a38c3cd92edeU, 0xbd2080c4bd359866U, 0xbcd7caff3d49afeaU, 0xbd79b027bb28b2bcU,
  0x3d4fc4c03c793da9U, 0x3d758ffcbd7596c4U, 0x3da140c13d908223U, 0xbc17817b3d20151eU,
  0x3dce098fbd59fcfbU, 0xbd483f223ca25e79U, 0x3d72c6133d76e7c0U, 0xbdb08ecdbd50acfdU,
  0xbd1d67bf3cb6bdd6U, 0xbc68dde9bd0711b7U, 0x3c2e874bbdad4e95U, 0xbd54ed4ebd453363U,
  0xbd8c4b7fbd2812d9U, 0x3caf8410bd9c0473U, 0xbc401e4d3c029bb6U, 0x3c6be510bcf33778U,
  0xbd4c78c0bc26bde7U, 0xbd234dddb9f09afcU, 0x3d68c33fbd903c6bU, 0x3cfdca953d204d1bU,
  0xbdbbe9e03c3d6556U, 0xbdb24b52bdbbb1ddU, 0xbdb58577bd510f4aU, 0x3d87ef6d3c05c8eeU,
  0xbd6e99d43da4ac47U, 0x3c92faa73d94cca4U, 0xbc8437b73d6a95b4U, 0xbce57f47bd37cb97U,
  0xbd676fb23d37f1caU, 0xb8966414bd5f2517U, 0x3d05ef7fbd8d6ee8U, 0xbab89dd7bcd36f20U,
  0xbcd04d1a3d73cce2U, 0xbce10b7e3ca25eb5U, 0x3d6539be3db0edb0U, 0x3c92bc663cb909e9U,
  0x3d95d76b3dad5780U, 0x3c56ca173dc931b7U, 0xbda8c14e3c995b44U, 0x3d6eab7cbd9ead2aU,
  0xbc959a2e3ce65c8fU, 0xbce535ec3bef9134U, 0x3d74c6333cf22c5cU, 0xbd1e7c8c3d4f3b50U,
  0xbd8d1bdabd8a38c5U, 0x3c460ca03d84fffbU, 0x3d72efecbd3f1f2cU, 0x3d84bc3dbc62eaaeU,
  0x3d9401cdbc36cad6U, 0x3d2541493d1dffadU, 0xbd16cbbf3c690867U, 0xbd12b1cbbd88b3a5U,
  0xbbaf28f7bd96e83fU, 0x3d1894bfbd005d24U, 0x3d6ac00bbc87d8abU, 0xbd4055d53dbd1f6eU,
  0x3b8342673c0adc10U, 0x3d89aeb13daae865U, 0xbd85b8dbbc82bdd3U, 0xbda2caf13db464edU,
  0xbcce6afebcff81bcU, 0xbd0c26fa3d74a9c1U, 0x3d4e2e003cb91427U, 0x3c469ed8bc352e45U,
  0x3cb3c6103d7d4555U, 0xbd1cfa2fbb3268deU, 0x3d7486f43cbf650eU, 0x3c04eeb53db8ae86U,
  0x3cd6896dbc8e35e1U, 0xbc450d483d2ba3bfU, 0xbd98a535bd8f3d07U, 0x3c1389023d5a13c5U,
  0xbd03937e3c585abfU, 0xbd7f499cbcf0b081U, 0xbd57180cbd05bb99U, 0x3d5f1eae3c93207fU,
  0xbb2f9105bd8e35deU, 0x3c214352bd08dcf2U, 0xbd61c8b03c936825U, 0xbd9a46f73cab20f5U,
  0xbd88e7193d741054U, 0x3ceda3fdbdadbbdfU, 0xbc3b42723cdf36c9U, 0xbd7a3ecc3d60f464U,
  0x3d639755bd25adb2U, 0x3cb0ff5dbcba15f1U, 0xbd125271bbfa2ec3U, 0x3db408933d9e65a0U,
  0xbcc560163c424b46U, 0x3ca803733c9a074dU, 0xbd659e65bd6057ddU, 0x3baed2fc3d932864U,
  0x3d935da1bd72b129U, 0x3d9465393d2d1ea1U, 0xbcf2a339bccf63c6U, 0xbd9d49603d476649U,
  0x3d2d37923cef0608U, 0xbd958f963ca2b665U, 0x3bd0b8fcbbfac83bU, 0x3d601a493d3d9970U,
  0x3cc850c93c93aa46U, 0x3da6671a3da2d839U, 0xbc338dd83cc16c1bU, 0x3d9e67b7bc9c7b72U,
  0xbd66d3b43d70b622U, 0x3d4c636abd4c916eU, 0x3d7b9de0bd3a66abU, 0xbc1b2693bd8c8dbdU,
  0x3d080d543d33892cU, 0x3d7bf104b90540d4U, 0x3d2ff800bbc282f5U, 0xbd033917bd886ba9U,
  0xbd958d9ebd2e23bcU, 0xbd94caeebd8dc849U, 0xbc4f8af43bb0e17aU, 0xbbc3030dbd1e5de6U,
  0xbd73e2a3bd495fd9U, 0xbd85f2313d95052cU, 0xbc8e81793cc6a6f9U, 0xbd3f1a293cc10957U,
  0xbd41af88bcfc6608U, 0x3d97dd6bbc2d2ec0U, 0xbd4391f33c9cba7dU, 0xba9ad6303d20ebe1U,
  0xbd812619ba805a2bU, 0x3d5a6583bd51cfcdU, 0x3d15d5c9bd353e04U, 0x3d89b8033cadccafU,
  0xbd639d743d9d9112U, 0xbd286592bd93a31cU, 0x3da932163d84a693U, 0x3d112df5bd4f8fc6U,
  0x3d112dd4bbed6398U, 0xbd529b203d867d3dU, 0x3bdf2fd63da409dbU, 0x3c8bee4cbd05adfcU,
  0x3d5f682fbd854a0cU, 0x3c63a1a83d387034U, 0x3d5dd6d7badb8fe9U, 0xbc2387febd58f8cfU,
  0xbd922d37bd936995U, 0x3d88ab983d2c15ebU, 0xbd484f81bd47f7a9U, 0x3da2d03fbc71ce11U,
  0xbcc0b5e03d4bfccfU, 0xbd731e8c3ce278d2U, 0xbd9d6ffabd9fe781U, 0xbd5400823be36422U,
  0x3d90fdddbd49a0b1U, 0x3d270e42bcc9f82eU, 0xbd8eebfbbd4c9b27U, 0x3d8a90bb3ce882c3U,
  0xbd11a989bcdb843bU, 0x3d83af443c57f77fU, 0xbd98638d3d9e7277U, 0xbc0d951b3d61632dU,
  0x3d9456febd0809d3U, 0x3c1524d53c0415a1U, 0x3d40e6f53d0e4311U, 0x3c01a324bd867adbU,
  0xbd6c5b8fbd9f17a0U, 0xbb4612513bb5549bU, 0xbd8bd7ef3d5d1f3fU, 0xbd4d8b85bd00c03aU,
  0xbcda5c283caa9948U, 0xbd05e9563d059d7eU, 0x3d891808bc42db80U, 0xbc75fe2c3bf2794aU,
  0xbd3d4a4c3d07cf27U, 0x3d958466bd5580b6U, 0x3d9da097bd0ce63eU, 0x3da18259bd8a72f1U,
  0xbd428758bd990783U, 0x3d8ef98abd80e4feU, 0x3c828dbb3d05a621U, 0x3d16dc9ebd921f0bU,
  0x3d9db1203d028eb1U, 0x3d1ee11abd466d37U, 0xbd9c85443b4d1fb3U, 0x3d5d49ca3d3bbb3eU,
  0xbcec0f6c3cd19c2dU, 0xbbd2dddcbd92c88eU, 0xbd1cfdf43c918b09U, 0x3c9e04753c91b437U,
  0x3d3920933cd3a7d1U, 0x3d5fb60fbd245cd5U, 0x3c81be72bc44b750U, 0x3d7926b13ba0dc18U,
  0xbd08035a3c9249ffU, 0xbc3ba28abda3bbd7U, 0xbc398af8bac1eb21U, 0x3da5932a3c93fb6eU,
  0xbd8b47b13d2ce9faU, 0xbd3e74743b7cc220U, 0xbcfacd68bc100bb7U, 0xb90e24e53c8e5c11U,
  0xbad3eee33d9b75efU, 0x3d6b957d3d837cd2U, 0xbc2e699fbd97b6b5U, 0x3d448f96bc40774dU,
  0x3b0cd8f4bcbac2feU, 0xbd6f80863b6e9425U, 0xbd039ee23cf5994dU, 0xbc7b42adbd98c9e8U,
  0xbc4db2d83cd51be1U, 0x3d949e80bd84e466U, 0xbaaba9973cdef6b6U, 0x3d0586363d5b9e94U,
  0xbce30adbbda41ca3U, 0xbda733c5bd22c30cU, 0x3c5deda23bf5ae59U, 0x3d6fe3a6bcd28d69U,
  0xbd840636bd09b47fU, 0xbd1f1900bd36e8f3U, 0x3da3c7c93d51cc3dU, 0x3d87ecefbda1bad0U,
  0xbcb56859bd8b60bcU, 0x3d959bb93d102388U, 0xbc75162a3d4ce874U, 0xbc03791c3cb01139U,
  0x3d8714543d25f694U, 0xbc886be1bd23bbdcU, 0x3d9839aabcff21adU, 0x3c7fd0023b6610eeU,
  0x3d9234563c2489eeU, 0xbd23a961bd5c3a6aU, 0x3d3f4928bda5e479U, 0x3d0fad2e3ba4a257U,
  0x3d6844083d2d22a0U, 0xbce3df8c3d113268U, 0xbd56204abd82de15U, 0x3d806d98bc3ad235U,
  0xbc75a5173d906afeU, 0x3ceb4c05bbbeddf7U, 0x3c79ff0fbda357ecU, 0x3d0ae94ebcea0b4fU,
  0xbce3e1173d540760U, 0xbce42f11bacc64b0U, 0xbc48e53b3d239d5cU, 0xbc5a34223c0209fbU,
  0x3d321d72bd29a91aU, 0xbd61a7af3c8466aeU, 0x3cdac8e9bd269a08U, 0xbbde3cc33c5b17c4U,
  0xbd101a4a3d8ebe07U, 0x3c7dd97b3d559914U, 0x3b9d1db13c3ba30cU, 0xbcd42259bd575af3U,
  0x3ccacd95bd51e288U, 0xbd53f7103db036c4U, 0xbd95779c3d9bddfcU, 0xbbfc6982bbd8c773U,
  0xbd5b3b933d8208b8U, 0x3cace937bd0a2f85U, 0xbbf837edbda8708dU, 0xbda17a323b2542c9U,
  0x3d81a69abdabed72U, 0x3d80f818bd85cacaU, 0x3cd4ecdfbd4754e7U, 0xbd991f633d8656f2U,
  0xbd82677ebbdc864bU, 0xba7f46a03d19024eU, 0xbd75782cbd2940a1U, 0xbd1711c4bd3a24d2U,
  0xbcc454ddbd4cd488U, 0x3d9839ae3d99dca0U, 0x3bd2f3b5bd3af755U, 0xbd53ff77bd06ffbeU,
  0xbc5e4ef43a14c713U, 0xbd4b040cbd9b3ee3U, 0xbcad8727bd90eb83U, 0xbd5c05683d42827aU,
  0x3d9390d93c148494U, 0x3d8baacd3cd7fa51U, 0xbaa4b9c6bbb36f4eU, 0xbcc5d8053d1922d0U,
  0xbbaa90bf3d873f7aU, 0x3d838e67bcaab0b5U, 0x3cd0675fbd2f9c14U, 0x3daeaa403c5bb1ceU,
  0x3cc1b931bd3f00f1U, 0x3d6e15183d775dd0U, 0xbc8982eb3d1148ffU, 0xbcd8cb62bc0982a4U,
  0x3d73d7373bb87b6eU, 0x3d41f1643ce60b35U, 0xbd2997ea3cf5e7f7U, 0x3c5b8d7e3d774b83U,
  0x3cbbd2db3d5b38c4U, 0xbd6700393c044affU, 0x3d6ef419bd8b569dU, 0x3c1185fcbca86745U,
  0x3d9754c03c12dcc4U, 0xbcf18c83bce906d4U, 0x3d8f646c3d81ec56U, 0xbd82d1ff3d3391daU,
  0x3ce420043c90e131U, 0xbd12bd1fbd40cf93U, 0xbd286d313ca90217U, 0xbcea9877bd6c7e9cU,
  0xbd44229cbd4488f1U, 0x39087fb43d057c92U, 0xbcacb439bd4e62a6U, 0xbd2f15f2bcd76356U,
  0xbd6a8df63cef8a2dU, 0xbb7f45f13d3eb572U, 0x3d8422d43d2b1748U, 0x3d80b962bcca6d21U,
  0xbd53c5123c25b445U, 0x3d096838bd0c44f8U, 0xbd88e3ecbbab791eU, 0xbc493ab53d485bfaU,
  0x3d43292abd8ad1efU, 0xbcba82fbbd39cdbfU, 0x3d2ca2cc3d24409aU, 0x3cb2cf1fbbd467e3U,
  0x3d54d44cbccc83cdU, 0xbd8397c1bd8379e4U, 0x3d91fbfebcacd22dU, 0xbd2189503d5def88U,
  0xbd0163fb3d3ae188U, 0xbd8f12ed3d6b86b4U, 0xbd0c93ecba67895aU, 0xbc58a3de3d0ef935U,
  0xbd8f459fbd5623f2U, 0x3d3daedb3d25c767U, 0xbbd4a4e93dac4ffbU, 0xbc17b774bd8f5389U,
  0xbd9b84e63cd2bfe3U, 0xbc8ea40abd291bf5U, 0x3d173ac03d668590U, 0xbd46f2653d793d1cU,
  0x3b36433c3d7cbfb5U, 0x3c66149c3d4f0cccU, 0x3d5b82b83d0aeb86U, 0xbd853a703d888110U,
  0x3b20e29abca0ca0fU, 0x3b3aaea73d488d7cU, 0x3cef0839bdb1c815U, 0x3cf003b1bd995ac4U,
  0x3d8a36313d5d9c14U, 0xbc98cea5bd953d6fU, 0xbc8d64fdbd333384U, 0xbcf7f3513a95e56fU,
  0xbb1f5e8d3cfc3a05U, 0x3d1cecfa3da336d0U, 0x3d70b7803d0e3448U, 0x3cd919903dad0aedU,
  0xbbfb69bb3d743f6bU, 0x3d5b51e8bd9266baU, 0xbd49fad2bd11f136U, 0xbd5e47643dab722eU,
  0x3bfefc9bbd249034U, 0x3c5c61223c48e873U, 0x3d915df2bd11e840U, 0xbc32f8553d4e9d1cU,
  0x3c6687933bd6be5dU, 0xbd958341bd19e10cU, 0xbd2f26963d95ee3cU, 0xbd8e97663d1c2984U,
  0x3d749fdbba3e8f59U, 0xbd19570e3c71ca4dU, 0xbd8a731dbd23de8aU, 0x3d5c8a443c98c8b4U,
  0x3d2df9183d5f4d70U, 0xbd79a5c3bd859316U, 0x3caa3d953d95e404U, 0xbba6768e3c8597ffU,
  0xbd25cc50bd54237aU, 0xbd8dd017bd35c016U, 0xbd3a88e03d005564U, 0xbc27569abd266004U,
  0xbd0a72a03d408576U, 0x39a5f0c73c0527c4U, 0xbd9005313dab3464U, 0xbca2b06b3c96b9d4U,
  0xbbba5567bc2c48d6U, 0xbd032e4dbda405cbU, 0x3d2df61ebda11de6U, 0x3d6f7ef8bd5fc7aeU,
  0x3d6fd0a8bd7cc5bcU, 0xbc9d3fd3bcd1f0e1U, 0xbc47477d3ce8ea21U, 0xbb2cbc2d3d114d60U,
  0x3c9496cd3d92fdc4U, 0x3d1b05bb3cf7ccc5U, 0xbd2b2abb3d0416d0U, 0xbd4aba4d3d99add7U,
  0xbd89560e3d665c64U, 0x3c5340253cf10175U, 0xbd39b2743d255728U, 0xbca3fa813cb36067U,
  0xbc392b4b3d7ec367U, 0x3ce75955bd6d4293U, 0xbd4ce6713d759cc3U, 0xbd2dc064bccbc31bU,
  0xbc90dc6dbd8b4e87U, 0x3d321e303da1b5a9U, 0xbd8f00133d977e86U, 0x3c01726d3b443269U,
  0xbd4e1d2ebd192330U, 0xbd54860cbd9da31dU, 0x3b705f49bd040cd9U, 0xbd71fdfc3d8df1a0U,
  0xbc9dab593cffd671U, 0xbbe7c0f43dafec24U, 0x3cfc8c293c53430bU, 0xbc7aa121b9947a25U,
  0x3cc3d1d03bf71b8bU, 0x3d545075bd2e9656U, 0xbd04606c3d8aec42U, 0x3d3aa5a43d64dc48U,
  0xbce43f453d41ae3cU, 0x3d387e8ebd19c220U, 0x3d7e2e003d975f58U, 0xbd786470bcb33023U,
  0x3b0cc035bd8887a3U, 0x3d4f8464bc2981f7U, 0xbd18b2a0bc7e1576U, 0x3d8a5e66bd89a333U,
  0x3d957fb43d3de7d8U, 0x3d3407a83d8f2bf6U, 0x3cf290a2bda7908fU, 0xbb97a548bb2433cfU,
  0xbd0c5d8a3c7887afU, 0xbcfd0a563d91f4a2U, 0xbb794695bcab4f7fU, 0xbd0de5f0bba2cb23U,
  0x3c8115f03d7c2e68U, 0x3bf7ed67bcee3e97U, 0x3c20783dbc65ea6bU, 0xbd0753ecbd1e6a1eU,
  0x3d8ef9f8bd7baee6U, 0xbcb33b693d01467aU, 0xbc170bd5bd98847aU, 0xbd834eec3be0957cU,
  0x3d8b75923d1b28f1U, 0xbd7a0f95bc59714aU, 0xbcb292913c3ad724U, 0x3d9204f6bd212217U,
  0xbda35ec3bb2ec014U, 0xbd65f2863c5fbdfdU, 0xbc044364bd33a85aU, 0x3d49dab2bd4be32eU,
  0xbd90f1903cb33d71U, 0x3d02bf75bd6911ceU, 0xbcebfd5e3da9aedeU, 0xbcd64b753d9b605eU,
  0xbd717a84bd1be191U, 0x3ce9ad213bc3cb4bU, 0xbcbb6ff9bcac9803U, 0x3cf9e0453d837dfeU,
  0x3d4d9f58bcbda7ddU, 0xbd6f90453acbfab7U, 0x3d94d1013c8c10f4U, 0xbd7bbb013d401c6fU,
  0xbd95fc3a3d0f8e81U, 0x3d2c58313c40f5d1U, 0xbd3090323da30c54U, 0x3d06701fbccbc05bU,
  0x3d556458bd3efb1aU, 0x3d1911f0bd9c9ce3U, 0x3cb91c2fbd930e80U, 0xbd61a7a33d920582U,
  0x3c68e305bdaf18c7U, 0x3da0f2d03d89ebfcU, 0x3cb76425bc0d82f5U, 0x3cab8c35bd3ee42aU,
  0xba25e822bd114d36U, 0x3d035a5bbd1f9e44U, 0xbd825ce7bcd9ce69U, 0xbd7d4b63bb45ef15U,
  0xbd99d4dabc8a6e62U, 0x3d66f290bcfbaa45U, 0xbcdc5fa5bcd48d79U, 0xbccf10b5bd95e889U,
  0xbd8f9e793d3dc7d4U, 0xbd90d870bd092783U, 0x3d583370bc3f9ba5U, 0xbda180f5bce926c3U,
  0xbd627b213cda1042U, 0xbc6696f4bd2fa22eU, 0xbd820806bcc5ff71U, 0xbc7651acbd68141cU,
  0xbcd8f347bcfe8a15U, 0x3d8dbdb13d0bf890U, 0x3c95efa73cb5701fU, 0xbd4fde313cf7797cU,
  0x3d5d877cbd484411U, 0x3ca0e9633d13ba42U, 0x3d62b2dcbd8e22a9U, 0x3d530cb0bbbf359dU,
  0xbd27aee73d259730U, 0xbd23219fbd6ac258U, 0x3d570864bd48c47dU, 0x3c98c29b3d832bd0U,
  0x3c4a37953c0d023cU, 0x3b1a2888bd07dcb1U, 0x3d701a78bd10a743U, 0x3d8420debd5795a0U,
  0xbc6e5bd4bd4a2a4fU, 0x3ad63f943d932b58U, 0x3d876380bc9bcbb9U, 0xbd9c7dc6bd79ca55U,
  0xbd8ac37c3d1d0460U, 0xbd2afc81bd15d28fU, 0xbd848442bd7036b4U, 0xbd73c2123d2ba858U,
  0x3c0c4df4bd587fbbU, 0x3c4adaf5bda3694bU, 0x3d0aaa4ebd3cc4f5U, 0x3c4874cdbd25e4a7U,
  0xbd3e030bbd220cc9U, 0xbd16694cbd61e8bdU, 0x3cc134fb3d5b0fdcU, 0xbd6f2d723c992eefU,
  0xbd3f8cfbbd214bdeU, 0x3c84d43b3cbf9613U, 0x3b8710f43d99342cU, 0x3d425354bd61cefdU,
  0xbc2666abbd967117U, 0xbd7deed73be63e35U, 0x3d2a1ee43c790757U, 0x3ce4dfc93d467c9cU,
  0xbd36f6f13ca962b3U, 0x3d3cef50bd5ea74eU, 0xbc4807cb3cd0021bU, 0x3d7b9057bd06eb64U,
  0xbce73a5fbd331b36U, 0xbd0fabda3c8076d3U, 0xbd0262dfbd783054U, 0x3afa74443d961c70U,
  0xbd80099fbd40ecd7U, 0x3d85b0483ce5b309U, 0xbc8d291e3d89a4d4U, 0x3cde3fbd3d81dc9eU,
  0xbd870f7dbd2683e5U, 0x39d86b29bd3ffaeeU, 0x3d67b3b4bd8f2187U, 0x3d825fe5bda008b7U,
  0x3d72b5583d84142dU, 0xbdafb2e13d082f5eU, 0xbb634498bc95dfd9U, 0x3c81b143bd4b67f3U,
  0xbb8276903d45f2f0U, 0x3d85390ebdaaacffU, 0xbcf03173bcbb6751U, 0xbd6d81d6bd3d3517U,
  0xbd93639f3d826e8eU, 0x3d3db81cbd01cb2eU, 0x3c5ac6ee3d8bca29U, 0xbd1da6113d814f2dU,
  0x3d4da50cbd228368U, 0x3c881ea3bd90ca7dU, 0xbd3c4aec3d489fd8U, 0x3ced49aabcb30f25U,
  0x3c29cf143d243c68U, 0xbd2e98713cdb349aU, 0x3d97fed6bd96d43fU, 0xbd765db0bc28a623U,
  0xbcea6b793d03f1aeU, 0x3c329a253d739154U, 0xbd3340b0bc93381aU, 0xbd045a033ca6119fU,
  0x3d524a68bd70c3f6U, 0x3d297960bd835c4cU, 0xbd9c7d303d6a8a54U, 0x3d0b419cbc7d5924U,
  0xbd441388bb263ebbU, 0x3d8ac79b3d021ee6U, 0xbc3fba9dbd7a2699U, 0xbbe32eae3d4df958U,
  0x39a95d12bccace11U, 0xbcb265413d058522U, 0x3d3e1c5cbc48230bU, 0xbc8ac275bd843ecfU,
  0xbd1f41b0bda56112U, 0xbd8fc0eebd70c9f1U, 0x3d397b4c3d7ca451U, 0xbca4845abba80eafU,
  0xbd90f8f43d2a6e78U, 0x3c3c0a85bd77e06eU, 0xbd9835bebdaa8235U, 0x3d6425b0bd2b4860U,
  0x3d1d845c3d14915eU, 0x3d3c9b843d978fb4U, 0x3d70cca8bd3280d7U, 0x3c2bca64bd9841baU,
  0x3d3aec8c3d6fceb4U, 0xbd82c7833d49ebb4U, 0xbd15c0bcbd458ac7U, 0x3d09a7183d829a60U,
  0xbda26e4cbd19ca5cU, 0xbdb0f0253cce9e7bU, 0xbce92e333c3c1895U, 0xbd07ce96bd93f7e2U,
  0xbb396198bbe8af2dU, 0x3c5544fd3d7e9404U, 0x3d61a94cbd23b4c6U, 0xbd9386b0bd16831aU,
  0x3d529170bd265121U, 0x3ccef6703d410f3cU, 0xbc492bc83d614fb8U, 0x3d492a603cbef810U,
  0xbd8790cc3da257a6U, 0x3d9f5dd6bbab0970U, 0xbd1aa204bcacd624U, 0xbbccf3e03cdaf2f4U,
  0x3d919472bce66b4aU, 0xbc94eda03d79f778U, 0x3d9436c43d8e76c0U, 0xbd4ae2563ce19f40U,
  0x3cb15828bd8485aeU, 0x3ba7f1f03d84d550U, 0x3a64f400bc900230U, 0x3cd0ee103c27f5c8U,
  0x3d2740cc3d848668U, 0x3d2d1268bd0f95bbU, 0xbced4a28bc80f818U, 0xbc77ca283c292e38U,
  0x3c90a6403da49abeU, 0x3d6e24703d7296a4U, 0x3caa8264bc80e118U, 0x3b97e3503c1e9268U,
  0x3c3c13f0bc6255e8U, 0xbd9966bb3d6b201cU, 0x3d416df43d8011e8U, 0xbd853dce3d223354U,
  0x399de1003d4755bcU, 0x3b6018c03d93b59cU, 0x3ca25e143c632ab8U, 0xbd8c162a3d9c37fcU,
  0xbd751024bcde7632U, 0x3bad8ab03cb02c78U, 0x3da11eb8bcfbd500U, 0x3a9936c0bc892ed4U,
  0x3cc673e4bba61760U, 0xbd856fa8bd25f04cU, 0xbd666aba3d24d122U, 0x3d60f2fcbcefebf6U,
  0xbd8686073c2f4cb0U, 0x3cf957a83d91efc6U, 0x3ce26b1cbd074c16U, 0xbd907caa3d7d2d7cU,
  0x3ca606303c4ec2b8U, 0xbd49696a3d06611cU, 0x3d8cd6943d696e1cU, 0xbc10c7f8bd1241fbU,
  0xbd897f68bd758051U, 0xbcd31b68bd6c9e0fU, 0xbc6bbda83d903f76U, 0xbac7af80bcd36644U,
  0xbd48e43ebca095feU, 0x3ccb1ef43c987760U, 0xbd6c6fa2bd96a637U, 0xbc8ddab43ac17700U,
  0xbc670b683cbbd0acU, 0x3d0ff07a3d1eec42U, 0xbbe93210bd47e366U, 0x3c90313c3da3a386U,
  0x3bf10be0bd92106aU, 0x3c4e81503d2f8b58U, 0x3c0eecd83bd856b0U, 0xbd9161cc3d5d0fd4U,
  0x3d6d22d03d86b31eU, 0xbd308e843d204094U, 0xbc044da03d156688U, 0x3ca63640bd7d056cU,
  0x3d88f54ebd82f2f1U, 0xbcdf88423d20705cU, 0xbd84af7abd118c5dU, 0xbd5aa314bd63f9d5U,
  0xbcba85283ae636c0U, 0x3d3cb37c3d59eb04U, 0xbd1e2b71bd50c731U, 0xbcde66f43b2c9360U,
  0xbd0be6593d5a0ec8U, 0x3cf133443d9b1a6eU, 0xbd6d0a503d96a068U, 0xbd27a797bd096f30U,
  0x3d42e308bd9d7f6aU, 0xbd74ed7b3d3b0c28U, 0x3c77a5b03d90711aU, 0x3d22d44cbd6d6724U,
  0x3d4f0258bcfbe47cU, 0x3d2550103d285894U, 0x3b7880203c20e460U, 0xbc4bcdc83cde721cU,
  0xbd94e64e3d82eb02U, 0xbd74f1583d8a88feU, 0x3d81eb08bcc7dedaU, 0xbbea1ae03d6d840cU,
  0x3d88fc823d9da9aaU, 0x3cae859c3c4a56e8U, 0xbbaa9fe0bcd3f24aU, 0xbd8990823c554b30U,
  0xbd7708603d7bb770U, 0xbd9618263d3b67b4U, 0xbc76f7b0bcc09598U, 0x3be944f03c890e80U,
  0xbd98f8e2bccb3f4aU, 0x3d91fb963d437f68U, 0x3c42b4f0bcbd419aU, 0xbd0377a83d9505c0U,
  0x3c086ec03c113f10U, 0x3d948166bd855d5bU, 0x3cd62dd43d05b630U, 0x3d125446bd93473cU,
  0xbcd98afe3c0ba0a8U, 0x3ce3defcbd2b1cedU, 0x3ce767d8bd66cec5U, 0x3d8563223c314ac0U,
  0x3d8350e43d91367eU, 0xbd83d5803d282a5cU, 0x3d59bf38bd2d7812U, 0x3d863decbd096f9dU,
  0x3c7b4d38bd68d8f3U, 0x3d529fc43d853a38U, 0xbd5602a23d039d08U, 0xbd97bf3cbc52d440U,
  0xbd66aeb7bc8208dcU, 0x3d9cdc043d5d8e7cU, 0xbcc0cafe3d534bc4U, 0x3d603d94bb8b5010U,
  0xbcc112a8bd97e7e4U, 0x3c089e483be172c0U, 0xbb112940bd03d38fU, 0xbd2b20a03d7cfa90U,
  0x3d7de5903cf4ea20U, 0x3cffeeb03d3d7848U, 0xbd83e612bd2f28b7U, 0x3d3c10fcbd1e264aU,
  0x3d5a84083da13e76U, 0x3d24a4babca513f8U, 0x3d694ec43c001168U, 0x3bb13a50bcebc5bcU,
  0x3c98c74c3d3ba52cU, 0x3b8514503c948f0cU, 0xbd5d76ecbc5b51e0U, 0xbda07a04bd3d922fU,
  0x3da345243b0df680U, 0xbd47c8c8bd9c2801U, 0x3d5a80ec3d933fcaU, 0xbcc362ba3d729800U,
  0xbca946c43d3223b6U, 0x3c9b82f8bcec8b7cU, 0x3d6ad2503c2ddb50U, 0x3c5c17703bf068e0U,
  0x3a80d840bd37728eU, 0xbc349790bd41ba74U, 0xbd339bc8bd2ba695U, 0x3d2ab440bd818ae0U,
  0xbd223a433d66a850U, 0xbcbd0aea3ca9b078U, 0xbc0a45c03d8d9c6eU, 0xbc5e7020bcf7ea66U,
  0xbcd9d60e3ca35dc0U, 0xbb86ca303d250de8U, 0xbd471c80bd56ce48U, 0xbd9580053cc9c644U,
  0xbc26ec08bd589654U, 0xbb7b68e03d1b08eeU, 0xbd3779fe3cbaf048U, 0xbd02da9e3d1c98c6U,
  0x3d4eb4f8bd085a27U, 0xbbf7d990bc10c7a8U, 0xbd4aeee33cd25034U, 0xba7bd5003d6e0490U,
  0xbd122aa33d1a2faeU, 0x3c80b79c3af44600U, 0xbd458092bb81cc80U, 0x3d5d75543d43f5e8U,
  0x3ce5c4783c2c21f8U, 0xbd04a1923d678d44U, 0x3d7e65103bb16c20U, 0x3c3f39a03d987378U,
  0xbc9567183d025eceU, 0x3bf3cd00bc2f12b8U, 0xbc8d8c343bf89930U, 0xbd9d9493bca28dd2U,
  0x3ce813bcbd436f9fU, 0x3d590e74bcdc4466U, 0x3c3edcc0bcba86e6U, 0x3d5c0c74bd878725U,
  0xbc1d90d03cd636d8U, 0x3d8dc1803cb359f0U, 0xbc75de20bd82dd05U, 0x3d9eb0763da56840U,
  0xbb7810e03cba0a70U, 0xbca3f5e63c20e868U, 0xbc0f44f8bd4e3a3aU, 0x3d91aefebd18fb13U,
  0x3d08acd63d84f08cU, 0xbd80fee4bd57bbaaU, 0x3d6ae0483cf562e0U, 0xbce272f2bd96f1f2U,
  0x3d1f4628bc9ac316U, 0x3cff3ae43d8dbb6cU, 0xbcb218c63cbf4e60U, 0x3d8774c8bc9e8944U,
  0xbc9cd40ebc7003d0U, 0xbd7a7bb63d8dce4cU, 0x3d30588c3d40c04cU, 0xbd6d2eea3d81b65aU,
  0x3d9b84c0bc502a18U, 0x3d8f313a3d85ec24U, 0x3d4e8e90bc0f1868U, 0xbd31eb8b3d0f9a76U,
  0x3d262e6cbbd88be0U, 0xbd1b37a43d51b790U, 0xbd5788b1bcefe556U, 0x3d3b95cc3d8e1b82U,
  0xbd5a2dc63d03cdc8U, 0xbd819defbcea8354U, 0x3c6394f0bd927fecU, 0xbc8aa6ecbd71526eU,
  0xbd3d8b743d949e04U, 0x3bebda703da07318U, 0x3a882740bd9538e8U, 0x3d6d30acbd5392eaU,
  0xbda55b113d933b56U, 0x3d9d3ef4bd879cefU, 0x3c7a0df83d8be8b8U, 0xbd71e232ba64f180U,
  0xbd8cc4df3d94f3c6U, 0xbb2eeb80bd5eba72U, 0x3b4534e03cd6f368U, 0x3b570e403d1b916cU,
  0xbd721d2c3d12f8bcU, 0xbb2e24003cb6c9b0U, 0xbd983ad13bff1070U, 0xbd88e83a3cfd2830U,
  0x3d787c58bc484008U, 0x3cf5b9bc3d9d63a4U, 0xbd84e7383da2247aU, 0xbd1359003c852a08U,
  0x3d0e081cbce999eeU, 0xbd8ae85f3d22dd40U, 0xbd66437a3d9ae664U, 0x3c56fa403bb3ba70U,
  0x3ce871f4bc4eecd8U, 0xbc4d2fe0bd7c0510U, 0x3d6e26283c7cb0b0U, 0x3cc279dcbd8c2e54U,
  0x3d17014e3cf2c98cU, 0xbca414be3c92f704U, 0x3cf8792cbd8be050U, 0xbd145ab13d2e62baU,
  0xbda53e183d672f18U, 0x3d442368bc9bce46U, 0x3d740ef43d991dbaU, 0xbd73b0a63d971480U,
  0xbc77ed003c522fa8U, 0x3cfcfe643ce25d1cU, 0xbd7cf8153ce296f8U, 0xbc9faaa63d14ddaaU,
  0x3d7d76243d8e36f6U, 0x3caa1c3cbd2f79fcU, 0xbc931dd43d5cd8f0U, 0xbd683a79bd1c9816U,
  0xbd581c3cbd263ab2U, 0xbd861d9bbd3858f2U, 0x3d974ecabda47722U, 0xbccfd4983d22718aU,
  0x3d3b639c3ceaa294U, 0xbca520febda18b39U, 0xbd40045f3c3fd7f0U, 0x3cd197b4bb8ce1b0U,
  0x3d98f25ebc8f07e4U, 0xbcd7d2043cd86f10U, 0x3d24ccdebd67ec7aU, 0xbd33a483bd10157cU,
  0xbd374dcb3d9db798U, 0xbd3d6ce03a351680U, 0xbda373ddbc5f57d8U, 0x3d777e3cbd9e1b51U,
  0x3d442c4c3d2a01beU, 0x3d2ac2b4bd87698eU, 0xbce85a1a3da0eee4U, 0x3d418de4bcd7ddaaU,
  0x3c3ecce83d43e220U, 0x3d3d20b8bcc6426cU, 0xbcb798c6bd9995e2U, 0xbcf0c342bd25520bU,
  0xbd35517a3d38b034U, 0xbcf92b12bda146a8U, 0xbda25992bd13f331U, 0xbc9eb0a23d5cc138U,
  0x3d3dba68bd986702U, 0xbca04e00bce4c738U, 0xbcd2d824bd2f943dU, 0x3d0803da3d925d7aU,
  0x3d2190883d10bab6U, 0xbd75cac1bd29cf56U, 0xbc7279c03c7d1410U, 0xbc187d90bd129b56U,
  0x3d0dfbfcbcab3c0cU, 0xbc555e98bcca1c92U, 0xbc21c018bcaa4bd2U, 0xbc0e16b0bcd220deU,
  0xbce981a23cf93f5cU, 0xbd4fa3f8bcb184c0U, 0xbd877ca83d704b4cU, 0x3ca7ea683d4b2488U,
  0xbbe552403d8c3c6cU, 0xbc220ad0bd2fc3f0U, 0x3d704f243d293070U, 0xbcb22bf03c77cf38U,
  0x3d98c82cbd4fefccU, 0x3cbd7ca83b8a69a0U, 0x3c46ee683c715960U, 0x3cf9203cbb9ca890U,
  0x3c5547e0bd24b02bU, 0xbd257c5dbd8e89d1U, 0x3d83840cbd1fe8e1U, 0xbd8f116a3bdb7790U,
  0xbc261c303cc41948U, 0x3cd406103afe0680U, 0x3bff9a00bd5b3d07U, 0x3cc5d6543c511558U,
  0xbd4101c33d83e95eU, 0x3b9dbde03d838b32U, 0xbd918840bace6540U, 0xbcb51cbabd477754U,
  0xbd463a0d3cc5111cU, 0x3ad054003ca52c58U, 0xbd270686bce424e2U, 0x3d3e168c3d3c0420U,
  0x3cb755f4bd914655U, 0xbd0c7bb03c58f9e8U, 0x3c9c59d03cbf2a50U, 0x3d68df48bd7d9525U,
  0x3bd5c3003d8a55e6U, 0x3cf7fc38bbdf28f0U, 0xbda56f3fbd10d2d8U, 0xbc5fbe58bd6deb96U,
  0x3cdf436cbcfa4b14U, 0x3cb193043da1037eU, 0xbda4795b3d6a0998U, 0x3da2474cbbb87650U,
  0xbd7de3673c08fa08U, 0xbcffe794bd18ab7cU, 0x3d9dfe98bcccd610U, 0x3ce3a8c83cbd0accU,
  0x3ceee420bd1918fdU, 0x3d884dd8bd0875bdU, 0x3d2b7c383d04c44cU, 0x3d7860ccbcae2b96U,
  0xbd8e9d19bd515c11U, 0x3d82474cbd7bc332U, 0xbd914ab0bd24deebU, 0xbda4f0113d91b5acU,
  0xbd601faebc17a648U, 0xbd4e892cbd8f9a9aU, 0x3cbcbf5c3c950cccU, 0x3d8b9bfa3d119a02U,
  0xbbc50fc0bb43ec60U, 0xbd362057bc06f760U, 0xbd30ebee3d947a02U, 0x3ce777fcbaafa2c0U,
  0x3b9d0c003cf6ba24U, 0x3d8f92eebd0e0367U, 0x3d8aad2aba165100U, 0x3cb5e804bd7dce86U,
  0x3bb5b8a0bcb9d8e0U, 0xbd901df1bcd1fa2eU, 0xbd83a7f43d21cdeeU, 0x3d55fdf8bd57ff64U,
  0x3c1728003da27052U, 0x3b4cc4a03d679edcU, 0xbd507e9cbd855feaU, 0x3d091f94bc87a8acU,
  0xbd0bfe613da41b34U, 0x3b803e403d1d17beU, 0xbd38d315bd1412f1U, 0x3d24b03abacfb980U,
  0x3d47e78c3d2d6c9cU, 0xbd54087cbd96b40dU, 0x3c15da80bd87215cU, 0x3d83db0c3d788580U,
  0xbcc52b0e3cd0adfcU, 0xbc2193103c3f5880U, 0xbd9b72443d0f1260U, 0xbd99f7a53d400cc4U,
  0xbd8500243cba88f4U, 0xbd4cfc67bd8deafdU, 0x3d23a60c3da062baU, 0xbc98b53abd0398d3U,
  0xbbfec4403d8b8d44U, 0xbd132fa0bd2117deU, 0xbc8b86c0bb0fec60U, 0xbc29f6d03b1efe00U,
  0x3d12e9b2bd2152c9U, 0xbcafb4c8bcd2d5c2U, 0xbd82fb593d8db202U, 0x3c863a003d0fdc0cU,
  0xbd0f8220bcf87e6cU, 0x3d0176f0bd03b68eU, 0xbca52336bd902c0aU, 0x3da229663d64d5c4U,
  0x3c8860f8bc1d5ea0U, 0x3d423ec8bd82ad38U, 0x3cf7c450bd359d30U, 0x3d4c7f90bd308835U,
  0xbd503b98bd467a8cU, 0x3ce30b043d106d76U, 0x3d5a11d03c58e7b8U, 0xbd7dc8f23d204822U,
  0xbc6943583d0b8fa8U, 0x3cd42e1cbc717710U, 0xbcd016863c7c77f0U, 0x3d4224343af90a80U,
  0xbb4f79003d2967acU, 0xbd7363f23d974928U, 0xbd6f48a2bcaa4e68U, 0xbcfa39763d73f604U,
  0xbc76c7703d960e64U, 0x3d554e68bd8c122cU, 0xbcc46b36bc719168U, 0x3d761da43d37a7ccU,
  0x3ccd9040bd82dce6U, 0xbd241bd7bcd23112U, 0x3c93cf303d13ab4cU, 0xbcb4a9323d85ae10U,
  0x3d9e4bdcbd66005aU, 0xbd0b53923d35f704U, 0x3d9430d03d5b4640U, 0xbba3e4403c3174a0U,
  0xbcd2aeb6bc7c57b0U, 0x3d11629c3cc3217cU, 0x3c93e6643d605034U, 0x3d68bf3cbd6087f9U,
  0x3c2534e0bc99aaa2U, 0xbd6732d6bd4c87c8U, 0xbd032d763d9e1846U, 0xbc543c403b94be90U,
  0x3d4198483d28548aU, 0xbcd9b984bd60bcb4U, 0xbd99f8b23d8af690U, 0xbba56c803cc84688U,
  0xbd58b410bb184b20U, 0x3c2ac0583c0a6710U, 0xbc2ede58bd096631U, 0xbd343a193c04b3e0U,
  0x3d321104bd4de45eU, 0x3cf590303ce4c3c8U, 0x3d8fd1bcbd586854U, 0x3d82f2da3cca6448U,
  0x3d646220bc7ddd70U, 0x3da1a7163da56fc6U, 0x3c0fe6683d9233b2U, 0xbd88581fbbaf0130U,
  0xbcccc280bcb37beeU, 0x3b7cbfa0bd74b74cU, 0x3d3b2d68bd67db14U, 0xbc8609bcbd5d7c1eU,
  0xba5dd7003d4b0608U, 0x3cd1cb18bd8dfbb6U, 0x3d951c60bb6b5da0U, 0x3d83c70c3d20492aU,
  0xbd68f608bd8e57c6U, 0xbce19178bc84a750U, 0xbcaac448bd4ae930U, 0x3d8a3e9cbd13c19dU,
  0xbc39b7883d08784aU, 0xbd69b214bd0a7432U, 0x3cd0f828bd673e0eU, 0xbbcca210bd219da5U,
  0x3c2239f0bd88eaf4U, 0xbd9f5120bda42266U, 0xbd054129bd92b04cU, 0xbd40c74abd52eb1aU,
  0x3d759cf43d286950U, 0x3d2fa58abc9e444eU, 0xbda3bc3bbd2a911aU, 0x3d5d95383d1d316eU,
  0xbd1c2bcb3d27e01aU, 0x3d0ec4a03ac44840U, 0x3d93849a3d3f926cU, 0xbcae06e2bc943aecU,
  0xbd4c411abd66bb1bU, 0xbd1ae030bd6fdb40U, 0xbd973d32bd36c99cU, 0x3d277752bd655100U,
  0xbd4a6c9bbda1659aU, 0xbcd285463ca556b4U, 0xbd64e9f1bbef15a0U, 0xbd10e1603d27476cU,
  0xbbe4cc00bc969562U, 0x3ce650bc3cdf9780U, 0xb89ea0003c81d29cU, 0xbd12171dbd8a85feU,
  0xbd90e725bd683160U, 0x3d9723443d6c8e94U, 0x3d92ff523cd2f204U, 0x3d9bc6263d2e7f34U,
  0xbd9b1f783d681cccU, 0x3d875df03ccb82acU, 0x3c452718bcf797d0U, 0xbd2335063d8cbfe2U,
  0xbda4d2b1bce0585aU, 0xbd575f803d008a8cU, 0x3d2cd76ebd86d98aU, 0xbd4a500cbd8d2493U,
  0xbd2d00663d31c240U, 0x3d021090bd4da45cU, 0x3d488c143da0c5b2U, 0xbd2c6206bd011cffU,
  0x3d205434bd8cde6bU, 0x3d881ffa3d9c75c4U, 0x3d08dbd4bd7674e0U, 0xbd92bc48bd390c71U,
  0x3ba651503c82922cU, 0x3d8c2908bb316360U, 0x3d54da28bd42c50fU, 0x3d904ff2bd822c41U,
  0x3d3d2890bbd8faf0U, 0x3d192f963b721320U, 0xbd44a4923d532834U, 0xbbbca580bda52c37U,
  0x3d87abccbd3e6f66U, 0xbbaebbd03ced0844U, 0xbd6279173b94a5d0U, 0xbbb799203ce13388U,
  0xbbd5f4f0bd2a2bb9U, 0x3d57d7943d94ffaeU, 0xbd8a49ed3d442c30U, 0xbd85d0a73bc279c0U,
  0xba94c000bd9c7289U, 0x3d220c00ba210600U, 0xbbba5f50bc45b4f8U, 0xbd970afbb990ce00U,
  0xbda393123d8c1afcU, 0x3d109aae3d94078cU, 0x3d49348cbd3cf222U, 0xbd2b40fb3c2f0fa8U,
  0x3d9a93aebc045b98U, 0x3d8945663cfafa98U, 0x3b4edae03d8d1e28U, 0x3d1fc768bc84c16cU,
  0xbda3b9cbbd523cd6U, 0xbd269d4e3c4f7e10U, 0xbcb6cfe0bcd9a094U, 0x3d074ba0bd2e4160U,
  0xbcd622c0bd313ca2U, 0x3d6199dc3d456cf8U, 0x3c08e910bd8d35e7U, 0xbd35d4e93d1a34f6U,
  0xbd3c2052bc166c58U, 0xbd9c8fbbbd1e3163U, 0xbd87caac3d927058U, 0x3d987fdebd99f2aaU,
  0x3c8ce0d83d968f1aU, 0xbd8c35a83d44d1b8U, 0x3d0026be3d9c9ecaU, 0x3cb5fef0bce69ec0U,
  0x3c5e4a783b1e4280U, 0x3d916e043bb38520U, 0x3d0719b4bd78a550U, 0x3ccb83d83c0babe8U,
  0xbba171803d6a8df4U, 0xbd784f9e3d0d1f0eU, 0x3d65991c3d42acd4U, 0x3c540888bd7b8b74U,
  0xbc393cf83d656580U, 0x3c7360403cff7748U, 0xbc3011b8bd4d2edeU, 0xbbef2eb0bd064035U,
  0xbcc3ba203d2365a2U, 0x3d80e1c0bd7039b2U, 0xbd96a0d73d699734U, 0x3da52f3abcf8065eU,
  0xbd8c905d3da05dacU, 0x3d37282cbcd2ea54U, 0x3cbf28bcbd83bd0bU, 0xbd28eababcbd02deU,
  0xbd48687d3d923e1cU, 0x3d5dc0fcbc9297e8U, 0xbcae2640bd7ad178U, 0xbd374860bd48fd9cU,
  0x3ccd627c3d5fd044U, 0x3d8eabb6bd7b0930U, 0xbb91c5803c48bbf8U, 0x3c894d64bc682ef0U,
  0x3d93628a3d797b78U, 0xbd9428783a9d0500U, 0x3d16c4743c8ee3a0U, 0xbcacd9b2bd41a247U,
  0x3d0a45a6bccac892U, 0xbd7d3c513d9fdd04U, 0x3d8c6e10bd9feb94U, 0xbd76e54f3af9a3c0U,
  0xbd32e956bd866591U, 0xbd77928abd0694b1U, 0xbd11988dbd587299U, 0xbd2329e4bd99b7eeU,
  0xbd11e9753d721e18U, 0x3d90339a3c353ab8U, 0x3d84b4683d3d57f0U, 0x3d87e25a3c3456e8U,
  0x3d60cfb03c6ee440U, 0x3d9a49ea3c86f27cU, 0x3d8640803d3543d0U, 0xbcf378fcbd51acc6U,
  0xbc8d3c343c6c6bb8U, 0xbd37a0c83d9bf31cU, 0xbd174ca33d90f44cU, 0xbd867080bd948aceU,
  0x3da4ea58bd384a79U, 0x3cf3de343d41ce00U, 0xbc276a00bd9c6cbcU, 0x3d4534e03d1de3bcU,
  0x3d3ecf28bd5d77faU, 0x3d5b9860bd56aec6U, 0x3cf7ba40bda4c3c6U, 0xbc76bec83d102c9cU,
  0xbcd6af96bd7ad275U, 0x3d0fb1d2bd1f8883U, 0x3c9f136cbc47b918U, 0xbcf3a07a3ca46214U,
  0xbd5109723d0b2ed4U, 0xbc692880bc304778U, 0xbd6482093d632da4U, 0x3cca1fec3da25a42U,
  0x3d8c9a9ebd1023f5U, 0x3d17855abb1307a0U, 0x3ba02ea0bcb44fc8U, 0x3cd281143d4277a0U,
  0xbd438bbc3d983f48U, 0x39dff4003d1228aeU, 0xbd318b0ebd87af12U, 0x3da4d9da3cdae3c0U,
  0xbd4633debd81e56aU, 0x3d49f5903d278fe6U, 0x3d38e0b8bd3968eeU, 0x3d42c7f83c700650U,
  0x3c602488bd8bc524U, 0x3ca2f1b4bcf99fe4U, 0xbd807c543d6dca10U, 0x3d86dfc4bd7ca640U,
  0x3cea58c43c063a70U, 0x3d32cec8bd2b9762U, 0x3c6b32d83d9752d4U, 0x3d3e8874bd97abbdU,
  0x3d8713143d298596U, 0xbb5fac60bd53deaaU, 0xbbd773303d4d073cU, 0x3ccede443d935da6U,
  0xbd9de35fbd907e93U, 0x3d2a271e3d2b6488U, 0xbc8553643ca81be4U, 0x3d5a53f4bcb78d18U,
  0xbce17c9cbd94a0b7U, 0x3d97e056bca94718U, 0x3d2e09bc3d95c33eU, 0xbd8bd373bd85b670U,
  0x3cfa5c783c2de880U, 0xbd17dfe53ce116a8U, 0xbd9b278ebcf00526U, 0xbd8d21a73cd5d8bcU,
  0x3d544a08bd945ac6U, 0xbd7677f73bda0ac0U, 0xbd631f443bf07480U, 0x3b59e9c03d8fb95cU,
  0xbd07b9ea3d81f718U, 0xbd0f098bbc1bddf8U, 0x3d7b74f83cffecf4U, 0xbc601ba0bce62812U,
  0xbc172e60bd8af89fU, 0x3d03c37ebc10c278U, 0xbc5945403d6e09f8U, 0x3d8cdb20bc680398U,
  0xbd0425c2bb983b20U, 0x3caeeb643d99618aU, 0x3d31e9ae3d2db4b0U, 0x3d8fbc9e3c48bd30U,
  0x3ba1e4d0bc5c5038U, 0xbca99600bd332eb9U, 0xbd4427a03c61c548U, 0xbc8e3ba0bd44cc59U,
  0xbd9512b8bd7b1cacU, 0x3c212698bafaf180U, 0xbd670483bd5448eaU, 0x3d18da603b05f300U,
  0x3ac602803b0eec40U, 0xbd936206bc2301f0U, 0x3d83d01abd86fa62U, 0x3bcfe910bda54c7eU,
  0x3d12570a3d907a90U, 0x3bf35360bd283e72U, 0x3ca09f34bb88ac80U, 0xbc1f84883cff7d3cU,
  0x3a9d6f00bda2cf2cU, 0xbd9a817dbd794246U, 0xbd5bd3043d8113ceU, 0x3d9cf46abd800336U,
  0x3d8977123cd9c710U, 0xbd920a90bd14ace5U, 0x3c4d08c03d7a8428U, 0x3d9d7f0e3b537400U,
  0x3ce0261c3a93ad40U, 0xbd50fbbe3d809a86U, 0xbc1c7ca83c813490U, 0x3d025de4bd5952d8U,
  0xbd842eb9bcdf4058U, 0xbd0ce55fbd1a99a6U, 0x3d08efd63d7e2784U, 0xbd5fe82ebd767590U,
  0x3d629958bc5950a8U, 0xbbdd42403cd43c98U, 0xbd27c933bd4e464aU, 0x3d24ac7ebc867ff8U,
  0x39246c00bb9a6f40U, 0x3c0319083ca63d7cU, 0xbd0d4444bcff5a24U, 0xbd9b1014bd3122aaU,
  0x3d03edd03cfb266cU, 0x3b42c4c03d382020U, 0x3d84f0183c0212b0U, 0x3d20dcc0bd7c27e3U,
  0xbcb25554bd3d5476U, 0x3c4f6360bd5997fcU, 0x3cf728dcbcbcc82cU, 0x3d0c1184bd571906U,
  0x3d3d93d43c7ebf78U, 0xbd8a6f08bd97cc26U, 0x3d9fe12c3bba9690U, 0x3d02d210bcdf3d28U,
  0xbceef86abd170cbaU, 0x3d56b544bd607328U, 0x3bed7640bcf9f3eeU, 0xbd4c9e6cbcf2763eU,
  0xbd6ea0f23d413b24U, 0xbab58bc03b8515a0U, 0x3bb805003c8767acU, 0x3d9529dc3d8f291cU,
  0x3d4904c0bd94edfcU, 0x3c9e5b18bd0fde9cU, 0xbc1087c8bd1debd7U, 0x3d8356c6bcc673bcU,
  0x3d1ab86abc94a6a4U, 0xbc8632d83d82f492U, 0xbd9889ef3ce4c098U, 0xbd04dae9bd3bdf7bU,
  0x3c062eb83d777830U, 0xbd6236d63d8488b4U, 0xbcfcece2bcf7a166U, 0xbb3dbae03d3bf0e0U,
  0x3ad4e4c0bcd670e4U, 0x3b0cf9a0bc972236U, 0xbd554ada3c93a450U, 0xbc17a588bd137e40U,
  0x3d5d21783c6717a0U, 0x3d897cc83d0851d8U, 0xbc1007b8bce545d2U, 0xbce66ece3d5eaa28U,
  0xbd7218f8bd6e706aU, 0xbd4b0324bca289bcU, 0xbc92c94c3d18b940U, 0x3d8956423a9eab40U,
  0x3c557560bd53645eU, 0x3c16f658bd22d35dU, 0x3d82d148bd63876aU, 0xbd3dc1383d716418U,
  0x3d1402d03b250140U, 0xbd40079bbd85a511U, 0xbd7a556e3d2911a8U, 0x3d195ce63c6d6b18U,
  0x3d439eb73c019d58U, 0xbd8310ffbd365947U, 0x3d03bdc5bd1721a5U, 0xbc6ad7d3bda5b08cU,
  0x3bca49193ce1ebcfU, 0x3cede4a53c689b88U, 0x3d862e38bc32c959U, 0x3db92dd33b9a04c9U,
  0x3d299780bd097ef2U, 0xbd4a052ebc30a6ffU, 0x3b9d8149bd5dc2f4U, 0xbd188021bd21779cU,
  0xbda40f96bd3d61b0U, 0xbd8248ffbd8df358U, 0xbd6958743c5eedd0U, 0xbd85dce93d939502U,
  0x3ce043d0bb188fc6U, 0x3c95e2b1bd0fe9d0U, 0xbc0908273d9089f3U, 0x3d09280d3d8e3773U,
  0xbd5599233d82c90fU, 0xbd82d343bda9f8c8U, 0xbda7108ebd9924a8U, 0x3c198c9cbd6fafceU,
  0xbd1a0cfa3d1ff501U, 0xbcca2de5bdb3d112U, 0xbd933a5cbc7c82f4U, 0xbd31a3143d91a4efU,
  0xbcd7419f3d61f39cU, 0x3db43f0d3cbf0c04U, 0xbd70b3223d80424fU, 0xbd4ca1bdbd0215ecU,
  0x3ceae5ae3d42dc8aU, 0x3c56718abd998393U, 0xbcce2b74bc4b7203U, 0x3d68bbe4bc4591c1U,
  0x3d4a4c8f3c8795edU, 0x3cc0b0b9bd63bcbeU, 0x3d587cc03dbe590dU, 0x3d39a6c13d05724fU,
  0x3db486423d712d69U, 0x3d9e53cdbd2139c1U, 0xbca1690ebd984fa1U, 0xbd8e5cdfbd2b0d73U,
  0xbd51db4dbd835dfeU, 0x3d71f2f7bda26f72U, 0xbd1a34cf3bc879ebU, 0x3d1047663d72c433U,
  0x3ce5ba85bbefcfacU, 0x3c967dae3d67a7bcU, 0xbccfc284bc951bc6U, 0x3da0e97fbd9c9da5U,
  0x3b3ac7fbbd9b7952U, 0xbd16fafebd9ff2aaU, 0xbd42190cbd595b4cU, 0x3d58d95dbda077afU,
  0xbd44c6acbd9ea9fdU, 0x3dc179eabd0eb0e2U, 0xbd45321d3c2e7671U, 0xbd62cd4b3d4bbe3fU,
  0x3d8851ea3dc4aa86U, 0x3d4697233d0576d5U, 0xbc1d02e3bc90fa99U, 0x3d1b5c2bbda73992U,
  0xbc7103bdbd2716fbU, 0xbcdadfb73cc445a3U, 0x3d1802fdbb936ae4U, 0x3d0ce8433d975160U,
  0x3cd35868bbda1dcbU, 0x3da5883fbd494abbU, 0x3dc059e53ce7b01eU, 0xbc3bf3a13d899e27U,
  0xbda5f5343d65bedbU, 0x3c163fc43d0bca33U, 0xbdc214abbd270642U, 0xbc58262ebd6d1c2cU,
  0xbc9642f83d3089d4U, 0x3d4de830bd51fd83U, 0xbba885d03c91328aU, 0x3d9df3dbbb45f675U,
  0xbd50a8683cf92cf4U, 0x3823a87b3da00cbcU, 0x3a5629a53d88faa9U, 0xbda4c9ecbcc3503fU,
  0xbc8e97283c42bb71U, 0xbb70174c3d726ddbU, 0xbbcefd44bcf2e555U, 0xbd9489d1bd72c50cU,
  0x3d8af3f0bd0c9763U, 0x3dbaa60bbd7f9413U, 0x3d56ed93bd59ec62U, 0x3bbcc2e9bcc408c7U,
  0x3dac329b3d8f6316U, 0xbd84d628bd76e69dU, 0xbd3b3db73d5ee97dU, 0xbc9c21433d0fe032U,
  0xbd4b5e40bd84a5b8U, 0xbbaacf15bac2e5bcU, 0x3d394d873d989258U, 0xbd34f91a3b613757U,
  0x3dbca8aabbb274dcU, 0x3dc6fe0cbcd39c21U, 0xbd5738de3b9855d0U, 0x3c1e2489bbe4e4ecU,
  0xbc90d1d8bd3624c6U, 0xbd50b568bcbc116bU, 0x3c55ffd7bd00cfcfU, 0xbd86f8283d04738dU,
  0xbc231449bcbdaaa3U, 0x3d8ec3e03d017df2U, 0x3d9c6eae3d80dee7U, 0xbd24d0debd010358U,
  0x3d4febd13dbad1d2U, 0xbd81dc983d9eae68U, 0x3d45d130bdac2817U, 0xbd1371c03c6fc527U,
  0xbd8c29fabdb3d60fU, 0xbda5feb63cf22d8dU, 0x3cf2c9713d862651U, 0xbd68e668bb60d11aU,
  0x3c19b04ebab276b9U, 0x3dc1c526ba8ed9d7U, 0x3cdfa9fe3d9e04aaU, 0xbcc07682bd8cd76eU,
  0x3d2c3c75bbc03e87U, 0x3d1925433d0cda41U, 0xbcfc0808bdb68d97U, 0xbd98c2c73b99af75U,
  0x3ce03b7f3d1baa54U, 0xbd162fc03999ae92U, 0xbd0882263db78818U, 0xbca91cf83d68166eU,
  0xbd578b23bd575cfeU, 0xbd61fbb23dba1f8aU, 0xbcea87433d3cef7eU, 0xbc0d59b9bc95c5dfU,
  0x3d755082bd34a2a4U, 0xbd4efa54bd1b8737U, 0xbd8801b03d924b5aU, 0x3c31c6a63d387f74U,
  0xbd2743d5bd446b89U, 0x3dc81fb2bbf03493U, 0xba69eeffbd060ecdU, 0x3cc0b6c2bd8ba579U,
  0x3d688bfdbd188c44U, 0x3d802d993cd78e65U, 0xbda7cbaa3d69cff5U, 0xbc1333513cf733d2U,
  0xbd94a472bd899802U, 0x3d8ecbcebc6ed62fU, 0x3d881750bae063d2U, 0xbcde93283c91f3eaU,
  0xbbf68dd13dadecc1U, 0xbb9b1ec93d2b821cU, 0xbd9ae315bd51ee8fU, 0x3d84bcd9bba94c93U,
  0x3c13b4ef3b8e573eU, 0x3d5e62fabd334341U, 0x3d151c713c905b5dU, 0x3c9be8afbcccf12dU,
  0xbc837e6ebd1820aeU, 0x3d77c316bcc22a6cU, 0x3d81b512bbb82f74U, 0xbd13bf863da6ed7bU,
  0x3d782e993cc24a4bU, 0xbdb3aa163cb19135U, 0xbd52e0fd3d03a2c7U, 0x3cb38530bdb607ceU,
  0xbd2377c03adeeb70U, 0xbd897df6bd1d449aU, 0x3d0e50debd4798f8U, 0x3d7578a63d0a57e6U,
  0xbcb852ea3d88b311U, 0x3c45e513bc0f1d09U, 0x3b337eabbd92e0b9U, 0xbd0ec31f3d65cb6fU,
  0x3d63470e3d10c254U, 0xbdb2021e3d4f588bU, 0x3d7b19253d804961U, 0x3c9d36c63b07b05aU,
  0xbc8db50dbd5d13d1U, 0x3c8c5e383bce278bU, 0xbd58b4fb3d8267eeU, 0x3d7d85413c803d47U,
  0x3be4fde73da7c0bcU, 0xbda4c39d3c670e54U, 0x3d5c348f3cf432eeU, 0xbd80bd99bd0f3e16U,
  0x3c3c72523be57427U, 0xbcc9a86c3b9f3431U, 0xbdb0ac38bd3c55e2U, 0xbcb1df86bd13b544U,
  0x3cc0a4283dad34a3U, 0x3db2b1ac3d41c1fbU, 0x3c8bd79cbca3515fU, 0x3d215f683d545178U,
  0xbd088e633c2cce1aU, 0x3d167bd9bb3ab976U, 0x3d46dfd1bdcafaeaU, 0xba6a2770bc5e793fU,
  0x3d920c2e3cf2090aU, 0xbd5b772fbc3ae110U, 0x3db420b2bcbb1747U, 0xbab744e1bd00f7d1U,
  0x3d7352eebd196f01U, 0x3c37b0ef3ca9415fU, 0x3cb576323d0ea3aeU, 0x3cb42212bcea6c4dU,
  0xbdc36d103d16696bU, 0x3c08fad03c3c26ceU, 0xbd1b10c83ca0ca41U, 0x3d3e57083d37907fU,
  0xbd4f4c7ebd15cfd2U, 0xbc461f9abb2626acU, 0xbd16e2b23ae9df0dU, 0x3cd00efb3d90d2f9U,
  0x3ca91ac3bd7382e2U, 0x3d08ac71bc7a8f54U, 0x3d3b7ee63ca3e8aeU, 0x3d7e8dc03d2cd473U,
  0xbd72193d3c392c0dU, 0x3ccb36babc91c669U, 0x3d39ddeb3d654ed4U, 0x3c52d91fbd4a1d02U,
  0x3d3905953bd05c98U, 0xbd809bea3d26fad0U, 0x3d8cb9e7bd30f6eaU, 0x3ba4a7313d91de2cU,
  0x3c1c4b5dbbec0081U, 0x3caf6905bd4e2b1cU, 0xba2ef4b83beead36U, 0x3da2346e3d350204U,
  0x3bc1cf833be9fea8U, 0xbcc239233a68a3edU, 0xbcb577613dbe17adU, 0x3cfa88113d6b1c1bU,
  0x3d4ee8053c0e2399U, 0xbcd8b1cd3d97b679U, 0xbc21e325bd8473ffU, 0x3cf0185bbd2f47b6U,
  0x3cab786fbd81f980U, 0xbd7712673d4c4e7eU, 0x3db2795d3cb94ffdU, 0xbd147ebb3dcdcdb6U,
  0x3daac64bbd0213deU, 0xbd0939313d9cd870U, 0x3d93f8db3ca3ec25U, 0xbdbc7cd1bd8d1a2cU,
  0xbd906a7dba353d87U, 0xbdb27f1f3c0eae56U, 0x3d3edfe73d210524U, 0x3cd33b2cbd3a9738U,
  0x3d830c893d792075U, 0x3d9902adbd860dd0U, 0x3d795bed3d3ab520U, 0xbd2f33103cbe88deU,
  0x3d9cdd19bd337114U, 0x3c86bebe3ac0e14dU, 0xbc869623bcfee017U, 0xbb3c6728bd8ffa80U,
  0x3d896acbbd659baaU, 0xbda625913cb13955U, 0x3ba743d93c974604U, 0xbd8b0231bd6449a7U,
  0xbcab6792bc9f396dU, 0x3d9df0c13d51bbd1U, 0xbd62ec933caaf30fU, 0x3d89d6e4bc517b6eU,
  0xbcef27e83c455872U, 0xbc94cae43d03b338U, 0xbd4edb26bd915f15U, 0xbcc571c03cd250cbU,
  0xbd62a68bbd18f14cU, 0xbceefef0bc818c73U, 0xbc422af4bbf63691U, 0x3cf8b189bc382133U,
  0x3d7eadfd3d9b3d1dU, 0x3d7b967bbda53c9bU, 0x3bb141513caafe32U, 0xbc2522ad3c0e4985U,
  0x3cbf965cbd92b40fU, 0xb9bed9d23d8f2e0eU, 0x3ca4af5ebd085e4aU, 0xbda4b4e13d454480U,
  0x3d83082d3ba75386U, 0xbda67bd5bd9a4581U, 0xbc8a1e8cbd4d6772U, 0xbd20bc8d3cca3c52U,
  0x3c06c6183d361c87U, 0x3d853a853d969f00U, 0x3bb3a7443ccf1b6eU, 0x3cd05aa13c8ceef7U,
  0xbcdc415dbd68fcf7U, 0xbc89394d3cd3a293U, 0xbd1438cebb0eb9daU, 0xbd8cf6963d0f7e8cU,
  0x3d90a07abd8f3bcaU, 0x3d9107ee3cceb453U, 0x3cc7d4f9bda42f81U, 0x3c8da2c8bd2fda47U,
  0xbcae8a253b6652f6U, 0x3d7922f0bb96d023U, 0xbd8b13cabd5a3262U, 0xbcc6792abd02b622U,
  0xbd009b8fbc3e4b09U, 0xbcc5eb9abc26bd2bU, 0x3c7a65fd3a80c3c6U, 0x3d9d7f733c8171c6U,
  0xbc915a16bc6746abU, 0x3d47f9b33a1efea7U, 0x3d3543d73cd6e21dU, 0x3ce0340bbd886996U,
  0xbc25b3a43d908c2bU, 0x3ad3bcea3d1be0a4U, 0xbac8a4413cf941afU, 0xbd33a961bd57d082U,
  0x3d135fe8bd9437c5U, 0x3da2e67dbc5198efU, 0x3d8fea323c8fd6ebU, 0x3d8a5f363d9577f9U,
  0xbd8982c03ca333fcU, 0x3d9abc5e3cb1a071U, 0xbda4f29fbd5fea18U, 0xbcbb2f63bd78d9a1U,
  0x3d0e5268bd1781b0U, 0x3c2f9c83bd20238bU, 0x3d33eed8bd05c29aU, 0x3d374d663d69a95aU,
  0x3d406fd6bd808c22U, 0xbda3ba02bc42821bU, 0xbd8268723d109af4U, 0x3d5a1baebd2e31edU,
  0x3d969e0b3d417d2dU, 0xbcd96543bd6cdaa3U, 0xbd81dcb9bd8aca35U, 0x3c861fa2bbc41d20U,
  0xbccd119cbc4ca4d2U, 0xbcc255573ba89329U, 0xbd8e903fbc9c3871U, 0x3b869f12bd807c84U,
  0xbc547d3bbbbc9e7dU, 0xbd69f4bebd61f5e7U, 0x3d58a6b73d9e3181U, 0x3d876fd53d4fe4e5U,
  0xbd1fb903bd8149c8U, 0xbc6a82053d91c6d5U, 0x3d0613b2bd77dd9aU, 0xbc2c99b93d3bd5deU,
  0xbcec75e83b1fa2bdU, 0x3b1ffdcc3d59c0c7U, 0x3d050d6d3d32f939U, 0x3c93b05abd8d0adcU,
  0xbce698bd3d1226a7U, 0x3c1bf2923cabbfa4U, 0x3d149b2c3d8e951eU, 0x3c8acec1bd31b257U,
  0x3d7edde73cdfcb60U, 0x3d8c3e55bd1658caU, 0x3ca31a80bd985e90U, 0xbcc673ba3d950759U,
  0x3bf59a5dbd25cb0bU, 0xbbe25e68bd91f38fU, 0x3d8a300c3d8369c0U, 0x3c80ff06bd8c12fbU,
  0xbd870fce3d17b126U, 0x3d8f42cdbd86ff3eU, 0x3d3eba2e3c0981d7U, 0x3c9801eabca56f7cU,
  0xbd1ad0e43cb959e1U, 0x3d03296fba37a0efU, 0x3d8101a3bcb477feU, 0xbd5262953d329df9U,
  0xbcb7e40ebd96e26aU, 0xbd4e0650bda4dd92U, 0xbbc6e4c33d8c8616U, 0xbd7cf1b23c7008c5U,
  0xbd073202bcdfb22fU, 0x3d96f35abd0ec541U, 0xbcc2ee373d527aa7U, 0xbc928ccabc4590b4U,
  0xbc5eb3b93d30b95bU, 0xbd712372bd14e41fU, 0x3bc3b3d13d15b52dU, 0xbd8a41a23d9bd560U,
  0x3d74db0fbd9014fdU, 0x3b94e5e4bd7b4117U, 0x3d88d1153b19155aU, 0x3d0fd737bc8c74b3U,
  0xbd6cc5623d1566d1U, 0xbb957bfc3d9c4029U, 0x3d4e6f483cf86115U, 0x3d91e222bd7d593bU,
  0xbd3b20efbd15a893U, 0xbd71342abc9e3b25U, 0xbbcced3abc5af911U, 0xbbb266de3d3fac94U,
  0xbd4181393cf0e0f5U, 0xbd1626b1bc70cbaaU, 0xbc5581943c5b324eU, 0xbd8440f3bd48e1eeU,
  0x3d119dd9bd55fb49U, 0xbbbc245a3caae74aU, 0xbca32f85bd022bf1U, 0x3d585a29bacc9754U,
  0xbd82ec0c3d8c3c26U, 0x3c920e623c5a4a59U, 0xbd00af8fbcf3e624U, 0xbcab8d993d78406dU,
  0x3d8f00c93cd670fcU, 0xbd9a43603d59bac2U, 0xbca92b783c0589e1U, 0x3cb9d9493d2b120cU,
  0x3d91108f3cf95c6bU, 0xbd1b9452bd974e5fU, 0x3da931fbbbbd049aU, 0x3cc86fc2bd3c5d29U,
  0x3da07df2bd93166fU, 0x3d28908f3d52071bU, 0x3d5af8743d81b09fU, 0xbbbbf45f3d1e4c3dU,
  0xbcd07efebd7ca69bU, 0xbd0449e03d1bcb14U, 0xbd02714abd3ca8ffU, 0x3d7624d2bb995599U,
  0xbd0e62d1bd885befU, 0x3cb36966bd9338f9U, 0x3d94bfd8bd2ebb0fU, 0xbd3358a5bcddaec4U,
  0xbce073b1bd912becU, 0x3ce840483b5ee106U, 0xbd6e6ec6bd371767U, 0xbcff21f6bda35dffU,
  0x3d1049fabd5218ebU, 0xbc699375bd06c507U, 0x3d8f3ab5bc2bae4eU, 0x3d8fd89e3d8e18c1U,
  0xbd96bf393d2007fbU, 0x3d880a8e3ca574a6U, 0x3b58e210bd825829U, 0xbc51c21bbd214a59U,
  0x3ce73883bd609bd5U, 0x3d8aa0f43a6cb315U, 0xbc2b2c7a3d8a8efbU, 0x3d5ec7ed3d7a7a98U,
  0x3d80b4083c453ec3U, 0x3d8f60de3d83e0e4U, 0xbd4d8799bd00bdaaU, 0x3d7edaf3bce74afcU,
  0x3c7238eb3d19c339U, 0x3cc940ab3c4c9adeU, 0xbd3558d83d5e8ec8U, 0x3ce0662e3d51c385U,
  0x3d2def1b3c55f936U, 0x3daf6421bd3e168eU, 0x3d07f0dfbd91eaa4U, 0x3b3f42a73d24ad5eU,
  0xbd1824343c8e764cU, 0xbd9686dc3d358185U, 0x3c2d8b5d3c05de18U, 0xbcb26c113c766d30U,
  0xb9f00642bd96b955U, 0xbc8fa9d8bd7ffc01U, 0xbc8651f2bd807b58U, 0x3d9ed1f03d9ac4a3U,
  0x3d6a6c79bc957b71U, 0x3c5d057f3ccc1f80U, 0x3ca3219b3da29016U, 0xbd356b68bb1a317bU,
  0xbd9764b9bd8b8f39U, 0xbca3351e3c08f4aaU, 0x3d4804a2bd513cf6U, 0xbc9326fdbd3603d7U,
  0x3ccec3683cb3dae5U, 0x3cdc85d8bda1dbedU, 0xbcffe3a33d968a02U, 0x3dac371a3d046715U,
  0xbc74e8ca3d383f5eU, 0x3c32b823bd3c36eeU, 0x3d642336bd87f1dbU, 0x3d44da083d10cf97U,
  0x3d8bf84d3d80bb0fU, 0xbaf4ac15bd8771bdU, 0xbb2802bcbd818559U, 0x3d21708e3cd166f8U,
  0x3d16040ebd98c5b7U, 0x3c9d6f8bbc198567U, 0x3c49f5023c88ae09U, 0xbdb4d1fabd87ffe1U,
  0x3d4e9951bd5f2623U, 0xbd5885973d7cc4e4U, 0xbc81fd46bd8f48feU, 0xbcf820f3bd7e881cU,
  0x3d2d45853c1e4e11U, 0xbd098094bd12bfbdU, 0x3c48089dbd31f403U, 0xbcbb4e333d37b921U,
  0xbd2b9b233daea9ebU, 0xbab95e5dbc7c6781U, 0xbb36529d3d841f19U, 0x3cd737beb98aeb48U,
  0x3d97639abd496187U, 0x3ce326cf3d8d10fdU, 0xbc5fc5efbd599dffU, 0x3d48f164bd7bef40U,
  0x3c1e6d4dbd73ef32U, 0xbcaa051f3cf22411U, 0x3c46d6b93d4a2389U, 0x3d9f5c70bcc61248U,
  0xbda461203cb42da8U, 0x3be255febc66c5b9U, 0xbc2d7b143d9698f4U, 0x3d4c1cdc3c5f7593U,
  0x3d882dc7bd996415U, 0x3c276e7ebbf79356U, 0xbd6ef1f23d2922e9U, 0xbd52bfb6bb886dd3U,
  0xbd08067a3d9b1963U, 0x3d9f3e3c3c093bacU, 0x3cd43a90bd92bc90U, 0x3b9f5475bd85022cU,
  0xbd2b9697bc655e3bU, 0xbdb843a5bd585320U, 0xbc40daf33cdbf710U, 0x3d8fe6a33d760e08U,
  0xbd9dfa7ebc8b9439U, 0xbcc9f0433db8b3cbU, 0xbc78513e3d832601U, 0x3d6d98ab3d56e7afU,
  0xbc847d4bbd031f29U, 0xbd4576983d55142eU, 0x3d6b4fe2bdacad46U, 0xbd7300fc3c29b22aU,
  0x3d8caa613d939297U, 0xbd0cc368bd6b64c3U, 0x3aecf124bb560d42U, 0x3c808ab23d764420U,
  0x3d829538bd6bcab1U, 0xbc39052b3d550aa6U, 0xbbb3c1593da42d8aU, 0x3c7fc2a4bd9b9d05U,
  0xbd74dee8bd709d4eU, 0xbd7b14e03d2ad1fbU, 0x3d58ae59bc0f2258U, 0x3db364403a3bc4e1U,
  0x3d1cc4c2bc610d51U, 0x3d5c26483d39c5d3U, 0xbd48a10c3d2ba485U, 0xbd20ab85bd72124aU,
  0x3d929ea7bd9ef678U, 0xbd9445913c2b2e80U, 0xbbdf15c33d892d3fU, 0xbc76b19fbcaf12abU,
  0x3d4c9937bd1a87d4U, 0xbd8b4db8bab7124bU, 0xbd7796fa3d284b6dU, 0x3d9dd952bd4a312eU,
  0x3d45e8623c1190ddU, 0xbd5a9146bd87bcf6U, 0xbd296aeabd703318U, 0xbd1832c83d4b3a18U,
  0x3d231ac93d6e3356U, 0x3ac684db3cb23b65U, 0xbd4eefb1bdcb118aU, 0xbd4dbece3d122462U,
  0x3cef62563c749866U, 0xbc9ccc53bc7fee23U, 0xbccce9de3c8a1747U, 0xbc911eb73d901f40U,
  0xbd1151733cdc9e12U, 0x3d069283bd6e794cU, 0xbd0cd6583d850327U, 0x3d5c53753d70eab8U,
  0xbb91c3ffbd920a11U, 0xbd6b29e93c9ec444U, 0xbcb63ad33bb17c84U, 0x3d158b37bd831d91U,
  0x3d8601f63d4cddf8U, 0x3c8b77403c1db83aU, 0xbc2438a73d7d62baU, 0xbd1f8892bdb1eb6aU,
  0xbd986b3a3d773ac8U, 0x3d528b7bbba02a7eU, 0x3b3d40923d969f69U, 0x3d3dcd8fbd0080d6U,
  0x3ca7ab73bd3543ddU, 0x3da5eab2bd886407U, 0xbd310992bd52656bU, 0x3cba0eb739ed33a3U,
  0x3d7d64bb3dac5616U, 0xbd63117a3d264374U, 0xbc903b0d3d35c2c5U, 0xbc4267273d85ea2dU,
  0x3c8fde5ebd1d0182U, 0x3d8c9607bd99bac5U, 0xbda16e523d48df94U, 0x3d2d137bbd95958aU,
  0x3dbfd494bd38c302U, 0x3d0dbdf43d97d6e7U, 0x3d822f233d185dedU, 0x3c22c0963d68f7e0U,
  0x3d8293fcbb9e1b78U, 0xbcbee8b03c582a38U, 0x3cd38d263d6c2431U, 0x3d8b1e793cc059a8U,
  0xbd0728e83d01956eU, 0xbd853ed1bc45644dU, 0x3d02dbb9bc47c283U, 0x3cd0901b3cf490ebU,
  0xbd0e133b3cd30e5bU, 0xbd59fccc3d26dbf3U, 0xbc8843af3d766683U, 0x3c82fea2bc6875c3U,
  0x3c43e8683c2ec5f4U, 0xbd8565753d66850bU, 0x3ce61ab13d434580U, 0x3ce987c1bd550681U,
  0xbd0b1bf6bd85d810U, 0x3c1aae23bd0de6c6U, 0xbc755d3f3ccdca85U, 0xbd9172f93da050e1U,
  0xbd36f50cbc2ebc12U, 0x3cba6c04bd2688adU, 0xbd9aa5ac3d987839U, 0x3cfa8ca0bafd78d0U,
  0xbd1d3ef93d0b5a45U, 0x3d3eb0c4bcbb1b1bU, 0xbd4bf798bd478232U, 0x3cec758fbd218cf7U,
  0xbd45fb963d57511eU, 0x3d97b9be3c482f55U, 0x3ccc75353daa07a7U, 0xbd87037c3d864812U,
  0x3d731ed9bda12ccdU, 0xbd81003cbd1a9d96U, 0x3c8c09563ce9e112U, 0xbcc6e1c43a4462b6U,
  0x3bccdba63c8fd8e8U, 0x3dc5eb103c6763c4U, 0x3cc792333d8bb391U, 0x3d05bb543c6df7a9U,
  0xbcd6e34fbd216d78U, 0xbcb7d44f3b43cb4cU, 0xbd6a8c0f3cd647c2U, 0x3d8e208b3d993c6bU,
  0xbca4c8e43ca59a01U, 0x3d04a4583d9a7f93U, 0x3d4e7994bd2ac573U, 0x3d89b7bebd9c2071U,
  0x3d18382abd2e8942U, 0xbd0b1d2dbbc908aaU, 0x3cf4b6113d8f161eU, 0x3d08dc98bd97ca64U,
  0x3c583a453d425311U, 0x3c704e933b25a643U, 0x3c2bf346bd5246ffU, 0x3c9d003f3d63f29dU,
  0x3da0cf45bcfdd141U, 0xbcab7fecbd04b8f3U, 0xbba7ff903d984135U, 0x3da044463d7ddfc5U,
  0x3c7d6acfbd4a4966U, 0xbc9ff49d3d7085daU, 0x3da50a263ce9880aU, 0x3ade2ae1bda2a82cU,
  0xbd884116bc284572U, 0xbcb559b9bd6fcc6eU, 0xbd850fc63d91244cU, 0xbd7425853d700457U,
  0xbba0f190bc99384bU, 0xbd015a58bcf9b216U, 0x3d742ce93d5e5e47U, 0xbd35f7acbd97c84aU,
  0xbd412ba9bd6dd9bfU, 0xbd052bf6bd233aaaU, 0x3ba068423cefaf20U, 0x3c19f2a0bd9abc68U,
  0x3cde4fce3d958a06U, 0xbd889841bd1cf84dU, 0xbd485848bd73d1d6U, 0xbd739b723c8a4a1cU,
  0x3d823203bcb1d51bU, 0x3d61647ebcac980eU, 0x3d0c81a7bc2e1e34U, 0xbd605443bda317b9U,
  0x3d5be9e93d30fd58U, 0x3bdd15fe3d4f2c74U, 0x3d83e1c03c082302U, 0xbda12d72bda436b9U,
  0x3d0a31c0bd8b0b02U, 0x3a9156aebd2b5477U, 0x3d3f672d3c40df24U, 0x3da333133d1959baU,
  0x3d4d68cfbb16e255U, 0x3d6902dcb9f3369dU, 0x3d5d95eabd9aafefU, 0x3ca5ec5bbcd49473U,
  0x3d54cc5dbcccbe88U, 0x3d94aedebcb40994U, 0x3d4fc5f33d443da6U, 0xbd51e9973c4c5d26U,
  0xbcf6f91bbcd304eaU, 0xbcdfb1aa3d09378eU, 0x3d045f5bbd5b80a7U, 0xbd94d4d1bc4ee5a7U,
  0xbd995e773d250a75U, 0x3d83046e3ccc4df1U, 0x3da471ca3ca4aa88U, 0xbc827f4abd888630U,
  0x3d8748f93cb1e0cdU, 0xbcc7de4fbc1c3435U, 0x3d64101d3d80abd2U, 0x3d17c391bd4079dcU,
  0x3cbf5d3a3a946c50U, 0xbd95c4363d7f96faU, 0xbd127982bc76b8afU, 0x3d0c6f043d83ee11U,
  0xbc831980bd98cf8aU, 0xbd86efd13d3ca91aU, 0x3d76d3b13da0bc39U, 0x3d14944a3d9e6a53U,
  0xbc2cc477bd98946cU, 0xbda0e8cabca9157eU, 0x3d7653e5bba9314eU, 0xbd1da1343d32d53eU,
  0xbca846123d797428U, 0xbd8eaa83bd626e67U, 0xbd39f43f3d97bce5U, 0x3d8d74e6ba055da2U,
  0x3d9835973bb8ca49U, 0xbd85784e3d28e1eaU, 0x3da12a20bcbbad56U, 0x3d87d7843d7deb10U,
  0x3ccef9b8bd68b062U, 0x3ca284a73ce1c99aU, 0xbc6394fd3cf00df7U, 0x3ca2fd59bc82ab7cU,
  0xbd30e961bbe8a0c3U, 0x3c50cbabbd53b8c1U, 0xbcc1332ebd00e69cU, 0x3d6559f53d832143U,
  0x3c9381743d91764bU, 0x3ca5cb4a3c896a1cU, 0x3d3eb3153d461baeU, 0x3d6d2fdb3ca496daU,
  0xbc0fd8383d5c50eeU, 0xbc1e1ab73c0b9f3cU, 0x3d1ab3f23d272589U, 0xbd94184c3cf8bf99U,
  0xbb0a77403ccf900dU, 0x3d37e10a3d395dc7U, 0x3d3ebebbbda385a4U, 0xbd523bffbc83235fU,
  0x39c3f0173d5ef1a4U, 0xbd6af43f3d84df32U, 0x3d55d22b3d3abb9cU, 0xbc090c123c8ef9a4U,
  0x3d61c52d3d23627aU, 0x3c720448bd12277fU, 0x3d3d7dadbd8bab84U, 0xbd160241bd93b710U,
  0x3d1e32cabd913d1dU, 0xbda134a53cfc9dbfU, 0xbd4e0ed93d9db755U, 0xbd1484b7bc867a94U,
  0x3bdaa99dbd164a5cU, 0xbd56858fbbdfc698U, 0x3d9a303b3d42e726U, 0x3d5845613d8a6f8cU,
  0xbdb1a9af3c1d50eeU, 0xbd0e55dcbd8d3d79U, 0xbd87d2373c5180bcU, 0x3d7744903dae0aa3U,
  0xbc9011f33a0d5d62U, 0x3dad83c03d163db3U, 0x3d980c3fbb4ef348U, 0x3cde7961bd8c3f32U,
  0xbc5b56d13d94939eU, 0x3cee87fdbd2cb2d2U, 0x3b1bbf6c3c91bdb3U, 0xbd8a91e33d7648afU,
  0x3cc2ac753d3a4031U, 0x3bad93de3d6052e0U, 0xbd550daebd56a25eU, 0x3d25084dbd7de30fU,
  0x3c4f5c753ce765ddU, 0xbc934b4d3d7cbd55U, 0xbd3b614d3d6bbfb8U, 0x3cd014bf3d6bf12cU,
  0xbbe72c0b3c9585dbU, 0xbd75d84cbc2b949aU, 0xbc97d3753d862df9U, 0x3b70cdf73ce156f9U,
  0xbd42714a3c838c46U, 0x3ce89d013da376b6U, 0x3c06cb26bd267a12U, 0xbd82e1913c95ee39U,
  0x3ce2a6b83d2fbf1bU, 0x3d7a0ad5bbd8109cU, 0x3d21db18bd1d63e4U, 0x3d1640b93d892574U,
  0xbc9536fbbc383643U, 0xbd3f5c32bd0ad1a1U, 0x3c43b02abd8858e6U, 0x3d1df009bd811aaeU,
  0x3da40130bca647f5U, 0x3aeb4f0fbca7fb1bU, 0x3d96ad8ebd79f386U, 0x3c0a235ebc17300cU,
  0x3d830b4c3d5c0f49U, 0xbc6efac1bd94a963U, 0xbd8617103d2388d9U, 0xbd0e66343d6c0577U,
  0x3c6bb6d23d972deaU, 0x3caa914d3d79ac33U, 0xbd16e6efbd18bea0U, 0x3c8f32e7bd32648eU,
  0x3d94bcaa3d5b424dU, 0xbd63782cbc94e4fbU, 0xbc207bb33d5ed4f4U, 0xbd624754bd798baeU,
  0xbd4d9bcdbd183b4aU, 0x3d9293d93d32810aU, 0x3a0cff513d97d380U, 0x3d6f5da0bca83721U,
  0xbd862f40bcd12127U, 0x3d61df8f3cf754baU, 0xbd27d3d03cf5a1faU, 0x3d4759283c07e2a8U,
  0x3be98997bd2f15e5U, 0x3b2631cd3bab6393U, 0xbd09cc75bda7a5b8U, 0xbca1d13c3d6ab109U,
  0xbd46ab563c2d54efU, 0x3bc35c8c3d15231cU, 0xbd9835f9bcf25611U, 0x3d5c1f97bc327236U,
  0xbd92b518bbfb07c6U, 0xbcc51945bc76116bU, 0xbc83f7a4bd8c4d27U, 0x3cdc8ce9bd94dab1U,
  0x3d8b53943d96057aU, 0xbd8727423d669accU, 0x3be69e6bbd983de0U, 0xbd107014bd30e661U,
  0x3dad0192bcea94e0U, 0x3d99423ab8f594a8U, 0xbd4fb3143d16b75fU, 0x3c66d3ed3d30ea61U,
  0xbd968466bb943637U, 0x3d5a5d50bd817741U, 0x3d441551bda5283aU, 0xbd2972933d8779acU,
  0x3d3f6b6d3d42dfd5U, 0x3da841203d156799U, 0xbd247766bd42fc42U, 0x3d4d3a9bbb9a1cb3U,
  0xbc4e44c9bcb6de1bU, 0xbd5666afbd8f863cU, 0xbd69503bbd297f66U, 0xbd4fe76d3d11fa7bU,
  0xbc61c5e23ce93e2aU, 0xbc9295263d163a64U, 0x3c25bfe8bd94e906U, 0xbd04df0abd1ae2c3U,
  0xbd0dbce4bd266334U, 0xbd2e4002bd28a772U, 0x3b92123c3d63e984U, 0x3d3b2d8dbbfd1d35U,
  0x3d414e28bcfb9121U, 0xbd6ed04dbcf98db3U, 0x3d02f6343becc646U, 0xbca233993d6bb18cU,
  0x3d496e54bcc91eadU, 0x3d25911dbc999815U, 0x3b798216bcd94fbaU, 0xbb49768e3d9f1b64U,
  0x3d093d0f3d9c211aU, 0x3bd6c8fbbcd36bc5U, 0xbca272bdbc80d43fU, 0x3d7141813d4aa54cU,
  0x3d41cefdbcd40ce3U, 0xbc9f1b31bd2a5d2cU, 0x3d4c72cb3d98f74eU, 0x3cdfecf53ababaa0U,
  0xbcf9b6a33c313236U, 0x3da24c0cbd5c2152U, 0xbd47730c3dacd860U, 0x3d39f1993d9faddaU,
  0xbd7659d53cef7358U, 0xbd500a45bd398cccU, 0xbd3464f0bda22d98U, 0xbba7b0bebd806168U,
  0x3d83e4c43c7f1930U, 0x3d8b0f263d90b9f4U, 0x3cf2325d3d1ff5b8U, 0xbd4fc195bd7c6bf6U,
  0xbd95bec23d8455acU, 0x3daca4aebd1107aaU, 0xbd9910a13d734040U, 0xbccad5f0bd4aef32U,
  0xbd2823b4bd0c6041U, 0x3d6deaa8bc1687dcU, 0x3d369c6d3aad9fe5U, 0x3d23eb3a3ccd0424U,
  0xbd78308abd98bd64U, 0x3d497c71bcb355d3U, 0xbd753e43bd9a0208U, 0x3d7045eb3d0fd894U,
  0x3d2ceb88bd43dcdaU, 0xbd8db6d03d8eaec4U, 0xbd9d87e83c703505U, 0xbcceeed5bcf82c91U,
  0xbd21c3203c9a0f48U, 0x3c97d9203c8ce4c5U, 0xbd91755bbd4da40eU, 0x3d0078debd5dc81cU,
  0x3da3a57bbd50f573U, 0x3d49b2e53d8f4df7U, 0x3cc2afd13d5f8a5bU, 0xbd341ca4bd04534dU,
  0xbd9d7874bc48fa29U, 0x3bec38f4bc24be3aU, 0xb9d41787bd3cc41bU, 0xbd18374d3c9d3e93U,
  0x3cbccc553cdd3635U, 0xbd4de098bd08207aU, 0x3b1ac16a3cf86c39U, 0xbd0e0639bd2ab891U,
  0x3d216d0dbc5b07caU, 0x3d8171053d0b0e3eU, 0xbcb283d8bd69e13cU, 0x3cf719fabd7d0541U,
  0xbd1169163d7e1334U, 0x3d4983453d2603a5U, 0x3daf608e3daba3c4U, 0x3c82a452bca002efU,
  0x3b2a3458bd6659f4U, 0x3d8ee8813d58d7e2U, 0x3ce2f3293d40824aU, 0xbb6ba7b0bcc573ebU,
  0xbd1e74f2bd76c521U, 0xbd0bd9f3bd4f2b32U, 0xbd4ff770babfcaa5U, 0xbd53bf5cbd958ce7U,
  0x3d9cd01c3d86aa6cU, 0x3d57635cbcf9d60eU, 0xbc0acda6bd655df0U, 0x3cf42300bd9cf4d8U,
  0xbcc5a24f3d8c9914U, 0x3cd059053d21cc45U, 0xbd27c647bd94f232U, 0x3d747e43bc15166aU,
  0x3c8ddce3bd778775U, 0xbd3d2c7d3d6b352bU, 0x3d151d8f3d28155bU, 0x3d9a30b63d56042aU,
  0xbd8250ac3da11df8U, 0x3bfac63cbd824ef3U, 0x3d86dc5bbd8919aaU, 0x3dada2023da131f6U,
  0xbcadea80bd31ee08U, 0x3d8ac8a43c7fa254U, 0x3d4164d93a53ae28U, 0x3d437f98bd480bfaU,
  0xbcf0f1ae3d2666f1U, 0x3db0681abd1f141aU, 0x3d79a2623d0122c2U, 0x3ad0a0903d2c13e5U,
  0x3c51ff90bc588ca6U, 0x3d4a787c3d4783f0U, 0x3d94240fbc611911U, 0xbd8bdfbabd029eb1U,
  0xbd9b5722bd93c641U, 0xbd4fb602bc8af33dU, 0x3d2b6e943d444219U, 0x3d7e7fe4bcd3c631U,
  0xbd937aff3d8514f1U, 0xbcdd248abcb71bb4U, 0xbd9502d13bb09d50U, 0x3c228b3a3c10876aU,
  0xbcee871e3cc0d49cU, 0x3c81d3833d4ac186U, 0xbd611d163d913a82U, 0xbcf467993d47fd05U,
  0xbcbddcdcbbc8fecbU, 0x3cbafc0bbbea19abU, 0x3cd22d3c3d7b4dd1U, 0xbd236b5c3d831a26U,
  0xbcf723103d842615U, 0x3c8bdc143d993ec4U, 0xbae83a9ebbdb4a09U, 0xbce9baa0bc14c0a7U,
  0xbd80c5f3bd1f2e64U, 0xbd1f498c3c33f8d6U, 0x3d1b4a0f3d352a45U, 0xbcf8691abd947f75U,
  0xbd82412ebd7682fbU, 0xbd4c3dc33d8ef41eU, 0x3d81c0453b0d39c9U, 0x3d44d317bd7bd6d8U,
  0xbd49d188bd95f3bdU, 0x3c8bc422bd822be4U, 0x3d524ec53ca89058U, 0x3ca8e5f7bda90c69U,
  0x3ca2f84bba3540d4U, 0xbcb73f8abd4df096U, 0x3aea9ca83dac31f2U, 0x3da12a57bd6f893eU,
  0x3c07c4e03ccbc0f8U, 0xbd5786e73d838d99U, 0xbd70a5003d3a43d9U, 0xbd63d049bcbeb5e6U,
  0xbd0541353b6b7bd7U, 0xbd8045e63d2cfda1U, 0x3cb825fb3d78b934U, 0x3c5d6c69bd6b65bbU,
  0xbc26fd1a3c10e0a8U, 0xbca193903ccaa86cU, 0x3d8269d8bd278f6aU, 0xbc29e2aebbd7e0b6U,
  0x3d816560bd7f7c3fU, 0xbd91e5553d9ae1beU, 0xbc929b53bacf1e99U, 0xbc7423be3cabc988U,
  0xbda21511bc488243U, 0x3d0b5bb23d616e00U, 0x3c5ebf56bd8c89dbU, 0xbd3622fcbd0b89e5U,
  0xbd8df4a1bc979e45U, 0xbd632bfabd2d5715U, 0x3cd227fb3c9cb63bU, 0x3ccf7f073d5f494cU,
  0xbd29174fbcc42fc1U, 0x3d1ba0d8bc4d97e4U, 0x3b0cfc673d90e244U, 0xbba1285f3d6a08b4U,
  0x3d8284983ce2cf60U, 0x3c99876bbc9f55eeU, 0x3ca4399bbd838dd5U, 0x3d92ebba3c8d8a6bU,
  0x3d659700bca5da6aU, 0xbd32fd00bd1be215U, 0xbd98bd523d45b9e0U, 0xbd48222cbcda28d7U,
  0xbd6baac63d942796U, 0xbd27ab2abcd954f1U, 0x3c7105adbda2bbd7U, 0x3c9cf48fbccb9f17U,
  0x3d8c14b5bc309f73U, 0xbd5cbd38bd6c53d2U, 0xbd11266ebca007fdU, 0xbd99dccebb54b3f8U,
  0x3cffb607bcfe04a7U, 0xbb9412eebda091d6U, 0x3d129b3cbd070c22U, 0xbd983b45bae9b6f2U,
  0xbd3676a4bd81c428U, 0x3cea3d063d82e365U, 0x3d73cccfbcbffa21U, 0x3d9736e5bd8c892bU,
  0x3c472615bda910c7U, 0xbcf6c29fbb8f98ddU, 0x3d8351663d833b56U, 0xbd1e15e0bc0c3904U,
  0x3d510c98bd7ded24U, 0xbd82559bbd9d0ecaU, 0xbce2410fbd891d5fU, 0x3cea23aebda0eb40U,
  0xbd85c15abd60921eU, 0xba9cf1343d8a94fbU, 0xbc6d67fcbb9bb20eU, 0x3b1495873c9a8dbbU,
  0x3d85270ebcde5fd7U, 0x3d140d2a3cecde62U, 0xbdb161c93d155532U, 0xbc96ac41bd9c4b27U,
  0xbd8d3473bd348f87U, 0x3d7f2018bd79d945U, 0xbc26f883bd826529U, 0xbc9b27553d7eff50U,
  0xbda428fd3d94247eU, 0x3c0b172c3d4e4270U, 0x3d6e7b68bd8e8c27U, 0x3d8dade73d8021beU,
  0xbcfb568f3c662915U, 0xbd7c0a0dbd9ffc75U, 0x3d05278ebcd29e9fU, 0xbca1c6023c6c56e5U,
  0xbd1595c93d8d1f6cU, 0x3ca434f73d668d3cU, 0x3d3aba84bd85ab0fU, 0x3d890443bbc71b90U,
  0xbd568ff2bd825750U, 0x3d885f603c3bf245U, 0x3d3ed2fc3d706adcU, 0x3d8b0a843cdfc0c5U,
  0xbd6c49a2bd96aaeaU, 0x3c76062fbd9c0321U, 0x3d3911b8bc33440cU, 0xbc9158a63d0c12e0U,
  0xbd09cfbb3cb91d7bU, 0x3d684eac3d034d6cU, 0xba0522693d496820U, 0xbda967b4bd2fcf84U,
  0x3d7acdf1bc1195c4U, 0x3b0936c7bc9620ceU, 0xbdaad9113cafecc3U, 0x3cc0ee13bd505dfcU,
  0x3d1c0b08bd6bb5cfU, 0xbd1cf933bdacd1efU, 0xbc84ed52bd4591cfU, 0x3d2c5810bcdae3abU,
  0x3beaaa833d7f3692U, 0x3d633f68bda082dfU, 0xbd8484ae3d09f2deU, 0x3d2407c43d09e41cU,
  0xbdad6bcf3d00b85eU, 0xbd4c5903bc04ac55U, 0x3d8c0000bd5f224aU, 0x3c04403cbcfe5047U,
  0xbd12ef25bd0ee66eU, 0xbd35f49f3d6743a4U, 0x3af438c83d26cbdcU, 0xbd9b2c94bcbdb2d5U,
  0xbcac878d3d7eb897U, 0x3d8138523cb2afebU, 0xbcd13151bce9911dU, 0x39ddbe21bda65958U,
  0xbda0e8583bc11d92U, 0x3ccddd73bd969ce1U, 0x3d388b3039bff111U, 0xbcd861993ca7f9a7U,
  0x3ca89efbbc8d314aU, 0xbccb4877bd1758cdU, 0x39a0761fbc42a4bdU, 0x3c0b9ec5bd76918cU,
  0xbd4627893c2a0b7cU, 0x3b612306bcfaefafU, 0x3d0c849a3cc6f55fU, 0xbb479a3abd86dff5U,
  0xbb8519a0bd81cdfcU, 0xbd577d36bc2f7933U, 0xbd00670d3d444608U, 0x3cb6883fbcb87039U,
  0xbd9ced803c6104c5U, 0xbd982d3d3d126434U, 0xbca5c3d2bd0b9dd7U, 0xbce2328dbcfd3851U,
  0x3cc1a723bd9ecd10U, 0x3d435eacbd64f2daU, 0x3d38cc643d8b95feU, 0x3d48f260bc770a3cU,
  0xbccebf02bd2261b1U, 0x3da2c3cbbd958082U, 0xbd254331bd82519eU, 0xbce962ad3d7cee8dU,
  0x3dbbbb5b3d1bddf5U, 0x3dbbf1433d9c4af3U, 0x3cd45301bd2be3fbU, 0xbd6da0a03d0b4721U,
  0x3d53a5f4bdb076d1U, 0x3d0e0fc7bbc6f16fU, 0xbd9cf162bd7d4937U, 0xbcfdf63e3c22a139U,
  0x3cff0c6dbbad2d10U, 0x3d31cbcb3c19e71cU, 0x3d69867f3dc90a86U, 0xbcf998673d7d1963U,
  0x3d93d3f4bd49496eU, 0x3c0db15c3d77ebebU, 0xbdb1845fbd47b9c9U, 0xbb471f36bd261502U,
  0xbc974c17bd377c2bU, 0x3d83b645bd816590U, 0x3dc1c635bd41c405U, 0x3c58bb103b16bf02U,
  0xbd349adabd469879U, 0x3cf21ef53d30eee8U, 0xbd4d8ee03dc72e58U, 0xbcf512cfbc52eb72U,
  0xbd411808bb92942eU, 0x3cc0ea35bd1d7e07U, 0x3cb8027a3b553a3bU, 0x3d0ffd2fbda28e05U,
  0xbc6c734b3d237933U, 0x3d66f4ba3c730cf7U, 0xbca940563d456fa0U, 0xbd4db8c53cdc5316U,
  0xbcd7f9a53c833488U, 0x3b6486123a90922bU, 0xbd8c2cef3cf354feU, 0x3d7095c3bd486100U,
  0xbcece2dfbccf3c41U, 0x3d3ad8813b852b07U, 0xbd8b4bf83cbecedbU, 0xbd3bedbdbc8cb646U,
  0x3db563883dc74f87U, 0x3d3aa6dc3d753b87U, 0xbd5c4fc0bc428addU, 0x3d9a55333d97e7ccU,
  0x3ac330ef3cea4c51U, 0xbc7350003d001ffeU, 0xbd1a3592bdd0e8d0U, 0x3d8568173d66455dU,
  0x3d27ae673c99ac8cU, 0xbd3f6e7d3d91e72cU, 0xbd4529293d2933fbU, 0x3c3e755c3d42146eU,
  0xbb328ca03d05a1ffU, 0xbd89d6403c46605fU, 0xbb6fbc2fbcc20315U, 0xbd2fecacbd102477U,
  0x3c849dc23d42f041U, 0xbd4992ffbda104f7U, 0xbd390daf3c92e386U, 0x3d828dc63a6c86b3U,
  0xbcdfbbff38813ad5U, 0x3d8142ae3dc46b75U, 0xbc91a2aebc17af0aU, 0x3d7acea73d35b2d2U,
  0xbd82a36dbd7fc038U, 0xbd2783923ca653b0U, 0xbd83aa45bdcb4373U, 0xbd2888df3d683fd1U,
  0xbc96e0d43d50cc7fU, 0x3c4f35433be3ff3dU, 0x3d81b476bd8eacfaU, 0x3c9ab7803dc11dc0U,
  0x3da6e1f8bcf2a05eU, 0xbd787e5d3da16f2fU, 0x3d9ca7aabd26fd2fU, 0xbdafa91dbd9ee4daU,
  0xbda26addbca570a6U, 0xbd321843bd8a1b57U, 0xbd9de176bc8ad9bfU, 0xbd90cde33d7d6221U,
  0x3c60ee0c3d44f2e8U, 0x3db8b8c53a9a62f4U, 0x3cfa055b3d381621U, 0x3c339d4cbd153bc1U,
  0xbd8478ff3d79833eU, 0x3d43e3aabd4a1421U, 0xbc60311dbdb0b449U, 0xbd2c36f1bda2ff10U,
  0x3abf15bdbd733649U, 0x3d602dacbb34587cU, 0xbc8746d33c000364U, 0x3d9461baba8ee090U,
  0xbd623a713dd54dfeU, 0x3d583b04bcd9a778U, 0x3d0079b63d01e4bbU, 0xbc9859a6bd45b3c0U,
  0xbba126853d4a827bU, 0xbda9898d3c4822a9U, 0x3c8b5ba03d2870a7U, 0xbd8bee1c3c19a267U,
  0xbd1b65a23d21b6ddU, 0xbd033f2e3c84fc97U, 0xbc8846653d7789d9U, 0xbb832f473adb606fU,
  0x3d9571bbbd1bd01cU, 0xbcbf60713d3615cbU, 0x3c89b4803c15df21U, 0xbdaddbe7bd938db3U,
  0xbd63d6d0ba0c6e4fU, 0xbc04878fbd494685U, 0xbd6e82acbda1a8b3U, 0x3cccecd23db9aff9U,
  0x3c7bee283dbdc35cU, 0x3d9c7bb2bc9241bfU, 0x3cc31ee83bc83971U, 0x3d0e75c33d1815f2U,
  0x3d80f2873d66a6a7U, 0x3c851fd1bc74afebU, 0xbd866953bd86fe7fU, 0xbd41ab91bda512efU,
  0x3d5c2e0bbd2074a5U, 0x3caa9ec8bc2c33c2U, 0x3b441633bd0ddecbU, 0x3dd1d9b13d812741U,
  0xbccac12d3d433d52U, 0xbd86e194bd490615U, 0xbc5d354dbc4586aeU, 0x3d838b40bd39b9e6U,
  0xbd19ded23a339d88U, 0x3d3dd18a3d894347U, 0xbd4837343d99d292U, 0x3da1aa6a3d51e65aU,
  0x3c50dff5bd6bfb03U, 0xbc2af86f3bafda33U, 0x3ceaab133d8a6824U, 0x3ce1bc74bc5f93b3U,
  0xbd4b10083d7b8826U, 0xbd8465afbda32865U, 0xbb069433bdbb9c86U, 0x3cd379dbbd89a70cU,
  0x3ce3c3b6bd6a177cU, 0xbd33e6f83b7581b1U, 0x3bb2f5d9bd290d7eU, 0x3d6c4786bd3376e8U,
  0xbd3352523cbb4d24U, 0x3cc1a6fb3d800d5fU, 0x3cde0a3e3c0a6d30U, 0xbd12e7d93c6b55d9U,
  0xbdbc2fd7bdcd8d24U, 0xbcc77800bd35a388U, 0x3da2de8a3d0a6cb5U, 0x3d4b03563d76ee01U,
  0xbafcd05d3da2e556U, 0x3dab68bcbd5cce2dU, 0xbd18ff60bd3a07bcU, 0x3d3bcc423d89be11U,
  0xbd4d34be3d845b2aU, 0x3d0ecd393cc31c5dU, 0x3bf3be253b872e1aU, 0xbdc75ced3c8e98bcU,
  0x3d49141abd8719bfU, 0xbc4604b93cb76506U, 0x3aa446cabcb300e1U, 0xbbeb3a643d055f69U,
  0xbd51ad2b3ce05032U, 0x3d72bb1c3da200cbU, 0xbd44bfc33d8d2926U, 0x3b9f8cf4bcfca4fbU,
  0xbd1b2a9bbdaf8f50U, 0xbc31f8d8bcef52c6U, 0x3c04527a3af97990U, 0xbcf1f1a03d299ba1U,
  0xbd815f77bcd786c7U, 0x3d1b465cbd57ea59U, 0x3cbdedf8bd222601U, 0x3db807203d9ef4e8U,
  0xbc610956bba52d4aU, 0x3d6a33103b593d3cU, 0xbb79e461bcbb6ff7U, 0x3d2c001bbcdf2e2bU,
  0xbd810724bd6e968dU, 0x3d32ce133d0c1092U, 0x3db69aad3a30859cU, 0x3d1ed2563d862e33U,
  0x3d1434133dbcb667U, 0xbce54e6b3c441992U, 0x3d1691893cf3140eU, 0xbda022163d9bcff9U,
  0xbd8e1f293d0a58ffU, 0x3d0f0e993cc5ced1U, 0x3d12a7cdbdcd6cfdU, 0xbd2d55e6bc9615bdU,
  0xbd7b97e43c5e20b1U, 0xbbde47b23d84cd20U, 0xbcc6c61b3d44df7dU, 0x3d4d08ab3d368fd6U,
  0xbd5eb2363d738fdeU, 0x3da9130c3d14b425U, 0x3cbad4333d7f11bbU, 0x3d626490bd51c911U,
  0xbd555cb7bd5d7b2dU, 0xbd7ef3a9bd10e819U, 0xbd9594cf3d947a13U, 0x3bea3547bd64969bU,
  0xbd4666533b9e2635U, 0xbb145e12bd749610U, 0x3ceb71013d9614a5U, 0xbd977bd13da04906U,
  0xbd9e7c553c8e8e36U, 0x3d0984a5bda0d11eU, 0xbda50ba1bd72b59fU, 0xbd10abbe3cf6ff79U,
  0x3cc7c67bbd36c371U, 0x3d6ac648bd94266dU, 0xbcb438cf3da63c05U, 0x3d4dd2e23dc7e764U,
  0xbc1fbba8bd1f9b51U, 0xbd19f42b3d638c00U, 0xbd732be5bdac1e2aU, 0xbdacbb5cbd68aeb8U,
  0x3a29396fbd9ba2f8U, 0xbcf2e6243d313668U, 0xbc78f885bb881a30U, 0x3d163e483d11b88bU,
  0x3d995de3bbcfc3bcU, 0xbce7e1183dba417dU, 0x3c51d08d3da3ae5aU, 0xbd09ad963c401a66U,
  0xbd8a4244bd8bfd38U, 0xbd6263223c0cd76bU, 0xbd8913743cd4a330U, 0x3d2ff37a3cc871d9U,
  0xbd370965bd6a7313U, 0x3d56e702bcd254edU, 0x3d440817bd1df8f2U, 0x3caef460bbad4a28U,
  0xbc84d9eebd4b6d52U, 0xbd857a5fbd5790e8U, 0xbd3e75143d9f2ddbU, 0x3d53876dbd77600bU,
  0x3d64492e3c4f3177U, 0x3af4b408bd75c121U, 0xbdb09ec0bca05443U, 0xbd41b6aabdab78cdU,
  0xbd00d35cbbdcc8c1U, 0x3ce21bc53d1aaccbU, 0xbcefa1a03d92d473U, 0xbb1ae4f1bcdb1328U,
  0xbc75020a3cd69df5U, 0x3d88075ebc9de440U, 0x3d13edb03d424cd2U, 0xbd8d0dc8bda3a7f2U,
  0x3d7b5f60bd844937U, 0xbdab7d07bced8431U, 0xbd5eadc5bd6433d7U, 0xbcfd933c3cd1cf64U,
  0x3d8eb92f3c059c62U, 0xbc1c2f9bbda8e539U, 0xbd065b803d00ed79U, 0x3c81d48abd18c763U,
  0x3d4f04083d14eff6U, 0xbccc4028bd972c59U, 0xbce43edbbd22473dU, 0x3d6f2017bc375a79U,
  0xbbe9b18bbd4fe62eU, 0xbccc2378bb9df6e0U, 0xbd444214bceb3157U, 0x3b7439c4bda5c075U,
  0xbd75ad96bd2c45fbU, 0x3b788da6bd8cd7cfU, 0x3d695c2f3d54bfeaU, 0x3d72c297bafa6cb0U,
  0xbcfa3fc7bd498065U, 0x3d05b58e3bf2178cU, 0x3d97f72b3ca1c87cU, 0x3c1e029a3cf0c75bU,
  0xbd80524abd5bedceU, 0x3d7067fbbcd12561U, 0xbd1175f8bd4bbaccU, 0x3d37a7663d8b1b85U,
  0xbd2b63643d3c84c1U, 0x3d7b56c9bc9e7005U, 0x3d06995a3cde9af9U, 0x3d92e73abd85777cU,
  0xbdaac1a23cab8d0aU, 0x3cf9aeff3bfd04c4U, 0xbd3ec8d3bd28f23fU, 0xbd6b6d84bc32bf62U,
  0xbd4254043d0eab70U, 0x3d449810bd932e43U, 0xbd2e11e83cd3df07U, 0xbc0d29a7bd2a53d9U,
  0x3af5c39ebcd61d95U, 0x3b4dd905bb740053U, 0x3d28828dbd63d599U, 0x3d45dd633d0b2b57U,
  0x3d3318213d11c4ebU, 0xbd949d6ebd8103abU, 0x3c4c0dc9bd96fccaU, 0x3d2cb62b3d662d2dU,
  0x3d94fa263b0a0bffU, 0xbca14271bd604275U, 0x3d8208c5bd15c87bU, 0xbd87b86e3bf23ae5U,
  0x3d24fba13cc6bfbaU, 0xbd1b56523abd87e8U, 0xbd6bfa88bd51bcc7U, 0x3d90a920bd7e1b65U,
  0xbd07e8ffbd8c80cfU, 0xbc5906613d4d196fU, 0x3b0ca6aebd2acda7U, 0x3d7276edbac8d0a4U,
  0x3d4ab3fcbd4fed98U, 0xbd65140ebd685bcfU, 0x3d7895d0bbf1e40dU, 0x3d874d533c8316a7U,
  0x3d84b9b53d0b79a2U, 0xbc748b06bd430b75U, 0xbcd797e93d80aac3U, 0x3d18904fbcbc1157U,
  0xbd407964bd14f088U, 0x3d5b72ac3c4dc25aU, 0xbd1e7b3d3d8bff6aU, 0x3d5abea83d809ad3U,
  0x3af82a94bd701d00U, 0x3ae14dc93c238047U, 0xbc62e1db3b509444U, 0x3cab199ebd7775aaU,
  0x3cce49e5bd555e75U, 0x3cd96904bd13c23aU, 0xbca0adc2bd384778U, 0xbd865893bda06b91U,
  0x3c6fcd703d1b42b9U, 0x3ca4855abda56d10U, 0x3d131d1b3ca6f250U, 0x3cb295483d419b04U,
  0xbda66e88bae5c24dU, 0xbd9b4a83bc863c13U, 0x3b21bea0bcd730f1U, 0x3cf74e073c563166U,
  0xbcf909233cec67efU, 0xbd8355eb3d77cdddU, 0xbd746d223d47bef0U, 0x3cacce57bc668a2fU,
  0x3b0d0ec63d7e2fd3U, 0x3c1bc01ebd8b0ff9U, 0xbd85f4f43841c8a1U, 0xbc072ef3bd3b2887U,
  0x3d9b5e243905f8e0U, 0x3d6ab816bd11be6aU, 0x3d2df1593d9a0af7U, 0xbd835c7dbd845c9bU,
  0xbbec277a3d9a39b3U, 0x3d8182d4bcba7e43U, 0x3c76ad1f3d89ed3bU, 0x3d913ece3d9c5b15U,
  0x3d1cf1233d1fd233U, 0x3d363c633bb14cf7U, 0x3aec0bd73d38b247U, 0xbcccf701bd9e0f40U,
  0x3d957f75bd28afb5U, 0x3cc1608f3c3cedaeU, 0x3d5852593d36b4fbU, 0xbd2a6ffd3d90cd6bU,
  0x3d787a18bd5cab33U, 0xbd4b2dbd3d968c7cU, 0xbd2daa743d975285U, 0xbda362c73d2ab752U,
  0x3d923e33bd2f1224U, 0xbd9fbe16bc3c5683U, 0xbd78f5a63d4bafc8U, 0x3a98d783bd066022U,
  0xbd94ad1cbd7e26cdU, 0xbd5023403c4bcfafU, 0x3d5191ba3c1453c3U, 0x3cfc1df43aa67672U,
  0xbc9940c93c5f981fU, 0xbd7e77c0bdaca317U, 0x3ca1fafa3cdf4cddU, 0xbd98325f3bf5ffccU,
  0xbd0976483d4dde68U, 0x3cc0c784bc894b2cU, 0x3cccd398bcbec492U, 0x3d2e1908bcfacdc4U,
  0xbd0104f2bbaf2230U, 0x3d2f1d1cbcdcb61cU, 0x3b995e003d17b97aU, 0xbd46132a3d2b6380U,
  0xbc4d13a83c5f68b8U, 0xbd1ae82cbca4a090U, 0xbd6a47d83d9f3192U, 0x3d991608bc74ad28U,
  0x3d941cf8bda08f8dU, 0xbd870410bd504adaU, 0xbcf538fe3d095b80U, 0x3d224586bd69db9dU,
  0xbd3a6c193d54c658U, 0xbd9795943d3a3b44U, 0x3cdc08803da4193cU, 0xbd6ce796bd88d87bU,
  0x3d4cf748bd84147aU, 0x3d3d0ce83d954e72U, 0x3cb16110bd38533aU, 0xbbe72cf03d118222U,
  0x3d7aa2f0bbc01db0U, 0xbd7611743c75f510U, 0xbd12118e3cadd428U, 0x3cd74f18bc0b2348U,
  0x3d502fe0bd9de3d0U, 0xbd85decf3cab8524U, 0x3d5257b4bd2dc22aU, 0x3c434ea0bda3da9bU,
  0xbcc6ead2bd241a34U, 0xbd901b6d3d21abccU, 0x3d8b06563d4439c0U, 0x3d14bcb83d83bd04U,
  0x3bf0cf103d99da16U, 0x3c7a29483cc74e44U, 0x3d5e608c3d5225ccU, 0x3d268c44bcbb1544U,
  0x3d963b863d883040U, 0x3d9847703cdd56e0U, 0xbd2c4f883d2c0b66U, 0xbd21409dbd4d6552U,
  0x3c8375ccbd82c9c2U, 0x3d0eb37c3d8e6336U, 0x3c991f4cbcae9de6U, 0xbd5438ba3d619930U,
  0x3d3a5c083c999378U, 0xbcfb3e963d03e8fcU, 0xbc843a683bb239d0U, 0xbd0b75773bea46e0U,
  0x3cc95638bd9a4b69U, 0xbd86270ebd184ffdU, 0x3d95f4a43d663984U, 0x3d7bea703d97ad04U,
  0xbd53d8c83b8fa570U, 0x3d2fe40ebcde9064U, 0xbd7f9b2e3d8c34bcU, 0xbb0342e03bfccfd0U,
  0x3cb2d3f8bd3cc2c7U, 0x3d5f28303d825600U, 0x3c2606703d9a1a90U, 0xbd64177cbd4e9b66U,
  0xbd587a903cb8a404U, 0xbd3070a4bd946048U, 0xbd6225a8bc8dbbdcU, 0x3d8e1f363d718f74U,
  0x3d60a454bd86d1b0U, 0xbd32d94abd96ce32U, 0x3d4b93e03d857710U, 0x3d2a8eaebd40a033U,
  0xbd3ca6b43d0133faU, 0x3d8c2828bd6b170dU, 0x3d93c676bce2ed3aU, 0xbd79ac763d867d44U,
  0x3d0775cebd002d6aU, 0xbd9af8edbcc703c2U, 0x3c46a1c8bd323853U, 0x3c3bc788bd8e6582U,
  0x3d1a6026bce38ac0U, 0x3d4b4e5c3b8f75e0U, 0xbc8f8e94bd888903U, 0xbcf482d83d4c787cU,
  0xbd9f3262bd7cfc9cU, 0x3d1917ac3d5cba38U, 0xbc6b4a48bc3a11c0U, 0x3d3a92e83d817314U,
  0xbda21b42bd8cca73U, 0x3caea8e4bc2f86c0U, 0xbd1f529c3d3f8054U, 0xbd9413103cb4cf00U,
  0x3d4e9000bc9dd208U, 0xbd9ec24d3d489dc0U, 0x3ca5a680bd830ac0U, 0xbcccdd043ccbd034U,
  0x3d567b503d992b76U, 0x3c0bb3683d68bfacU, 0xbc38e3b83c797230U, 0x3d7144ec3d149f7eU,
  0x3bf555e0bd435fa3U, 0x3cb98a6c3d389f9cU, 0xbd834eb6bd0b96bcU, 0x3d3a5b783d421f9cU,
  0xbc8732343d7e2024U, 0x3d95b1dcbd616218U, 0xbcfbda9ebd8d1641U, 0x3b61ba40bd302a63U,
  0x3bd8c420bc3970c8U, 0xbda3bbdd3d614c90U, 0x3d85d394bb495b40U, 0x3da3a3e2bc561428U,
  0x3d76b648bcda3fc2U, 0xbd931d0dbc0da310U, 0xbd02ff8bbcc8fd34U, 0xbb8cbc803d2db3ccU,
  0xbd0a5033bd32fdb0U, 0xbd6e69fdbcfbd68aU, 0x3d1eea803d733d8cU, 0xbb9e76003d91e6a0U,
  0xbd78fc043d27bfaeU, 0x3d5460d8bd198e13U, 0xbd2754fcbd9cb03dU, 0x3b9524c0bd4d795eU,
  0x3d4aeec83bf694c0U, 0x3d803abeba809ac0U, 0xbd2ef2e43d60fae8U, 0xbd093b9cbd429147U,
  0x3d872d4c3d1f12d2U, 0x3cf6b97cbc80838cU, 0x3b89ac703ca54c20U, 0x3bd555603d75ee0cU,
  0x3d926824bc8f5cdcU, 0xbd83fe08bd9c6d1bU, 0x3d8fb5ec3d39dbd8U, 0xbd9ad7243c1ef0d0U,
  0x3d233aba3d8071a6U, 0x3d65e9f43d290070U, 0x3d370478bcb1a60eU, 0xbd1f7e2fbb19c720U,
  0x3d3735b03d5f863cU, 0xbd3d356a3cb2b5b4U, 0x3710e000bc97f6acU, 0x3d8719383d89c0e6U,
  0xbc8a8b50bd311d82U, 0xbd90f002bc1c0298U, 0x3d2eb070bd543d56U, 0xbd23073fbd36bf81U,
  0xbd839bacbd3bc8fcU, 0x3ccc773c3b31d0c0U, 0xbab64b00bd9a729aU, 0xbcb384f2bd4f2dc5U,
  0x3d72d590bd5d365aU, 0xbd2081553d330052U, 0x3d0becccbc8bf440U, 0x3b4c95203b5f9000U,
  0x3d997c443a6c4400U, 0x3d515928bd6b2c74U, 0xbd3dd563bd3a07e9U, 0x3d9fc432bb1b6600U,
  0xbd8dd9fd3cfbddc4U, 0x3d9a2984bd94973cU, 0xbd9a96d2bd929656U, 0xbbac0630bda49eadU,
  0xbbf2c0c03cd5951cU, 0xbd34745ebd886b71U, 0x3cf177fcbd001ae1U, 0x3d9bc5763c69f3d0U,
  0x3ca493b83d15934eU, 0xbd54e4b03d46cbf4U, 0xbd5df203bd24f629U, 0x3da47c203d7ced94U,
  0xbd48ee4a3d08b8ccU, 0x3b52e080bd541d7cU, 0x3c254f503d645d3cU, 0xbcd7a1d6bcc8782cU,
  0x3d470d903cac3b28U, 0xbc846f00bd929f7dU, 0x3bcfa340bd8d2ae6U, 0xbc42bc78bd24ad95U,
  0x3cfd6d84bd91dc2eU, 0x3c5bacc03d923ae0U, 0x3d73c5643d325680U, 0x3d1954c63d5d34d0U,
  0x3d9b654c3cba6fdcU, 0xbd5863943d5d7340U, 0xbc6eccb83b82b720U, 0xbd6ac2543d7faf18U,
  0x3d4f8c04ba7d1880U, 0x3d80b0debcfaf860U, 0xbc7664103d44bc4cU, 0xbd9a92c23d736e54U,
  0xbd82917bbc39b380U, 0xbd913d51bd821496U, 0xbb7ecb80bcd19694U, 0xbd9c06a8bd694e70U,
  0x3d15be50ba6aee80U, 0xbd512302bd6bb754U, 0xbd0bc7383d6173ccU, 0xbcd51242bbbbba40U,
  0xbd913b253d3aa3f0U, 0x3d16ab5abd930572U, 0xbd6845683d2596c2U, 0xbb098e403cfa3b98U,
  0xbcfdd512bd8dd1f2U, 0xbd7d186cbd0c96e4U, 0xbd7ea8243d33b81eU, 0x3c53bcc8bd2a8933U,
  0x3d27acbebd006dedU, 0xbd8ac13bbd7e54eeU, 0x3d464dc8bc59b408U, 0xbd8a45f9bceafd1eU,
  0xbd274b2abd941626U, 0xbd0a4851bcb64c38U, 0x3c84751c3a314c80U, 0xbcf81660bc2e9a40U,
  0xba1651003cabf404U, 0x3d5f9fd4bb99bfd0U, 0xbd4d53a23cd09624U, 0x3cbc44ac3ca29ed4U,
  0xbc8fe870bcf1e8ecU, 0xbc9040ec3d330090U, 0xbd2d57efbd957332U, 0xbda51d2b3c939ad0U,
  0x3d8a67523d5f7b0cU, 0x3b933430bc93a69cU, 0xbb3173e03d51dda0U, 0xbbb971c03d831f68U,
  0xbd4ab47abd952fa6U, 0xbac8ed803d312896U, 0xbb2a42e0bda405c5U, 0x3d255d863ca17a94U,
  0x3d87f03cbcc215a6U, 0xbd7af9e4bcf7b4a2U, 0x3d902e063d17b046U, 0x3d6b47383d9de0b2U,
  0xbd8b21c03ce309a4U, 0x3c8707e0bbef79c0U, 0x3c9b4d943bfae230U, 0xbd9a06a5bd1d0173U,
  0x39e1d200bc0a1a68U, 0xbccce332bbb33850U, 0xbd96558bbd8297deU, 0xbd47ad46bd772a78U,
  0xbb00d060bd40c495U, 0x3d8d339cbd42fcf7U, 0xbc8daac0bd89d551U, 0x3d91d1e23d4039e4U,
  0xbd0366323c7cdf08U, 0x3d5dc7543d6bb7f0U, 0xbcb545a2bbea18c0U, 0x3ce88a143c4d8528U,
  0xbc0adb38bbe3b0f0U, 0x3d2baa903c336c60U, 0xbc08d328bc0221f8U, 0x3d2b2302bd5e1790U,
  0x3ca626143cd0f1d0U, 0x3cc2d0903d9ee5f2U, 0xbcefd7b6bda4072cU, 0x3d17cdaa3b883f10U,
  0x3bda5e803d116dc4U, 0xbcfdf256bbaff8e0U, 0x3d688980bce86f54U, 0xbccb04eabd209fe5U,
  0x3d853a20bd8948a0U, 0xbd8dcf4abd04662cU, 0x3d0a9802bd9ec602U, 0x3b26a840bd80df12U,
  0xbd5374463c86f19cU, 0xbd86bc49bd65a30eU, 0x3c625e00bd01293fU, 0x3d603800bd98ee40U,
  0x3ca18f50bd686bb5U, 0x3cd877e8bc516698U, 0xbc3790e8bd2cc57cU, 0x3d9509aa3d8def5aU,
  0x3d66a6b83c992b24U, 0xbc7cfe78bc001e18U, 0xb808f0003c86a974U, 0xbd99c6b7bba4c900U,
  0xbd7406ca3cf5df74U, 0x3c9e85583cedf2a4U, 0xbd84c2873d3834e4U, 0xbda581a6bd983573U,
  0xbd70e8bfbc0abda8U, 0x3d43ecf83d9bce92U, 0x3d4886a4bbd36c10U, 0x3cbadb103cba507cU,
  0xbd9044653d6484fcU, 0xbda556e43d45f404U, 0xbd87b06b3d02ea4cU, 0xbd8da5b63d473430U,
  0xbd76e4f23d8a1a46U, 0xbc40bff0bd1ca9b6U, 0x3d84edf63c2f3c08U, 0xbd039a6cbda20d55U,
  0xbce96aac3d1b8108U, 0xbd07e4c93c50deb0U, 0x3b370800bd753750U, 0x3d2478883b0265a0U,
  0x3d8cf58abd868598U, 0xbcd519fc3d3a65f8U, 0x3ca809403d981a10U, 0x3cd6dc603d19b190U,
  0xbd77bb443cfdac40U, 0xbca9aa203d8fcb5eU, 0x3d3bcb683d382d98U, 0x3d02d478bcd86b42U,
  0x3da31ae63c9a7908U, 0x3d75d3e4bda3eefbU, 0x3ba16490bcce5178U, 0x3d0b76be3c941a78U,
  0xbd9a4dc43d5591b8U, 0xbd00168e3bbdcba0U, 0x3d7e272cbd890a02U, 0xbd6848d23d04345eU,
  0xbbb4f5703d0c8d50U, 0xbd954346bc47ab48U, 0x3c3ee670bceae04cU, 0x3d4b38883cbd7510U,
  0x3d9b690e3d5fcb04U, 0xbd1e126cbc52b0c8U, 0xbd5b60b8bcaba23cU, 0xbca75c0a3d8fe45eU,
  0xbd80e5cdbd3581c8U, 0xbd076a10bd9a9482U, 0xbd9b14a33d362690U, 0x3d4d0998bb6a1f60U,
  0x3d1624e2bd428c25U, 0xbd822f2f3cb317b8U, 0x3cd020643d5408f8U, 0xbbb59ab0bd7fb37eU,
  0x3cb9b4dc3d8855f2U, 0x3cb9efb83d63bbfcU, 0xbda322b93d1a9f26U, 0xbcf6d75cbd98299eU,
  0x3d87b222bc0f9648U, 0xbcb30c5c3d8de918U, 0x3d19a74cbc0d9470U, 0x3d949da03d8da20eU,
  0x3ad27d80bc98fa44U, 0xbc6176603d020be6U, 0xbbe9bdc0bca5d252U, 0x3d84f272bcce170eU,
  0xbbac29c0bda295e9U, 0xbd29929fbd98b7d0U, 0x3d1b4af6bcfe4f3aU, 0x3cddea343d4ee6f4U,
  0xbd1f9a57bd441405U, 0xbbf64840bd80f858U, 0xbcc1a110bd44c1c2U, 0x3d417c58bc7a1740U,
  0x3cf62860bc3392d8U, 0x3d2ed7c43c4df480U, 0xbd9f7021bce38086U, 0x3d9dc418bd85be02U,
  0xbda2fdbdbda27de9U, 0xbd54e7403d27dd16U, 0x3d942cb63d041c7cU, 0xbd95f1fbbd58bd6cU,
  0xbd850fdebcf126f0U, 0xbd184cc6bc447320U, 0x3da39b10bd5b51d8U, 0xbcb984d8bb966cb0U,
  0x3d4a08a43d6265b4U, 0xbd4ebeabbd8b6530U, 0x3d16fd2a3cbdf24cU, 0x3cd645d8bd8c4e02U,
  0x3d79eaecbcfa108cU, 0x3da0daf63c87a990U, 0x3d08ddc4bc3c3268U, 0x3cedbc1c3d170540U,
  0x3cd91ad0bd94eebeU, 0xbd8b823bbc9ab714U, 0x3d66fad43c9f8118U, 0x3c4d16a8bda133c5U,
  0xbd53077f3c3257f8U, 0xbd164b9739493e00U, 0xbd7003e03d8e692eU, 0xbd7df39d3aaad2c0U,
  0x3c87dda03bb96960U, 0xbd19fe593cd6dda8U, 0xbd3c7e623d93e5f6U, 0xbd02eca03d3303faU,
  0x3bd31847bd571e29U, 0xbc91206fbd2eb343U, 0x3d149da83d27800fU, 0xbd8bfad0bcfeea03U,
  0x3bb09e7bbd2b9ab0U, 0xbda997943c8c9c35U, 0x3d8505a9bd268c87U, 0x3d842ac13cad9f5bU,
  0xbce7c6173cb76823U, 0xbd3dd52cbd6ffa87U, 0x3c4a00b13c6e2367U, 0xbd7ebb803cae6c27U,
  0xbd146b0b3d3b84aeU, 0x3c3a89f03d8fecacU, 0xbd987317bc61261eU, 0x3ce6b61ebd6fea94U,
  0x3d91c931bda673a4U, 0xbb2dad663c1416ccU, 0xbd684d243d8a9a9cU, 0x3da5ae773d9d5e35U,
  0xbd1af15cbd17b5e8U, 0x3d97420ebd8c66d6U, 0xbd0a25dbbd21e038U, 0x3d846e55bd2b32daU,
  0x3c4147363c17d7f8U, 0xbd3a4f15bbe1231eU, 0x3d9429a53ccdfb1fU, 0x37d3d1b73cf272aeU,
  0xbd47aa9dbd66467fU, 0x3ae9b023bd51e21dU, 0xbc63fa22bbe70396U, 0xbd8d9a27bd62cee1U,
  0x3da2c237bc3f7772U, 0x3d94b6a83d24c5beU, 0x3cec8da2bd51f3a6U, 0x3d4c235dbb91a045U,
  0xbc92166cbd63bbdfU, 0x3a9f43b33d892e29U, 0x3d1ee0703c463c51U, 0xbac954843d72d214U,
  0x3c5d7ab0bc71c96dU, 0x3d87dda23db1952bU, 0x3d2031e33daa9cf3U, 0xbd31a283bd0e152cU,
  0x3b53b6dfbcc342b4U, 0x3c62e84cbd0c840bU, 0x3d5c3b95bd05efd4U, 0x3da654abbda761d5U,
  0xbd935d5cbc0795f8U, 0xbd4a5cb2bce459c2U, 0x3d95542c3cec2424U, 0xbd3a866e3d747ceaU,
  0x3b664ec9bc93f8cdU, 0x3d5f1da13ced2d27U, 0xbda1aaa33cfecb61U, 0xbda7ac6c3ce0a091U,
  0xbdafd4183d83aeaaU, 0xbd906a02bd8b1743U, 0xbd71cc3abd7ec581U, 0x3bfcd881bd4a4f67U,
  0xbd32df1a3d3ae793U, 0xbd3453b7bd1e26b0U, 0xbd46236e3d199bcfU, 0x3cf96fd43d9b6b8eU,
  0x3cf68615bd66af81U, 0xbc813358bc9cdc4cU, 0xbc0b553bbd55a49eU, 0x3bd20fabbd84f870U,
  0xbd9cb936bbf1fe28U, 0xbaa2cf6e3cb23f8fU, 0xbd925c8c3d31bbe6U, 0x3c1679f9bce494deU,
  0xbd99a6503d46eab4U, 0x3d9e2ff2bcbb44aaU, 0xbd987fd33ccc0d6dU, 0x3cb6745836779ec8U,
  0xbda14f4a3d15bf2fU, 0xbd7dc7163a372360U, 0x3c7f21d7bd4da238U, 0x3c7c598abbe3c6edU,
  0xbca839833d4e3017U, 0x3daeb32a3d6d7103U, 0x3bf67446bd572716U, 0xbd8c66233cb54f94U,
  0x3d8f6af23c97db37U, 0xbcfb4e673d96311aU, 0xbdb491d43b0ae658U, 0x3d35955c3d8c3e7bU,
  0x3d54f7dabd823924U, 0x3d526c013d9170aaU, 0x3d1116703c4ef1a6U, 0x3d0e4a8d3cd52565U,
  0x3cc25ff1bd86e4cdU, 0xbcca87a73da99e7cU, 0xbcb06d5d3d8a399dU, 0xbcc2884b3cc96bb9U,
  0xbd840a80bd3b54d1U, 0x3c25e5683d69c3c8U, 0xbcf589193c459b2aU, 0x3c7a71d13c667c89U,
  0x3da7ffa03d8a3394U, 0xbc03526e3db0afe6U, 0x3d87e4abbd0358e6U, 0xbccabc3e3c366e70U,
  0xbcd052a5bcb5ea69U, 0xbc8492f83c2a1383U, 0x3d145cb73d247732U, 0xbd744f6e3a998182U,
  0xbd4102aabd8859f8U, 0xbd93e4cabd3edb77U, 0x3d0a83613d59b0c0U, 0xbc03ed60bd96e10dU,
  0x3d73523ebce5f028U, 0x3d5b000f3d8edc26U, 0xbd456620bd848953U, 0xbccfc8453c1976c0U,
  0xbd7d72eabcb80d4fU, 0xbb77a203bcc167b1U, 0xbcccfebe3d4fed09U, 0x3d02a5b53cebbddfU,
  0xbc8c4dda3d9c583cU, 0x3d36bdd4bc85c713U, 0x3c1af38abd9185fbU, 0xbd74fe52bd25d76dU,
  0xbb9d6b723c8dfa12U, 0xbd44b25ebd5c440aU, 0x3d379f723cfbe121U, 0x3d5a1bcd3c26d37dU,
  0xbd9b2d6dbd68254fU, 0x3d9c80e73d45722bU, 0x3d366cf23b5e0aabU, 0xbd92d2a93d4b6f23U,
  0x3b82716dbcbeb9f7U, 0x3c89db55bcdad155U, 0x3d46d75dbc891f04U, 0x3d0da9e6bd2bddfaU,
  0xbc492823bd168447U, 0x3d38bbe7bb6b196bU, 0x3d7ab0213cbde878U, 0x3d97ff1dbca15741U,
  0x3d73a55dbd8d6e43U, 0x3d77df8d3d525b87U, 0xbc493408bd2b93fdU, 0x3acae0eb3d80176aU,
  0xbd83f7cc3d060e97U, 0x3d017b9e3d7a4968U, 0x3d410260bd2fc782U, 0xbd7d34923d1418fbU,
  0xbd5783573c57a913U, 0xbcec5110bacd1e00U, 0x3cace1e33c91e728U, 0x3da961373b8b70dfU,
  0x3d1a5e093d9baaf5U, 0xbcd88d343d81b1b7U, 0xbd8a8239bc29f913U, 0x3d9aa60c3c3de2ddU,
  0xbcf6427cbd9eb640U, 0xbceaee6b3cf56965U, 0x3d4f5480bd449346U, 0xbc7745cc3d7eedc0U,
  0x3cd696583cc9a74bU, 0x3d5feb2e3d1bec4fU, 0xbd82f2343d1a3c34U, 0x3d91a8e5bd4d46b0U,
  0xbd3750eb3caed3e7U, 0x3bcae458bcea4b83U, 0xba61b8a63d95b6e4U, 0xbd44b0f8bd50dcc9U,
  0x3d3a81413d8f6a96U, 0xbd85332f3b5e2528U, 0x3d6b9ba83d89cdceU, 0xbd0ed7da3d1be7e6U,
  0xbd86207e3d879b72U, 0xbc979ca23d18a743U, 0xbd0288263d5d645aU, 0xbc9e6ab13d807896U,
  0x3d78f351bd45c80bU, 0xbd9653bfbd4c1a24U, 0xbd8d2975bd703a24U, 0xbd718353bcbcb126U,
  0xbd803c8a3caad5d6U, 0x3d92c4873d8e286eU, 0x3ce54b1fb8777969U, 0xbd9a1fbc3d355800U,
  0xbd3925773c65b59aU, 0x3daf008ebc0a4491U, 0x3da771ab3d0e1d47U, 0xbab4c36ebcc232fdU,
  0x3d22bcadbda13ebbU, 0xbba68e8bbd914921U, 0x3d3ee34dbc06327aU, 0xbcd80c3d3d6ba1dfU,
  0x3d2e98b7bda2ff74U, 0xbcd2daa9bc025ca6U, 0x3bd8fccabc21e4c4U, 0xbd0667ecbc5e5689U,
  0x3d8153123d0d5011U, 0xbb39f1603d1b7cb5U, 0x3bbe90a1bd8aea21U, 0xbd053020bda257beU,
  0xbccf7c6cbda133d9U, 0x3b4382a1bc7ce7d8U, 0x3d8639363cb66a99U, 0x3ca6700b3c29edffU,
  0x3d9c53a13dadbe8aU, 0x3d457ff43d7225c1U, 0xbb8b38953c6c974eU, 0x3c53162a3d88ae03U,
  0x3d2769c4bd9054a1U, 0x3cdc4b17bd25bb2bU, 0xbc2cf0df3bd52542U, 0xbb82b0f93c2288bfU,
  0x3d9f235ebcfe850eU, 0xbc4d1e13bd0f1011U, 0xbd3efb263c27a372U, 0xbd1361e5bd72ccb7U,
  0xbc522ab8bd777fb5U, 0xbd7c2de03c83905fU, 0xbb2257a5bd3fb335U, 0xbcfaaed3bc5683b5U,
  0xbd94f93fbc5ed470U, 0x3c0aad4abd650013U, 0x3d0ca8173d02ce98U, 0x3d38af83bc161a50U,
  0x3d560422bc1b373bU, 0x3b675a7fbd922150U, 0x3d2358513d5d300eU, 0xbd995c5cbc0f4bf3U,
  0xbd2243abbd25fa7fU, 0x3c5c30c6bd79fb7fU, 0x3c895d8e3c6aa2aaU, 0xbd62450c3ca3843aU,
  0xbd98f2453d892488U, 0x3c7191a23d9f39beU, 0x3c12df903d0939f2U, 0x3c355bf93d7d118dU,
  0x3daed08f3c925124U, 0xbd1fc645bd364181U, 0xbc9bcf53bd168366U, 0xbd3098c53d19321cU,
  0x3cf37412bd93a71cU, 0x3b080545bc02a9adU, 0x3d63d6f63d0fea06U, 0xbd11bd473d587a39U,
  0xbd2763b13d8f953cU, 0xbd29e8a2bd38d5feU, 0xbd122acd3c09477fU, 0x3d8a2e323cd70fadU,
  0xbd981e963ce03edaU, 0xbcef7aaebda2c7c3U, 0x3cec5d37bb9822d3U, 0x3d982b3e3d9300ddU,
  0x3d5d84d23be1bfc0U, 0x3d887ab6bd28b0acU, 0x3d7f4bfdbd8b3b00U, 0x3cd6e88bba1e7471U,
  0xbda60bb33cf351f5U, 0x3d01ba163d643180U, 0xbce83c953d1fe9c3U, 0xbd84c5103ccade0fU,
  0x3d4940d33d400c03U, 0xbd41be9abb8f9bd0U, 0x3cdec3ecbd9ab5e0U, 0x3cdedc6e3d3a39e6U,
  0x3d4693633d81c1f4U, 0x3c9bd7693d54986eU, 0x3cbe969abd9bfa5eU, 0x3d1c50023d581f93U,
  0x3cbbeaf23d0506b6U, 0x3cfba62f3d95a602U, 0xbd8d4f603d91cbbcU, 0xbd028e6fbd06a70aU,
  0xbccd78a5b950eff2U, 0xbd9264123c492398U, 0xbd0dc84dbda29e9cU, 0x3b004eef3cf9bb3bU,
  0xbd9ef7f03d905f2cU, 0x3c5ab3493d6de2f0U, 0x3b4fae733c8639a8U, 0xbda08063bd324a68U,
  0x3d6c78613c18ea18U, 0xbc370c203cf97696U, 0x3d7e27a1bd35c863U, 0x3d6d017a3d539a70U,
  0x3d838e6dbd9ca767U, 0x3d5fdcc3bd9748c7U, 0x3d0dfc9dbdb2f723U, 0x3d9352d3bd8bcf5aU,
  0xbda7e63dbcf9d4cfU, 0x3bcac1a4bd7c5992U, 0x3cd8fba5bd09d0e7U, 0x3c625089bd812343U,
  0xbd108ff3bd861c2fU, 0xbd812cb4bd789da0U, 0xbda05f853d543ed2U, 0x3c6fe6e73d3bcc46U,
  0x3d55a79b3d2ac849U, 0xbdb52accbcef75d5U, 0x3ce2281abd2ac73bU, 0xbbb2bcbabd90a1f1U,
  0x3d18fbb13bae9c35U, 0x3d0733d43d013765U, 0xbd9021bc3d2dd202U, 0xbd158818bd9bbfd6U,
  0xbd90fdec3d910913U, 0xbb7b5ca23c25f8d0U, 0x3d202f383c0e1b21U, 0x3c7765f13cd172b8U,
  0xbdb343233d873056U, 0x3d8639b53d84cd9bU, 0xbc863b6fbcb63506U, 0x3d3438fdbd610e5bU,
  0x3d8be287bc9e9754U, 0xbd04ebafbd4f017fU, 0xbd74da1cbd3065b7U, 0xbd2df3e5bd56ce45U,
  0xbad9f742bd74f866U, 0x3d2a7de6bdaa7668U, 0x3ce5ef463d753410U, 0x3d89ff153d892e61U,
  0xbb50d854bd842130U, 0xbccfa9d63c5eb552U, 0xbda8fb13bda46121U, 0x3d61ecf73d66f768U,
  0xbd9a28a53bbb8244U, 0x3c7e2d543d89f355U, 0xbd899d92bd008283U, 0xbd9dd22fbd6af3fdU,
  0xbd447f57bd4f79f9U, 0xbd0951403d92f2abU, 0xbd89f1ae3d176088U, 0xbc8339fdbd66e0f9U,
  0xbd2436fe3ca28b0cU, 0xbcdf2276bd87e47fU, 0x3bb358823d4ea2d1U, 0xbd67918dbc89ce79U,
  0x3d65fbb5bd50ebc8U, 0xbb9e27e93d5217a6U, 0x3d1ff1e0bc9a805dU, 0xbdaae59abbee3cffU,
  0xbdaab141bb3c523eU, 0xbc50e8603caad5f7U, 0x3d87cad6bd014473U, 0xbc5bf8bf3d8cef08U,
  0x3c0031513d6eac0bU, 0x3d66563abcb739a3U, 0xbc89b558bda57979U, 0x3cd903b43c8aba78U,
  0x3d5aca4bbce24cd6U, 0xbd1fc138bbf7cf29U, 0xbdb3ddff3d551aeeU, 0x3d46f1cdbd390621U,
  0x3d5faecbbd1fe398U, 0xbd890de53d49f9fdU, 0xbda9113f3d69c77dU, 0xbcdb46babd0ba370U,
  0xbd6c6ba93d50ba9dU, 0x3d055981bc946553U, 0x3b1a3e033d90472dU, 0x3d48a794bd80392bU,
  0x3cf2af613c9dd598U, 0x3ac15795bd4d94edU, 0xbcea826b3d57335bU, 0x3d90e8c4bbe1770eU,
  0xbd759118bc928531U, 0xbcc71b4f3d50490fU, 0x3d2a11f7bc39b11bU, 0x3d70380c3d76d289U,
  0x3c6cf8193c1fe512U, 0xba277280bb95f1a8U, 0xbd3db5a9bd9bc499U, 0xbd15e7273d63db40U,
  0x3cb3e07fbc24bbaeU, 0x3d5a6c883c3eb0e2U, 0xbbeb5b673d848832U, 0x3c69781dbcf6dabbU,
  0x3d28907b3cb8d4e1U, 0x3cf0076e3d7bcf35U, 0xbd24ee12bd5a8b4cU, 0xbd0294c6bd1ecdceU,
  0xbd2fa884bd925309U, 0x3d2918053d69eb88U, 0xbc4a65a43c4312edU, 0xbcd3b5bbbd65cd29U,
  0xbd81b679391bee00U, 0x3d62cfe0bd66286eU, 0x3d092c6ebd90c6deU, 0x3d990cb83c260560U,
  0xbc270ac03d1ded94U, 0xbd995788bda060b9U, 0x3cc962f43cf8acc0U, 0x3c351f103ce4bd14U,
  0x3c981508bd8faba6U, 0xbcd58dea3cc5a298U, 0x3c382338bc21f398U, 0xbd35217abd743468U,
  0xbc75c5a03af5e400U, 0xbd02a7d3bd8dcf1bU, 0xbc5812103d5a0bccU, 0xbcc1d10c3cc87fbcU,
  0x3c80b688bd4ce25aU, 0xbcdeff303d276bbaU, 0xbb7b3de03d30b91aU, 0xbc8ea4403ce5d310U,
  0x3d563da83c17db78U, 0x3c6c0c003b9d6d00U, 0x3d1114f43d01786aU, 0x3d69be40bb650540U,
  0x3d27e6a63cc29aecU, 0xbadb3640bda504c3U, 0xbc026c303cc5f1c8U, 0xbd08c179bd673426U,
  0x3d1d2568bbdfe4d0U, 0x3c16ade8bbb6d240U, 0xbd52e79a3d9e1ac8U, 0x3d2d62343babdb80U,
  0xbcdf86a43baa9170U, 0x3a8f0b00bb036de0U, 0xbc89d434bd4b5ef6U, 0x3d9ce312bd8dc818U,
  0xbc2243103d5ef7e0U, 0x3d8670bcbd399429U, 0xbd2817e73c5bd718U, 0x3c9c4d20baf42cc0U,
  0xbd75fe12bceb71dcU, 0x3d40d3ccbd9c2daaU, 0x3b861660bd7f97c4U, 0x3c82d0f43d68bae4U,
  0xbd1328403cedeb7cU, 0xbd16e9b33d82dc9cU, 0x3d872180bbb467a0U, 0x3d3c6c30bd5787b4U,
  0x3d43e0c03d7e9758U, 0xbc483e803c867544U, 0xbbded460bd8cdf9aU, 0xbc4c63a83d735c14U,
  0xbc141ee83d9841b2U, 0x3c33fd503d9c48e8U, 0xbd5da86c3d900788U, 0xbd88b8003d59ff28U,
  0xbd929e113d0846feU, 0x3d96c8c03d1c899eU, 0xbd425df6bc3f5260U, 0xbd0bc3473c34dae8U,
  0xbb7d5c20bcdb51c8U, 0xbbe314e0bcecebc6U, 0x3d1f6586bc9b4294U, 0xbd04f13fbd770622U,
  0xb97cd2003d32ef14U, 0xbd7800f4bd010890U, 0xbd85d5debd5a13ccU, 0xbccee8b0bd1f0c94U,
  0x3d9c01c23d90941aU, 0x3d85cd9e3bc25ea0U, 0xbc946f84bd5a882dU, 0x3bdbd0a03ba39ca0U,
  0xbabfcc40bd769834U, 0xbd5371293c498a08U, 0x3ce81e3c3d452ec0U, 0x3c080c98bcda4cfaU,
  0x3d3e61acbcd98470U, 0x3d9a31c0bc4b0140U, 0xbcd43c063d8c1096U, 0x3c890b04bd8baefdU,
  0x3da42b58bacf5700U, 0x3da05bb43d270000U, 0x3cdd52943d7ba318U, 0x3b373c60bd86f6b2U,
  0x3bbaec70bd165ed4U, 0x3d028b683d8f4c2eU, 0x3cecafa83ca4a104U, 0xbd37a88abd20ea5fU,
  0x3ae369803d0a1d34U, 0x3c886be0bd3b0817U, 0x3d8ecc8a3ca6acc4U, 0x3d7ed4d4bc6715d8U,
  0xbc5037803c5bffd8U, 0xbce34f92bc72a6a0U, 0xbcf126163cf711bcU, 0x3b2b6a20bd490bf0U,
  0x3d8f04e23c53d5c0U, 0x3d2ac502bd925aa6U, 0x3d39a410bd772f8cU, 0x3d822c9c3cc6cf04U,
  0x3d881c4ebb994880U, 0x3d18ee76bc949874U, 0x3d1bc4363cad71ecU, 0xbd660defbccebb2cU,
  0xbcadb9d63c0f7d90U, 0x3d9ed1d63d4f896cU, 0xbd1c7f97bbc6d330U, 0x3d199260bc61ca38U,
  0xbd315cc53d9c331cU, 0xbd1916483c772358U, 0x3b7741003cd04bf8U, 0xbcb8617a3d8e3762U,
  0x3d63d8843d3bc6b8U, 0x3bb222103bbf3b50U, 0xbd857a7ebb9bf690U, 0x3c8462d83cc583c0U,
  0xbd0b6dedbd37c092U, 0x3c6f06983d1fe498U, 0xbcdadedc3ca58668U, 0x3ce03fb43c300b78U,
  0x3d0d008a3cf17bdcU, 0xbc9d48fe3a8b8e80U, 0xbc4d0680bb2b32e0U, 0xbc040d583d8700b6U,
  0xbccaaf38bd4dad4aU, 0x3d5be520bd9a9f59U, 0xbc98922e3c8c1c58U, 0x3d8e2edc3d419318U,
  0xbbf344d0bc9ccf68U, 0x3bc535903cef2d2cU, 0x3d0cd0a8bb996210U, 0xbcc8f3bebcaa701eU,
  0xbd7cea5cbda12c45U, 0x3c4b96283d940590U, 0x3d848332bd6b7b7cU, 0xbce9c9623d8989e0U,
  0xbcd8dbd6bd8290b9U, 0x3d44f2b43d27d4c2U, 0x3d98335e3d4c7af8U, 0xbd1524523c81b670U,
  0xbd76a5a03d8fc5a8U, 0x3cf89e7cbd279eb7U, 0x3d644d88bbdecad0U, 0xbd8f43f9bd43ed22U,
  0xbd055c2a3d664810U, 0xbcf5f2c63d6af2e8U, 0x3d4f2b54bd96398aU, 0xbd6a00043cb0ed7cU,
  0xbd1c4ddabd666754U, 0xbccae4fcbd1c33f0U, 0x3d5341683c95b794U, 0xbb4e7ec0bd71324cU,
  0x3c894cc83d2f0bc0U, 0xbd15ec89bd8580ccU, 0x3d6f31b43c858edcU, 0xbd0a6519bcc51270U,
  0x3c586b60bd8535e2U, 0xbc1563983d570b94U, 0xbda2e9493d9868a6U, 0xbd3616083d965dfaU,
  0xbb62d240bd72bf92U, 0x3d57a4843d8edd00U, 0x3cfe125c3c514fa0U, 0x3da41de43c478e90U,
  0xbc6bf628bd313c21U, 0x3d83adc43d1a5eeaU, 0xbd41f2183d48334cU, 0xbd1f37ca3d9d1520U,
  0x3cd492143d946972U, 0x3d8fae463d925c2eU, 0xbb8463203d210c58U, 0x3da3cdbe3b91d0b0U,
  0x3c2692c83c1d2790U, 0x3d9e5f36bccdf880U, 0x3d3305363d43c1b4U, 0x3c8769383d81263aU,
  0x3d8eb1aa3d08c3e6U, 0xbce4ed80bcf4f3a0U, 0x3d014924bcdbd97cU, 0x3ce287283cd2e704U,
  0x3d712fbcbcb811a4U, 0x3d81610c3d31544eU, 0xbc77a7383da484d6U, 0xbb46aea0bd862b45U,
  0x3ccc9060bd37e64eU, 0xbccdec88bd4fbc52U, 0xbb1824a03d181028U, 0xbd3845763cde54e4U,
  0xbd0bf69e3d359474U, 0xbd0130763d521500U, 0xbd31c910bda542efU, 0xbd9be23a3c2581c0U,
  0xbd1f05053d20a862U, 0x3d8be51abd3d55faU, 0xbca98b0a3d952be2U, 0xbce75f52bbdc5ec0U,
  0x3c9bdda43ce17d38U, 0x3cd28bdc3cb32080U, 0xbd403c09bd42e1f1U, 0x3d37ece0bcd53460U,
  0xbcb37df4bd489161U, 0xbd6b5e8fbd7d4516U, 0x3bf6c660bd895244U, 0xbd024c2bbb6d1d20U,
  0x3d267c963be81710U, 0x3d19b8fc3d1c48dcU, 0xbd501e873c8f2640U, 0x3b1608403cb86404U,
  0xbd2825583c1a9240U, 0xbda55ed6bd5cf1feU, 0xbd98bfa5bb4ef700U, 0xbd0c0df63d5632ecU,
  0x3d7d84acbb165780U, 0x3cf2b0f83b99bfa0U, 0xbd021aabbd89dfacU, 0xbd616a0ebbe7a160U,
  0xbd28154cbd9d38ebU, 0xbd0941163ac9fe00U, 0x3cb71ac8bd904036U, 0x3d3732243d8f36e8U,
  0xbc11a2f83c8b3384U, 0xbd0c5b073c504660U, 0x3d988a3abbcf6f80U, 0xbd2d96013c827898U,
  0xbc802f783c80a14cU, 0xbd91c0acbcad11ceU, 0xbd57deef3b55b9c0U, 0xbcb53386bc29aa68U,
  0x3cf14e50bd905ab0U, 0x3c7df0703d85ea86U, 0x3d75d314bd5295e8U, 0xbcc181e6bd5d5350U,
  0xbca88f0cbd7c7d3dU, 0xbc9ac002bd20952eU, 0x3d1cad743d1ac32aU, 0x3cd790b4bd3b3357U,
  0xbd9eaca23d7c5258U, 0xbcb891b2bd5871caU, 0xbd20b3fcbd7d1a58U, 0xbd5f92723a07e680U,
  0xbd6395193da0d242U, 0x3d9186a4bd5e904aU, 0xbd96033ebcd08e9eU, 0x3d9fc230bd623030U,
  0x3c768e88bd32ec3aU, 0xbceedeb63c81fc94U, 0xbd0c51053d93f86eU, 0xbd0ae2493d0710f4U,
  0x3d22c09c3c03c108U, 0x3d4b831cbd33797cU, 0x3d31950a3cce68d4U, 0xbcca707c3d5f5a28U,
  0xbd99766fbcc354fcU, 0xbcada684bc1b0f10U, 0xbd39dc22bd01d098U, 0x3d0a86823d4cefb0U,
  0xbd651e1cbd60832aU, 0xbd5542773d7c6ea4U, 0x3ca03a78bd2fddf8U, 0x3cf0e9bc3d047e58U,
  0x3d60f7703d9b727cU, 0x3d9de8263bc25c30U, 0x3d1f159cbd1d72b6U, 0xbd9f6c233d3f2ac8U,
  0xbd53c6453d6af74cU, 0x3ca0da10bd7f327cU, 0xba81a6803d9cfc8aU, 0xbc821164bd0d3330U,
  0x3bb11e103d329c9eU, 0xbd84b3ce3cbeec8cU, 0xbb5060a03d40b55cU, 0x3cc5230c3d02166cU,
  0x3cc967c4bd72e26fU, 0xbcc0dd8a3d93a260U, 0xbd395b733d5fd84cU, 0x3d3274223d98a2d0U,
  0xbd299066bd64b4b0U, 0x3d8c9040bc5a6718U, 0xbd05f6cdbce223b8U, 0xbcf52196bcd73cc8U,
  0xbcb805eabd024000U, 0x3d8440043d6d35d8U, 0xbce133eebd87c1c7U, 0xbd81fd643cbbffb8U,
  0xbd28b666bd24a072U, 0xbd55495cbcd88942U, 0x3cbd51a83d090016U, 0xbd0a48cdbc492ba0U,
  0x3ccbd9d4bbe68330U, 0xbd9650423c88b990U, 0x3d29eaf8bd802249U, 0x3d09a8ea3d69cc48U,
  0xbd08c7023ccc67c8U, 0x3b8bcff0bd5f66f4U, 0x3ceac910bbd1c850U, 0xbd99e4623c4f7948U,
  0x3d8e3872bca52f80U, 0x3d62ab78bd0e4238U, 0xbd1f0e60bc0b2f90U, 0x3c5155883c290f98U,
  0x3d6754c43d05b542U, 0xbd8d453e3d953960U, 0xbcbd2bda3b92cc70U, 0xbd6c268dbd2a6158U,
  0x3d1f994ebcea643eU, 0x3cfdbc0cbda4f7caU, 0xbd62dde2bcf7560cU, 0x3d776fcc3b7adb40U,
  0x3d2f328abd6e3db4U, 0xbd5fe5dcbd983f96U, 0xbd356422bd728ddeU, 0xbce89826bd821b8aU,
  0xbd789cd83d4dc2bcU, 0xbd9b5d1a3b3da240U, 0x3d6dad143d800242U, 0xbd4a2dca3d5b0c70U,
  0x3d4aace0bcaf18b4U, 0x3bf37c50bd2c29d1U, 0xbda2f0b63d9857b8U, 0x3d9f5028bc11f7a0U,
  0x3bcff6d0bcda9f9aU, 0x3cde3c3c3d909eb6U, 0xbd47a335bca020d8U, 0x3c93b5a4bbb144d0U,
  0x3c13a9f0bd441b18U, 0xbccbb968bc7d88b8U, 0x3cb089283a85e1c0U, 0xba8227c0bd8d75e7U,
  0x3d9e8fb8bd9fbac5U, 0x3ca7b7ccbd06aa4cU, 0xbca9bfd6bc6be668U, 0x3d59dc2cbd9ba6b4U,
  0xbc6fbbc8bd1653e0U, 0xbd01d44bbcd3b662U, 0xba1f45003d92bf12U, 0x3d894154bd9fa965U,
  0x3c1c63e83d56bae8U, 0x3ce8e4b8bc9c614cU, 0x3cd079e0bd3d863eU, 0xbd574e673d0d8fd6U,
  0x3cd942503d649b28U, 0xbcfb72da3c8a85bcU, 0x3c780a90bd140f97U, 0xbcf2483e3d81d90eU,
  0xbd61cf99bd280926U, 0xbd396f943c4b6be0U, 0xbc85a154bd9a9e35U, 0xbcff5f283c921a08U,
  0x3d2d435c3bfe9b00U, 0x3cb7d01c3c19a6a8U, 0x3d91beb63d9c25aeU, 0xbcecf9d63ccae124U,
  0x3cc0d89cbd0d1067U, 0x3d527c78bd8d8f2bU, 0xbcd7045abd3bebabU, 0xbd9606fbbcdf8dd6U,
  0x3d59bb70bd4ab143U, 0x3d9cbf4ebb014fe0U, 0x3ce07c403afc8840U, 0x3d9d5c403cdaa47cU,
  0x3c5700783c05c480U, 0xbd289d803d5c567cU, 0xbd58e04ebb6c3e60U, 0xbd9a47643bdb0250U,
  0x3d4bb28cbd8ced41U, 0xbda33385bd3c2d7fU, 0xbd896b44bd72a732U, 0xbba7da303d6fd748U,
  0x3b803d003d9362d2U, 0x3d58f14cbd9c3e97U, 0xbc8473f0bda39646U, 0x3cd5d0f8bcb18336U,
