/**
  ******************************************************************************
  * @file    cooler_nn_data_params.c
  * @author  AST Embedded Analytics Research Platform
  * @date    Fri Aug 18 10:23:35 2023
  * @brief   AI Tool Automatic Code Generator for Embedded NN computing
  ******************************************************************************
  * Copyright (c) 2023 STMicroelectronics.
  * All rights reserved.
  *
  * This software is licensed under terms that can be found in the LICENSE file
  * in the root directory of this software component.
  * If no LICENSE file comes with this software, it is provided AS-IS.
  ******************************************************************************
  */

#include "cooler_nn_data_params.h"


/**  Activations Section  ****************************************************/
ai_handle g_cooler_nn_activations_table[1 + 2] = {
  AI_HANDLE_PTR(AI_MAGIC_MARKER),
  AI_HANDLE_PTR(NULL),
  AI_HANDLE_PTR(AI_MAGIC_MARKER),
};




/**  Weights Section  ********************************************************/
AI_ALIGNED(32)
const ai_u64 s_cooler_nn_weights_array_u64[9676] = {
  0xbc8a0d443cc47a84U, 0x0U, 0x0U, 0xbbae0c7500000000U,
  0xbcf613573cc65c9fU, 0xbbe11247bc54280dU, 0x3ced3b86bcad1007U, 0x3c717dda00000000U,
  0x3b927a4c00000000U, 0x3d0be4a300000000U, 0x0U, 0x3cf500a700000000U,
  0xbbc41613U, 0xbd08f1b5bc0d2b4dU, 0xbcd2fc1eU, 0xbcbe6cd300000000U,
  0x3d2f8ba7U, 0x3d1f28553d10078cU, 0xbcfe864b00000000U, 0x0U,
  0xbd049aacU, 0xbce3455cU, 0xbce12093bd00a175U, 0x3d2257c5bc390aaeU,
  0x0U, 0xbea166c5bcc03f6fU, 0xbe2c02c7bea71d46U, 0xbbac0d40bdc8b084U,
  0xbe57d4b5be3134a3U, 0xbcd280fa3dddb8eeU, 0x3d8d4d0fbdaa0bd9U, 0x3e69644abe936e04U,
  0x3d8b7d6bbd8a0f78U, 0x3e18024b3d0b7290U, 0x3ce2b41dbea02ed0U, 0x3e9adb24be0a3c35U,
  0xbe5617c33ea95554U, 0xbe9057c23e845f79U, 0xbe7b359d3dfc0944U, 0xbd064370be70a465U,
  0xbe9e86273e93ed38U, 0xbe22b3133e8e1478U, 0xbd0f916dbe07b6c4U, 0x3cd6feb43e950a8eU,
  0x3dff6a80bc795aa0U, 0xbe462d49be1896f9U, 0x3d5209483e952e5cU, 0xbbbf2954bd9c4fecU,
  0x3dd8861abdc43961U, 0x3e8fa6883dc3fd48U, 0xbe0b3d40be068566U, 0xbe8289e63e0d4e00U,
  0xbe32ee09bd942aa0U, 0xbe6a033c3ac11900U, 0x3e395734be0760b0U, 0x3d43ddc03db84289U,
  0xbd3e426c3e877f6fU, 0xbeabd374be788e76U, 0xbe9c4d64be821b47U, 0xbc1d39d2be9ebba8U,
  0xbd93b3c8bda6a970U, 0xbe88411dbe8e859eU, 0x3ea9e99c3e8a0113U, 0x3e833c673e5010ebU,
  0x3e13b038be338653U, 0x3e847787bddb372cU, 0x3e0478a63e49ae00U, 0xbd94ebf4be2d68e0U,
  0x3e4a137b3e887284U, 0xbe35f541be819b45U, 0x3e8586b43cbc5b6cU, 0xbc9e6ac03eab7236U,
  0x3e96c0bc3e203ec5U, 0xbde3e416bddec013U, 0x3d1aeb883e134092U, 0xbcea7b3c3cea7b3dU,
  0x3c4fe0933d72f402U, 0xbd570cc8bd42c304U, 0xbca97db9bdca0f85U, 0x3e07635abd06c714U,
  0xbd8be6d4bd08b3e2U, 0xbd7f07d53d971e6eU, 0x3dfd7a02bd84cea6U, 0xbce8b92e3dde37a0U,
  0xbd5075ec3de7af31U, 0x3ddc9985bdd29e45U, 0x3dc1d066bd307104U, 0x3dc232d03db4c90aU,
  0x3d2ef01e3dd8ae76U, 0x3dccab5f3ce45aabU, 0x3ddfc40b3dd74feeU, 0x3dbeb4133d91bc70U,
  0x3dede73f3dd83c6aU, 0x3ded0aeabdc19138U, 0xbcfb4816bd2b3588U, 0x3c9a48953dcf30e9U,
  0xbda4f8bf3d1ee29aU, 0xbcac15b33d2d4ab7U, 0xba33cc123e0a6b6eU, 0x3ddd2a093d9c29c9U,
  0xbb9ab7f3bdc58b25U, 0xbc9aba6fbd336ed0U, 0xbd81c4f43d425426U, 0xbc7283e03d93faffU,
  0xbda6d4b23c0ea217U, 0x3d187117bd80dfa6U, 0xbd92a115bd4b3229U, 0xba74b677bd13cd84U,
  0xbc320815bc8f3d2aU, 0x3d5512443d865ab2U, 0x3da9e5a13e008920U, 0xbc9161f13e0b8c03U,
  0xbdbcfe683de0895dU, 0x3d71db863d50657cU, 0x3cf90978bc321a7cU, 0xbdc530bebda0c53dU,
  0x3d5469763db13facU, 0x3bf65c9dbc538780U, 0x3d6f2f7dbdbb9ef8U, 0x3d271c2f3e0cb610U,
  0x3d28357dbd9fbbd1U, 0x3d7f63f73db0177cU, 0xbd19541ebc8b002eU, 0xb8a9c86ebd40c648U,
  0xbcceac343d425388U, 0x3c319f40be109688U, 0xbd3bf5783d28b909U, 0xb8da5fdcbd893163U,
  0xbd9e696e3d36a502U, 0xbdbd81443c5334e7U, 0x3d8fb4663c7b659dU, 0x3dd34eb53d1c5e04U,
  0x3da868d1bd12e4e2U, 0xbd70b8c83d9fee5aU, 0xbd77f4e23ded0760U, 0x3cbda889bcb39605U,
  0xbd651e813d4fab65U, 0xbdabdd1ebd81de10U, 0x3c518b663d16733dU, 0xbdef58f7bdfc6eebU,
  0xbc7250b73d9b8ff3U, 0x3db9111e3d57e554U, 0x3d25cad5bcc6d533U, 0xbd54c556bd502fbdU,
  0xbbebb7fd3ca66f92U, 0xbda309ec3d869abeU, 0xbd0036c9bc50d5a6U, 0xbd18c6433e0c8fdbU,
  0xbc02d4213dfc3f3aU, 0xbd9dc4e03d841c30U, 0xbaae92b73d0c633aU, 0x3cc746fabdebfd08U,
  0xbdcbe0eebde8943aU, 0xbd8896e53caaf64bU, 0x3d55f85b3d1399d0U, 0xbdbea3783d996f29U,
  0xbb6e1ba53d5e6287U, 0x3d24ea283d7ffc74U, 0x3cd13eaf3d85d2fbU, 0xbd18ce6f3d2896bbU,
  0x3d8f1d463dd2d33eU, 0x3dcc7d3ebd5b06edU, 0xbcb9029cbda666ffU, 0xbd50d5c53d925b40U,
  0x3cd8b685bdc704b7U, 0xbc2ff7bd3d873f79U, 0xbd378a0f3d3723bdU, 0x3dc46b5bbc953a9cU,
  0x3df9f0e83e01df6bU, 0x3d7a710e3e0f1180U, 0xbcf7b1a1bd3d18e2U, 0x3ca1f96fbd846110U,
  0x3dd5968ebd9f568fU, 0x3dbdce703d8be895U, 0xbd1064dc3d9965e7U, 0xbcef04ba3dba1251U,
  0xbc86215ebb3b6faaU, 0xbdc16bfd3dbf0805U, 0xbd94e9b33ca23e09U, 0x3d9dcf22bc954052U,
  0x3e083d133c0a3b52U, 0xbd8bbea1bdcac0a4U, 0x3da49b693dd0a9fcU, 0x3e01edb23de3bd4bU,
  0x3ddefef23cfdf394U, 0xbd7176d63d11713fU, 0x3d1082f63dec38beU, 0x3e023aa23d8aedb4U,
  0xbda198ae3e0663efU, 0xbdbc6d023d897912U, 0x3d148f8b3da0f191U, 0x3df45d2abcccf843U,
  0x3d2f6c13bd63c489U, 0x3d5a24683dcf9d68U, 0x3e00c8d03dfddbe3U, 0xbdb874a93c6cffd0U,
  0x3e0928453c7cef09U, 0xbc63220d3dc90016U, 0x3dc9f9a7bd8e5614U, 0x3d02513e3d0e76f0U,
  0x3d8fba18bd716522U, 0xba01fce8bdbf8fe1U, 0xbdc3037fbdbd16e2U, 0x3cd685e53db2954fU,
  0x3cd0ab8c3e023cbaU, 0x3cd05c2fbc86aa3aU, 0x3d2188693d88d1e6U, 0xbc2e4c0a3cc9fea3U,
  0x3e08e636bcd50863U, 0x3d9a2057bcca499bU, 0x3dbbf2953d02940aU, 0x3d476ea73df2d506U,
  0xbda513263c40afffU, 0xbd8ec78ebd7d1dd2U, 0x3c015f043dfacaafU, 0x3d888134bdd57977U,
  0xbd1beff03d83f35dU, 0x3deb63a33d82265eU, 0x3a0191debcb21fb3U, 0xbd8bb085bd56e51dU,
  0xbdcd04d53c87de69U, 0x3d04ae283d39e813U, 0x3cfabc82bceac97eU, 0x3da42ed4bd714f0dU,
  0xbcff59103d756966U, 0x3d59042d3d9830daU, 0xbd2eea933e033d99U, 0xbd9052493dd63541U,
  0x3a4e89fc3d8d6cabU, 0xbe05a28d3d7aca33U, 0x3c8f8c99be02f89aU, 0xbc6ad13b3dc0feddU,
  0xbde47bb6bd2872a8U, 0xbda990973da1c587U, 0xbdad1db73d0cbcbbU, 0x3dbc8cb4bc9a01f4U,
  0x3c9d6f633dca6352U, 0xbcaeebb2bd79ae8aU, 0xbd001df13df435e3U, 0x3dd3763abd77aef2U,
  0xbd48f0e2bda9614bU, 0x3d838abcbddfd3afU, 0x3c4e543b3d86b329U, 0x3cb353b2bc74f452U,
  0x3d7916213b923d62U, 0x3ad86e133d86ef35U, 0xbbd1d9debd4a4280U, 0x3dfd2b31baa9532aU,
  0xbd55b3163ddd2b1eU, 0xbd8bf3313cbc47a7U, 0x3d6e20c43d6ecbd7U, 0x3d9b7d80bdd97e47U,
  0x3da58e5c3d72e74cU, 0xbe00ea0a3ccf579eU, 0x3dd61a8d3d27cec0U, 0xbb10266ebd2f218dU,
  0xbcbd43293dc3b362U, 0xbcbe59783d63f4beU, 0x3d8ccfbbbd365790U, 0xbdbc68493cee07c3U,
  0x3cdebcdc3d46ec52U, 0x3cdc701e3c445580U, 0xbd251741bc3e8737U, 0xbcbd1a8abd91d0b2U,
  0x3df96495bdb71124U, 0xbc58e3de3d3daad7U, 0x3d947214bdaed9f5U, 0x3cd641aebd0fde1bU,
  0x3d8588fc3d615fffU, 0xbc867f7ebc53c4afU, 0xbd8f8c85bbfc82e4U, 0x3d7318103ce9dc60U,
  0x3d74af54bde7f464U, 0x3cca82053d10ef02U, 0xbbe784ed3d4ec1c9U, 0xbde173ebbdfc84f1U,
  0x3d68c0dc3da4becdU, 0xbca78106bd125d1aU, 0x3d9662f2bd188924U, 0x3cd58a9abcc3e213U,
  0x3ceb18b63dcafaa9U, 0xbda00f39bdcd6cd7U, 0xbc936010bd2f64adU, 0xbc6919b53d67dee5U,
  0xbcea8dc2bb3777efU, 0xbd6d672dbcf2eedcU, 0xbc7b1e9ebdeb045eU, 0x3db94f833dc257e6U,
  0x3c67b08f3c8b0a70U, 0xbd92658ebdfb5868U, 0xbe079705bc85d4b6U, 0xbdeb96f93c687d3cU,
  0x3c7f2b0fbda1fe2eU, 0x3dbb13033dc52c6dU, 0x3d5c3fb7bc9fadc4U, 0x3d4233c9bd9c8054U,
  0x3cb066453d7eb50cU, 0x3dc044fd3d04d1a4U, 0xbdb8ee2fbdd402d5U, 0x3cf42058bdc24636U,
  0x3c153647be0464afU, 0xbc74ccd4bd072c96U, 0xbd852f653d82c0d3U, 0xbd19feb7bd1af439U,
  0xbd72aad6bcdf5c84U, 0x3d9193f63e0c7ff1U, 0xbd5a42853d2c5f9aU, 0xbdfdca0bbd9db43fU,
  0x3d4b4c00bcb70068U, 0xbe039457bdd4b86bU, 0xbdeaecaa3d21a18bU, 0xba92c1c33d7c866cU,
  0xbdfd30e4be01c396U, 0xbd4f89083d486337U, 0x3c2d3070bd9842d1U, 0x3d092a34bd5471d2U,
  0x3ce07d9abd720dd3U, 0x3d9758a33dcf29b4U, 0x3c5317fbbda63e77U, 0xbd2de8ac3d97b2f4U,
  0xbd92f531bd8219eeU, 0x3d887ecdbdcd0c99U, 0xbd0aa178bd8ccf80U, 0x3ba96efc3d8f3167U,
  0xbdec03b53c7e3b02U, 0x3c3a04eabded725dU, 0x3dafc013bcbec765U, 0xbda8ffadbdd4854eU,
  0xbe078b96be0659aeU, 0x3ddbbbf03d44b714U, 0xbd65a42fbd74e72bU, 0x3d051d313d3f1527U,
  0xbd54e67f3d4b4cd5U, 0xbdca6b8d3c38dffaU, 0x3db5fd243d809039U, 0x3da0eef5bd6135a4U,
  0xbd96eff0bce62e0eU, 0x3d9b9c48be007be7U, 0x3cdcf0a6bdc1d0a5U, 0xbd886abebdd0b751U,
  0x3db984edbde6faedU, 0xbd3e6607bdc8dee6U, 0xbc2668a8bcf486bbU, 0x3db1cabdbda5f50aU,
  0xbd08627b3d894827U, 0x3de7c10d3c64e579U, 0x3bbab81b3dbff0cdU, 0xbda0f7e1bc965c69U,
  0xbd2a9ed3bd2b4dccU, 0xbcc4c907bd69f3b4U, 0x3db21ac63d9143ddU, 0xbdcbcfacbd5e212fU,
  0x3c9fc17fbc8d9758U, 0xbe03d7bfbce31c6bU, 0xbdd9e65dbd08f3e9U, 0x3d88a3d3bb535be4U,
  0x3ddef3f1bcbeda0dU, 0xbcef7a46bd556919U, 0xbdca75e1bd634d62U, 0x3d75299fbdb316aaU,
  0xbd868c67bd174edeU, 0xbcdb041ebb85610dU, 0x3d6083d9bc139565U, 0x3d3eb60abd99b1c8U,
  0x3beb0d47bdb02302U, 0xbe05ae82bdf2f1eeU, 0xbdbbcb18bdc3b8d0U, 0x3ab37d01bdd87eceU,
  0x3dfbd592bd8b6b00U, 0x3d93f06a3db3102cU, 0x3daa98433dcdc643U, 0x3d1dbdcbbcc53524U,
  0xbe08bd83bb030e37U, 0xbdbfc3963ce66fb8U, 0x3d1ff2693d87534aU, 0x3d5fe91d3db62f49U,
  0x3c19df4dbd51d3f9U, 0x3d3045fa3cab8afcU, 0xbce1e3d2bc9d7bf5U, 0x3d20198d3b273619U,
  0x3d7a7c8fbdf7c183U, 0xbc538369bda91e21U, 0xbdc25827bd06215dU, 0x3d6e6f96bdd95417U,
  0xbc7a0a70bcdc9571U, 0x3cf86e34bd887dc6U, 0xbd580eaa3d597b8eU, 0xbdc4a329bcc8bb95U,
  0x3d9a8f45bc3a9d34U, 0x3d947561bcace85dU, 0x3b62679ebd7b3aa0U, 0x3cc51a98bdd22ff8U,
  0xbd30abb53d81171aU, 0x3db7f6333afd65d4U, 0xbcff49023d925177U, 0xbdf43094bcac76faU,
  0xbcef1e3fbd5e2e8dU, 0x3d934c78bd728297U, 0xbd2eb1423d189ed6U, 0xbd827d51bdfa96f4U,
  0x3d1946353c31893cU, 0xbd3e8ef83d473659U, 0xbdd3eca1bdbd547cU, 0x3d35a904bd91dd92U,
  0xbce88427bcb808dcU, 0xbd00925f3db9ec20U, 0x3b2dc966bda98101U, 0xbd2a6f6abafc5252U,
  0xbde8e94f3d5e12f2U, 0x3d976f363d88b72eU, 0x3da1d5b3bdb86423U, 0x3dd1cd2abdeb40c9U,
  0xbd09d628bd1b2ed0U, 0x3d958009bd8bb028U, 0x3d282a9bbd2322b2U, 0x3d3c2bb7bd8d3090U,
  0xbd95dbefbde05170U, 0xbdd6cb6abd459a99U, 0xbda6253d3d4d7c48U, 0x3db9f036bd3bf89cU,
  0x3dd3fa7b3d385c3cU, 0xbd9e3c92bbb70019U, 0x3d2ff6b1bd9182e9U, 0xbc1f30853db7a27fU,
  0xbda0e4febdf06c4aU, 0xbd00dfafbcdb7d02U, 0x3c0b8aa2bc78ddadU, 0x3db9cfa03d9ccba3U,
  0xbde18890bd2112bcU, 0x3db9e0ce3d0deedeU, 0x3dab3966bb2866deU, 0x3c6e1223bdf1316aU,
  0x3df5937fbcec6384U, 0xbd850f713d9fb9a4U, 0x3db64005bda75811U, 0xbd11f55b3d703526U,
  0xbd8a99c83db59954U, 0xbd8d72bebd36cadaU, 0xbd4a14ccbdb2d87aU, 0xbc6d7a0f3cbb883dU,
  0xbd3060a5bdba0df6U, 0xbd4045473d14c90cU, 0x3d9ead36bdc387dcU, 0xbdcba704bdb97f56U,
  0x3c7328223c2fccd6U, 0xbc47ad9abcbffd94U, 0x3ce3a1bebdd0d9cfU, 0x3cac785b3d0c130fU,
  0x3dbbad4dbdb8c721U, 0xbc94ec7ebbac08aeU, 0xbd910fed3d9d23c3U, 0xbda5b0debd90330dU,
  0x3da3a21cbda916efU, 0x3db18522bcc592caU, 0xbc405ad23acb95a7U, 0xbd40a4e3bd65132aU,
  0xbccf21fd3c89da93U, 0x3d95c2fdbd56e2fcU, 0x3da48d63bd0d49cbU, 0x3d9907b7bcedef54U,
  0xbd87fdd03da371ffU, 0xbc92888cbdc015b6U, 0x3d1d9ffa3d670a1aU, 0x3d26d08e3c2f8c18U,
  0x3c65d4c83d76ff2aU, 0x3df08281bd14238cU, 0xbdb07e68bd92bafeU, 0x3d08237ebde3da05U,
  0x3d730d323d2b0606U, 0xbc3815303d91308fU, 0xbbcbddb0bd4cd53eU, 0x3ded1b37b98a8200U,
  0xbdb7bd443da40d83U, 0x3c1f2d183ddba4a5U, 0x3c09f128bc9f4ec8U, 0xbdb75dc73c148288U,
  0x3ddc20e5bd65711cU, 0xbca10c3c3d5d8f92U, 0xbdf02bcebd478bb2U, 0x3d2160fa3bc765a0U,
  0x3d1e2b82bba57a30U, 0xbd4fac62bd5bbba8U, 0x3c98610c3cc65144U, 0x3de0f9c9bdea8554U,
  0xbc8eabb4bd4bb57eU, 0x3d14e6963d845da1U, 0x3da80ac3baa99d80U, 0xbd4e01d43d83cc09U,
  0xbd89e376ba735100U, 0x3d5744ca3dda33cbU, 0x3c6178f83c9fd184U, 0x3d8cf8313cddad64U,
  0xbd99f388bc6a31c8U, 0xbd9ceaf6bd24bf12U, 0xbdb46f2e3d4e8232U, 0x3c694af8bde24690U,
  0xbd358b803d31717eU, 0xbd4872f2bd27c7f2U, 0xbd61a233bd3ad648U, 0x3d7095d2bc4fc028U,
  0xbdbcd734bd0cb4daU, 0x3dc79afb3cab41ccU, 0xbdcbd763bc4f3260U, 0x3dc29ab13da3e631U,
  0xbdabf900bd83cdbdU, 0x3dbee2c5bdcd2f7cU, 0xbdbde1273be35850U, 0x3da1c7333cbaf6fcU,
  0xbc423ca03de37763U, 0x3d1aed22bdc892dbU, 0x3d4957163dbd1f4bU, 0xbc5fe298bd4342b6U,
  0xbd3fcd383c8d16a4U, 0x3d107e6a3d86c5c1U, 0x3a254b80bcc0007cU, 0xbdafcf8e3d836f29U,
  0x3c378b783c16ba98U, 0x3dc19033bb1b5f20U, 0xbc6b5c90bd99b082U, 0x3dd66d9b3dc383bfU,
  0xbd9c6ce63d458586U, 0xbd3a6e043daae38fU, 0xbda25924bbafd300U, 0x3d4f2e66bd9f7203U,
  0xba4cb280bdbde22eU, 0x3d371fae3c9320dcU, 0x3db9d429bd43107aU, 0xbd1585ca3de7f3c1U,
  0xbc0b19b83c284a98U, 0x3d3d39663b8d5fa0U, 0x3b6b91003ddde4bdU, 0x3dc99933bcc547b4U,
  0x3d8404cfbd9a5288U, 0xbcf69c7c3ba665d0U, 0xbd61c5013cf06384U, 0xbda50e8a3d21f9faU,
  0x3dbb4f93bdbf5022U, 0x3d684cae3d1c0072U, 0x3d8ef573bd9120c6U, 0x3cdc6ad4bd3359b4U,
  0x3c61a9a8bc512160U, 0xbd6ae247bdc1a399U, 0xbca4aee03dc7ced5U, 0x3c6f8518bdd72a3fU,
  0x3d26dca2bbba1db0U, 0x3da666f53dd3ad65U, 0xbdaf60cb3d0c0912U, 0xbc91291cbdcd0682U,
  0xbdd960e0bc80c43cU, 0x3d9fa6533d6fde56U, 0x3d9722973db6898bU, 0x3c5ca9e8bde088f7U,
  0xbdce77083d93eb81U, 0xbc6d9e18bd984d11U, 0x3de71f41bd8eafeeU, 0xbcf1ea983bc89f50U,
  0xbd5ff202bdbb1319U, 0x3d4a281abd487d9eU, 0x3aabc2003d97bcbdU, 0x3d2ab98abdaafc8fU,
  0xbdbfe2e33dca7195U, 0xbd90d8f6bbc1f8d0U, 0x3c874094bc89fc74U, 0xbc090a003d768bf6U,
  0x3ded5db73cceff1cU, 0x3de788c53c712e48U, 0xbd87241d3d1132deU, 0xbd827d32bd12c0baU,
  0xbcff82b4bd643f58U, 0xbde840aebd393ea2U, 0x3dedc58fbc94abf0U, 0x3c07f1b8bce42facU,
  0x3d878783bcfdf874U, 0x3db8f5f1bd04467aU, 0x3cf9712cbdbc3323U, 0xbbfab6c03d34cce2U,
  0xbd46b444bb65e620U, 0xbc9abf0cbdc7fd66U, 0xbd739faa3da56bc3U, 0x3cfc26cc3d76f6f6U,
  0xbdb5e1d5bca06564U, 0xbc34f2583dba6cfdU, 0xbde62aaa3de22a57U, 0xbdbe25e13cf87b9cU,
  0xbdb87cca3ca1a6acU, 0xbd9abcae3dd3aa37U, 0x3d9498953c23f088U, 0x3d8ca36b3dc9b153U,
  0xbd7090163dbfb4f5U, 0xbdb33f84bb6d8d60U, 0x3d32bd463d04382aU, 0x3d0e9c223d22a832U,
  0x3dd11f3dbd0c9822U, 0x3d944cefbd2c7d7cU, 0xbd2a6844bdbc6fc3U, 0x3d3a60963d807121U,
  0xbd48621a3de92b57U, 0xbdbd56f4bdaf85c2U, 0xbc7b7e10bd99b549U, 0x3da4514b3d0bde72U,
  0xbd84a4fcbd5ef536U, 0xbbe24080bdb2b66fU, 0xbd4d468ebd9bc3d6U, 0x3dbbc30b3ced85f4U,
  0x3da0c4c3bc82c884U, 0xbdb36b45ba1ee300U, 0xbdee3298bdacdc22U, 0x3d6f77d63be58350U,
  0x3deb21dbbd8db743U, 0x3d6678b2bb61cc60U, 0xbdbf53debd888238U, 0x3da53ab13dccc479U,
  0x3bd01b30bdaf4084U, 0xbdd799103db50be3U, 0xbbf9f9403d049c3aU, 0x3dbbace3bd91bbf6U,
  0x3c5a9e78bc754680U, 0xbd4c89aabd9ea0f8U, 0xbb6101203d6cc2aeU, 0xbcd02c643d98376fU,
  0xbd8490a03d5895f2U, 0xbd620325bcafdc84U, 0xbd020d64bd950060U, 0x3cbd2a6cbce00694U,
  0x3c322a88bdbfd4cbU, 0xbd8e8a0abd7cc4fdU, 0x3c0febd8bda91b22U, 0x3cdaf6dcbc3f2a20U,
  0xbdab65f03d9cb3d5U, 0x3d7efd3abc268e60U, 0xbbd09d70bd91bc86U, 0x3dbe75ffbc136f30U,
  0x3dbd0993bd0cbb52U, 0x3cd285ecbde8b2bbU, 0xbde12c843d413792U, 0x3cb0f5c4ba8b7f40U,
  0x3d8c53e13c0a9568U, 0x3afb2b00bd496edcU, 0x3ceac81c3dc5eeefU, 0x3d7fa1eabde8479eU,
  0x3ddf6879bcd34c58U, 0x3d8adfef3d394a92U, 0xbd264a5ebdb7e1bbU, 0x3d9a0a8b3d906895U,
  0xbcf774303dacffe9U, 0x3c7209783de3ac01U, 0x3d82bed3bd6ae4d5U, 0xbd6e95c2bd9bba40U,
  0x3d698d62bd712707U, 0xbd3443fcbdb63186U, 0xbdaade0c3d340d82U, 0x3c806eec3b455180U,
  0xbdce3d1bbcea1338U, 0x3d55b9eebd7408cfU, 0xbd86c6dcbd8deaffU, 0xbc4bc358bd998aeeU,
  0x3d560c06bc8654d4U, 0x3d8f6cd5bce91fc4U, 0x3d1f9fe2bd60f8c4U, 0x3dd79ec5bcbef768U,
  0xbd79b1db3dc3dac5U, 0x3d70de1a3ba63bb0U, 0x3dceaad73d8d6f65U, 0xbd0bd25ebcf1e17cU,
  0xbdbdca2a3ddfcec3U, 0x3d4c0afabd0778beU, 0x3ddad5bf3d82e84fU, 0xbbbd7a603b3f9960U,
  0xbdecc7cabce87dd0U, 0xbbb6f7d03ddb8457U, 0xbb4cc520bdc5759cU, 0xbd59b5c03dc36fe9U,
  0x3d2efef23d9c181dU, 0x3d56b27e3db17defU, 0xbd3a1d08bd69f58fU, 0xbcf35354bdae2385U,
  0x3da8fe8bbdc85caaU, 0x3d6bc516bcb0e2e4U, 0xbdd61f26bd5fd570U, 0x3d0eaee2bd2a0a8eU,
  0x3d9f7761bdcbab4fU, 0xbd7946e3bdd9972bU, 0xbd0f85963d6bb83eU, 0xbc3db6f03dcfdd03U,
  0xbdbe0a4a3dd77e39U, 0xbd300e663c9a244cU, 0x3d8972a13d82e4d9U, 0x3b3497c03d7def96U,
  0xbcebeb4cbdaaa90cU, 0xbdc34e96bd9074f2U, 0xbd158a7ebd25119cU, 0x3d9ca28f3ce1326cU,
  0x3d2b9a2ebd87d16dU, 0x3aff22003cb61d04U, 0xbdce0c75bd0c26feU, 0x3d0d2f6ebdcf08d4U,
  0xbd7aa9eb3ce067a4U, 0x3dd3ae11bd89ed70U, 0xbd661348bb504420U, 0xbc9fd0c4bdb2d28dU,
  0x3d0f1872bdb887e6U, 0x3d2821d63dcb0b9bU, 0xbbf9e100bd44aa02U, 0xbdb4163fbcdf44f0U,
  0x3c7802383d94ffebU, 0x3d8fa639bd316f9cU, 0xbc2660803d5e82deU, 0x3dcb3dd33d63a176U,
  0xbd9da50bbda7af14U, 0x3dee9b99bd114e16U, 0xbbe33a703d7d2e86U, 0xbd4d7480bd902bb9U,
  0xbd9b853a3de31fb7U, 0x3db446b3bd14f674U, 0x3dc6a1abbdc7d718U, 0x3a2a34003c84417cU,
  0xbdc4fbb5bdb8f1c0U, 0x3c31b328bc7a0be8U, 0xbd692fe93d04c516U, 0xbddef482bd8d6d8aU,
  0xbd6d4ef33c9ec0bcU, 0xbd07ae2e3dec156fU, 0x3d8e73b93d16ed22U, 0xbd6f9a493d1789ceU,
  0x3dcf3cebbc2848d0U, 0xbaeb20003d4bd0aeU, 0xbd30d760bb1e1e40U, 0x3cc245143c962d8cU,
  0x3ddd38293d97a541U, 0xbde013e6bdc69834U, 0xbd1b3c72bdc36b16U, 0xbd1c0da6bd6b29d3U,
  0xbdeaf45bbda4db36U, 0x3da9f2d1bd875b91U, 0xbdae8a023dab7639U, 0xbdc2d8cebc0fcbf8U,
  0xbd3b959cbdea6d1cU, 0x3cd2c7d43d8661c1U, 0x3da7e7353dc10dafU, 0xbdc9d03f3db85167U,
  0x3cf395943d877419U, 0xbc00b8c83b130620U, 0x3dd259f5bc3cf800U, 0x3c2252083d2cd406U,
  0x3daf61e5bd3c590eU, 0xbdb67b4e3dd74e9bU, 0xbdbc57de3d07c566U, 0xbdec7ea4bd812a52U,
  0x3d944e873db5313fU, 0x3ccb73fc3d23553eU, 0x3c0f2468bda4a364U, 0x3c9d94fc3d121776U,
  0xbb22e9e0bd457c90U, 0x3b9c8b80bde8a908U, 0xbd7d492d3da26981U, 0x3d4f0d463dc835afU,
  0xbd2c1630bdc71900U, 0x3d8c6b0fbdd2b420U, 0x3dc59a7fbddf064eU, 0x381538003da241c9U,
  0x3d028002bd8df3e0U, 0xbca9b67cbd02f170U, 0xbdcd48fc3d328efaU, 0xbc3e33903d31cf62U,
  0xbd159d28bad7c400U, 0xbcc253703cbcd304U, 0xbd0707743bfeeed0U, 0x3ca8f96c3c78b418U,
  0xbde9d3453d0cd962U, 0xbd893bd6bdc9a1f3U, 0x3ba74260bcbc6d04U, 0x3c210168bda83c92U,
  0x3d2d061e3d6c64e2U, 0xbc18dc60bb3d7ee0U, 0xbc0ce6d8bcd53fd4U, 0x3d1730aabdbd79c9U,
  0xbda908a4bccae41cU, 0xbd923cabbd94c865U, 0x3d50b44abd942db0U, 0xbddae285bd9c987aU,
  0xbdeebabdbdada5f2U, 0xbba06d403d4be1a6U, 0x3daf93b1bdc91b83U, 0xbd2ce7e43d1a4edeU,
  0x3dd9ddab3d81b10dU, 0x3c99100c3cbe250cU, 0xbde3794c3dc83b7bU, 0xbdb794d93d426b9aU,
  0xbd41cf74bd2ff0a0U, 0xbdd16a5cbdb376d6U, 0x3d3c750a3d818687U, 0xbdb336463d496dbeU,
  0x3d3412d63d2deed6U, 0x3ba83a70bdf0052eU, 0x3d0fb136bd9b6898U, 0x3d920c4d3d1e2ffaU,
  0x3dd5130d3c771678U, 0x3d23bee6bd7e520eU, 0x3d80925d3dee9e35U, 0x3d9211573d949fabU,
  0x3d8eb25dbd2ce492U, 0x3dc744c5bc566710U, 0xbd147082bd71a00cU, 0xbd638156bcd2fdccU,
  0xbde2af9a3d612a16U, 0xbda821ecbd99225bU, 0x3daf81b33d22f4ceU, 0x3dc344793dd0bf75U,
  0x3b8b1bb0bd6ee55cU, 0xba8b1d40bd923abeU, 0xbaa34e80bde19afcU, 0xbbf5ec30bdec8d5eU,
  0xbc313c503dcfbaf5U, 0x3cbc05243d443aaaU, 0x3dde6d87bce8a340U, 0x3d5c81ee3d274c76U,
  0x3c68dbd83d38aa1aU, 0xbdedd1363d895dbbU, 0x3ddc603d3d8d9ed9U, 0x3a6abf00bd1a3f4cU,
  0xbc88444cbc4ddcb0U, 0x3d65a776bd0af848U, 0xbddd7c76bbb97dd0U, 0x3d41444ebbf9a330U,
  0x3c7bb6d83cf79cfcU, 0xbd408ffebc2ef210U, 0x3d456f563d4720e2U, 0xbde19ad23dda5375U,
  0x3dd6a95d3db06a1dU, 0x3c0186483d8ab3b1U, 0xbd3b39b83adc29c0U, 0x3ddb2cf3bda629e7U,
  0x3d3af1523db7ca33U, 0x3db7aa433d7b89a6U, 0x3d1a5d9a3dcf4d55U, 0x3d57b78abcc47910U,
  0xbdc3df45bd616608U, 0x3dcdad313dd06c01U, 0xbbabf6a03ca3bc8cU, 0xbda434aa3d5aca9eU,
  0x3dcfdadf3dd515f3U, 0xbd985d12bd5981e6U, 0x3dc0fd393de618a9U, 0x3d5902623da2de59U,
  0x3ce0fbccbdc3e413U, 0x3d647922bd246a3cU, 0x3d609f06bd25da24U, 0xbdb5d63d3de5ec11U,
  0x3d3432b2bda24976U, 0x3d066986bd45f62aU, 0x3d7d5b1abd5efff8U, 0xbde5fd80bd921512U,
  0xbde9877abca0e234U, 0xbd9dc751bdca285bU, 0xbdc49f0a3d2837caU, 0xbdbbe224bdd7963eU,
  0xbd896639bd2e80d6U, 0x3d913a4dbc875824U, 0x3da6c03fbd69b7dcU, 0xbd9daf7a3c10c778U,
  0xbdc58db23be04ab0U, 0xbdc5c488bd83fccdU, 0xbd202d0a3cba7c5cU, 0xbdb181e8bdd3cad1U,
  0x3da8a2513da3ce4bU, 0xbde0f89fbce1ad0cU, 0x3db134c93de9dfc3U, 0x3d7535b23d3882e2U,
  0xbd1db1f6bdef9b18U, 0xbdb9f116bcfabc88U, 0x3dafa2d7bd104900U, 0xbded1f2b3d91ef5bU,
  0xbcd6d73c3dc3e09bU, 0xbb444de0bdb86c84U, 0xbb29dd003d8f40ebU, 0xbd86d9343d1153caU,
  0x3c7154b83de42523U, 0xbdeabb2e3ddfbcd1U, 0xbdb8b8843d93ce77U, 0x3d90ef01bd23578aU,
  0x3daaa2a73de14acfU, 0xbcbb660c3c5f0408U, 0xbd078a603b8557e0U, 0x3dad4a8b3cb5013cU,
  0x3d9c8f7fbbbe6860U, 0xbc3897f0bc80c848U, 0xbd1980683d8f6c51U, 0x3d82cf4f3dada72bU,
  0xbde26304bdd4d44cU, 0xbdb8336fbd3a99e0U, 0xbdd528b03de4cbffU, 0x3d217f8e3d4af576U,
  0x3de3ff593de62f7fU, 0x3c739e883d21ae7eU, 0x3d9b98e33dbdef43U, 0xbd4e30a0bdb001caU,
  0xbded3e93bd87589dU, 0x3c60dd68bd5921b0U, 0xbc356f183ba167b0U, 0xbdc50b113bdc43c0U,
  0xbccad0303d76ae26U, 0x3da374ab3d6b1fa6U, 0xbd9af2783dc9f997U, 0xbc6a2bc8bdb3f9e9U,
  0x3d0cd56abd91d936U, 0xbd5dbeb03dea6919U, 0x3ae6c940bd5550deU, 0xbdbe2cef3dc70215U,
  0x3db98abf3dacdb85U, 0x3dd47efd3daafb3dU, 0x3d915e1fbb793e80U, 0xbdc69e123d5cb8deU,
  0xbcee4df4bde65128U, 0x3d4a1a423d0d8fd6U, 0x3cb7532c3c0cb6a8U, 0x3debf3f9bdd27e4aU,
  0xbc09fcf0bdd98ef3U, 0x3ddf98a5ba85f780U, 0x3d314a4ebae11fc0U, 0x3d218f1abd1f100eU,
  0x3d805c25bd6957e3U, 0xbcf0e8543dd3d4a9U, 0x3dccc3f93b8f9620U, 0x3dac9d213d4647eaU,
  0x3db15b173c38ab58U, 0x3da5e5d33d90b021U, 0x3c906adc3dc97527U, 0xbd30ace6b9a29900U,
  0xbdaa8c093dee7057U, 0xbd6fa18cbdca381cU, 0xbd92e7ac3c6dd928U, 0x3db2115d3bbbf1b0U,
  0x3d3997eebda17ebeU, 0xbd9b11963d30eddaU, 0xbd14a626bd8d66b8U, 0x3d815d15bd152604U,
  0xbd992b653d0eff5eU, 0xbc0586c03d2f8cb6U, 0x3c8370c43de45c53U, 0x3da836cf3de968c3U,
  0xbd6194bc3d998b25U, 0xbdafb502bd040df4U, 0xbdd786353dd7fe75U, 0x3dad673b3dbcf17bU,
  0xbd8d0f32bbab2860U, 0x3d0f2f9a3d4b177eU, 0x3dec7933bd91acc0U, 0xbd97a5fcbb727ac0U,
  0x3de91b253dec046bU, 0xbd7d6ee43dafd1a7U, 0x3a8c5f00bdc70928U, 0xbdc15930bd20e1eeU,
  0x3d91aa85bdaa9aacU, 0xbdb4c0d6bcfb12a8U, 0xbdb57b06bcb4eac4U, 0x3d22700e3aec0d40U,
  0x3dbe228fbd742b8dU, 0x3dbd235dbde9a935U, 0x3de6dc873d8a4ec3U, 0x3c4fbcf83d6fcbfeU,
  0x3d754efa3da6fc2bU, 0xbdebe061bdc19dc0U, 0x3ddbe6293cbf14dcU, 0xbd79baffbd754e53U,
  0xbd48d256bd81ddc2U, 0xbd59bd303d81041fU, 0x3d13c246bd29c67aU, 0x3dc38ee33d6ba122U,
  0xbdbe284a3c04dc08U, 0xbdcf7bd9bd892846U, 0xbcc83b383de63293U, 0xbd8b8f2ebc96aeb4U,
  0xbd9e8ae63ddc8959U, 0x3b0225c03ad0ed80U, 0x3dc3f263bda26b1eU, 0x3d07974ebd6bb5c6U,
  0x3c0ba8583dc92b85U, 0xbcd68694bde7b6caU, 0xbdbc78823de661bdU, 0xbd91b93abd92c0c4U,
  0xbd97c1d63d4ad24eU, 0x3dc271cdbd3a40b8U, 0xbc80ea643ad303c0U, 0x3de7d5c9bdca6016U,
  0xbd7a8b8dbded0e9aU, 0x3d0fbdfebd3c3e28U, 0xbcc60ba83dd98779U, 0xbdb48c0f3cd24b6cU,
  0xbcc5fd7c3d75af56U, 0x3d1d11da3d6936eeU, 0x3dee411bbdb64162U, 0xbdad92883db3e111U,
  0xbdd47126bd89012eU, 0xbd9a2e74bd9fc44eU, 0x3db2cc07bd750204U, 0xbd5da4e03c84fbacU,
  0x3dd00c71bd6393b5U, 0x3dd6ec13bda782b4U, 0xbd8268983d9268afU, 0x3d9e44613dd6fe27U,
  0x3db20c793ce4efacU, 0xbdebb5fabd92d1beU, 0x3db192293c56ede8U, 0x3d3b5d0ebdd4b3d4U,
  0x3dc462173d4a0846U, 0x3de840a73ce66ffcU, 0x3d25f5a63db8d24bU, 0x3dd53a41bd82966bU,
  0x3d00b25a3d88b465U, 0xbda23eddbd3b1a4cU, 0x3ced6c7cbcc10ab0U, 0xbdc598f13db9d09bU,
  0x3dd990bb3dbae8c5U, 0x3bccaec03b98b500U, 0x3ce2b59c3de9b2ddU, 0x3cc3f0bc3dba805bU,
  0xbdcf6502bd9a23fcU, 0xbdc8a43e3d7b89daU, 0xbd4bb3063aa03d00U, 0xbd9944f0bcabc5c4U,
  0x3c07ec88bd9b6a7eU, 0x3ce4585c3d590a7eU, 0xbcbc76a8bdcd291eU, 0xbcc58c60bd355164U,
  0xbdb4be10bdaa11d8U, 0xba304f80bcaaefd4U, 0x3c4f3e38bd5c67ccU, 0x3d24c7c63d81dc7bU,
  0xbd6d35ba3ccea734U, 0xbbd3cae03d74cf56U, 0xbd2f030e3dbaadf7U, 0x3d4e6b3ebdca6bbaU,
  0xbd386458bdd4c664U, 0xbdc77e9ebd04c92aU, 0x3d1403cebd6c4040U, 0xbca6bcdcbdac5a32U,
  0xbdbaddc63db5873dU, 0xbdbd5f023d976823U, 0xbbba1a30bd2ea11cU, 0xbabac9403dc86a19U,
  0x3d89891d3dc35b09U, 0xbdaebd5c3db6064fU, 0x3de0e4b93dcd4a0fU, 0xbd7eec59bde1db27U,
  0xbd8a1441bd143c4cU, 0xbc0966a83da75659U, 0xbd65dcf53d8fdb11U, 0xbb9baf203de2fff1U,
  0x3cba30d4bd921ffeU, 0x3c518808bdb62825U, 0x3d77beeabda83892U, 0x3d44e51e3dbf0bcbU,
  0xbc1c9488bdd76b2eU, 0xbd9a1d6e3d94dd35U, 0x3d930e9fbdbd2044U, 0x3d67d3ee3dcdafadU,
  0x3d34a3a2bded3286U, 0xbdb621f9bd9120a8U, 0xbd6037623d88f837U, 0x3dc29d3bbda2d3c4U,
  0x3cb471ac3de2a191U, 0xbb41ea00bd3f457aU, 0x3c6642583c678718U, 0x3d8748cdbda5b139U,
  0xbd6b77133c84fd8cU, 0x3c4daa583db26f7dU, 0xbd1826fc3de0a9c9U, 0xbd4d452cbd47272aU,
  0xbc3cad70bd0467aaU, 0x3c5560d83bff4e50U, 0x3d9724b53c999eccU, 0x3d94b66fbdabcd4eU,
  0xbc3488e0bd4ab144U, 0x3bdcd5c03d7434baU, 0xbd8723e13cc9b24cU, 0x3dc53a4dbd0be55aU,
  0x3dd38cf93d7ffb6eU, 0x3c6ded383de21185U, 0xbde5d202bde38a49U, 0xbdb8956f3c29a5a8U,
  0x3d8f4fcbbd7a700aU, 0xbd8d59d43ded7d4dU, 0x3d997ab7bd04fa3aU, 0x3d3602aa3b39b700U,
  0xbcad8708bc119b38U, 0x3d66a33a3c341258U, 0x3d193d3e3d900909U, 0x3dc5c609bc3de450U,
  0xbda795eabd166c10U, 0x3db3e589bd1d86a2U, 0x3c97a9043bc1fab0U, 0xbd994d0abd8fd170U,
  0xbcb0b4b03cbbcddcU, 0x3d7090063d429cd6U, 0x3dd234b3bd804570U, 0x3c2bace83d5979b2U,
  0x3d4d42d2bda544c9U, 0x3dcedb173ddba609U, 0x3d32d12abcc5b688U, 0xbd09bc9ebdb566f6U,
  0xbd87382d3d8f8823U, 0x3d366ad2bd6caeb0U, 0xbd236dda3c5bb808U, 0xbd2ad8423dae77bdU,
  0x3c574df8bd676686U, 0x3d948489bd8c44aeU, 0x3de3ca5dbdd80753U, 0x3d07d7d63de98019U,
  0x3d682cc2bd8b4e78U, 0x3bb01ef03d66e26eU, 0x3db0cc1d3d45df82U, 0x3d9f14a7bd82d81aU,
  0xbdcd95e83db80401U, 0xbd1be158bdb80617U, 0xbd97132cbdea0bd0U, 0x3d32c93a3d091af2U,
  0xbdeaa9043cc59b9cU, 0xbdcb7d65bdbbb3baU, 0xbd53e2ba3d9c8553U, 0x3d51cc0abdeba700U,
  0xbccf9f30bdb4d95aU, 0xbdb38c2e3c089888U, 0x3d6e54ea3dcdaa5bU, 0xbca6f96cbd6bef79U,
  0xbbace020bd93b302U, 0x3d3063cabd7220dbU, 0xbd20a296bde3b4ffU, 0xbd794fcb3dcc798bU,
  0x3d961417bd061120U, 0x3d5dd5b23cbe1e04U, 0x3d31365abda653ecU, 0xbda64e313ce2794cU,
  0xbd830c563da231dfU, 0x3cee1afcbdd296e4U, 0x3d94696bb9ddcc00U, 0xbc147728bd8299f6U,
  0xbd35e07c3d78164eU, 0x3d594bbabd16a600U, 0xbb10a4803da86a3bU, 0x3ce6efecbd9bde7bU,
  0x3dbd69cf3d810f31U, 0x3dcd6eef3db844cdU, 0xbdc5d3e43ccfa9fcU, 0x3d02963abd24d5b4U,
  0x3dea8309bde41600U, 0x3c27a2a83def7f33U, 0x3c872f643d51eaf6U, 0xbdaa9613bd827b73U,
  0x3da2d537bce09308U, 0xbd168da2bdb75cf8U, 0xbdd4ad9d3d7d4ab6U, 0x3da3186b3bc391f0U,
  0x3dca556bbddd6e1aU, 0x3d51474abdbb872dU, 0x3d54375abd4bb45aU, 0x3de8995d3d963f63U,
  0x3d98702d3dd06827U, 0xbdc8bb95bd89ba4eU, 0x3dab32293d06377eU, 0xbdd4baf9bd400b7cU,
  0x3d8bd017bd0398baU, 0xbdd643a13dafe70bU, 0x3dd224c73bd06b20U, 0x3d9958253da4a103U,
  0xbd0755b4bda602a9U, 0x3d87505bbca53364U, 0xbdb6b4f6bd2c3af0U, 0x3d4bcb92bdeebc48U,
  0xbd4bc550bd2e63caU, 0xbdd5f9fbbdd0627bU, 0xbcfb8dfc3d4389b2U, 0x3dbc8a4bbde6d745U,
  0x3d63550a3def2a95U, 0x3d957e0f3dcdefe7U, 0x3d504b663ddc2115U, 0x3db7a7973d057076U,
  0xbc6f90303d686cfeU, 0xbd8b1d0e3c666948U, 0xbd95e047bbf3f750U, 0xbcf758cc3dc94b69U,
  0xbd94deb13d775f2aU, 0x3d8f98473db54c43U, 0xbd4d73083ddb5d73U, 0xbd1b05e2bd39cfdeU,
  0xbdbfcf1e3c95f174U, 0x3d21d4dabd5377e8U, 0x3ca1be9c3d86cff9U, 0x3cc45554bd9919a0U,
  0xbd9b8dcebd5c0cd2U, 0x3dd9dff3bd319078U, 0xbd9c648dbd703a8cU, 0xbd804c90bd70fd86U,
  0xbd68db84bdbbcda3U, 0x3d50ebdebd8fb4c7U, 0xbb8ab0003de9c497U, 0xbca55830bd2b6e3aU,
  0x3c9416343cbd51d4U, 0xbce8fe24bde8e065U, 0x3d0c1a42bdbcbbbcU, 0xbdeaf4c43cb6a084U,
  0xbdd490563de04889U, 0xbc3bb500390e2000U, 0x3cbe155cbd4c4df8U, 0xbd9865b03d98a665U,
  0x3d9bbe133c9b9f8cU, 0x3dd2676fbc48c1a8U, 0xbdc7a9eebd295ed4U, 0xbdadd09c3d696242U,
  0x3d3e48fabdc75b54U, 0xbc9219543ca39cfcU, 0x3dce847bbbd69820U, 0x3c26c878bc19c860U,
  0x3db89b953ce1f8f4U, 0xbda940eb3d219126U, 0xbc3570c0bb954720U, 0xbd9cae02bdca864dU,
  0xbd8b1d5e3d9dc8d5U, 0xbdd4a7a1bc749220U, 0xbdc57cdebca24c38U, 0xbcc936a83ddcf48dU,
  0xbd8646be3d3ab7e2U, 0x3d9092e3bddc7119U, 0x3ce47d74bda9b038U, 0xbd107b6abd96fb9dU,
  0xbd62c0e3b9088200U, 0xbdd8a222bda8d76cU, 0xbde52b173d2aeb72U, 0xbb939e30bdb889cfU,
  0xbbb9d760bdd57a15U, 0xbcdb31003d9e9ce7U, 0x3ac318003db1c009U, 0x3d9dde99bd500ddaU,
  0x3dcced6f3dbc8fc9U, 0x3cc8ef3cbd37bf9eU, 0xbdb60345b9212400U, 0x3c38dde83d2d91caU,
  0x3dd4b6c5bda7135cU, 0xbc9cfe6c3d2bd806U, 0xbd04bbea3d0eaef2U, 0x3dd31cb33db2d55fU,
  0xbcd1af48bd0aad44U, 0xbdab6f9cbbf21810U, 0xbd8d925bbd995ba9U, 0xbda65cfe3c75dc68U,
  0x3de52eb9bc7d6770U, 0x3de16ae5bc819878U, 0x3db4b1ddbdc4a5e8U, 0xbd0c2e8cbd72c615U,
  0x3deb5bad3de520b7U, 0xbd818d5ebd7ac6f6U, 0xbc3ddc70bc2dae20U, 0xbd21218cbbd4faf0U,
  0x3d7514da3d9336c9U, 0x3dcb7067bd0977dcU, 0x3d09cdce3d75460aU, 0xbdcb8dd03c7454c8U,
  0x3da0a407bc37ce68U, 0x3db87cb33de31913U, 0x3d3edecebd63d377U, 0x3cf870a4bd900e26U,
  0xbdda679f3d3939aaU, 0xbdce3dc8bdbb180dU, 0x3c573bf8bdb1dd5aU, 0x3d645f623ddf1151U,
  0xbc836240bde54176U, 0xbcda3e703da473d5U, 0x3dd3f7733d887129U, 0x3da18b19bddcd78aU,
  0x3db797ff3d12edfeU, 0xbd9051203d558faaU, 0xbde749bc3de44033U, 0x3b9aa2d03cf7fe0cU,
  0xbde5ee64bcf6c3d0U, 0x3d8ba5e1bde30cebU, 0xbd9d1836bdc004b1U, 0xbd3d9f663df057a1U,
  0xbc81c6c8bd6f5d96U, 0x3c9cd7243cedecb4U, 0x3dc2b2db3d768206U, 0x3db3b37f3d7fe4e2U,
  0x3dd6d17dbda6a6ceU, 0x3a1c1c003d25433aU, 0xbda0c433bde99d2bU, 0xbd85d0903ca1018cU,
  0x3dc76a8b3c426058U, 0xbda908423bd02240U, 0xbce81a38bd229146U, 0x3c1c35883dbea6abU,
  0x3db4a907bd2e4c38U, 0xbd6b53a7bb860470U, 0x3d31150abd5f478cU, 0xbdb835a33d87b5fdU,
  0xbd85751d3dcf1f57U, 0xbd3b7166bd56d6c4U, 0xbc5a41a83b98c660U, 0xbd0cf4863d875c33U,
  0x3dd627253d1a25c2U, 0x3deb3f4fbda4772fU, 0x3c55df983ceb0e34U, 0x3b95ea60bda71ce2U,
  0xbdcf853e3df01773U, 0xbda25d823d536556U, 0x3db6a2e9bd5da368U, 0x3ddcff27bd67eb19U,
  0x3cdeb244bbad2b60U, 0x3beb93903da1efa9U, 0xbdabd074bde4eebaU, 0x3d1907cebd39e4dcU,
  0x3bbf8ad0bdb771d6U, 0xbd3bbcdabcf9bfacU, 0xbd3e350cbd7da003U, 0x3b8713a0bd633300U,
  0xbbd381003d4b0eb6U, 0xbdc5619ebd4c65f4U, 0xbdc30b68bda79713U, 0x3d3407423d3700caU,
  0x3df06d29bdd11ee3U, 0x3ddc30e7bddea473U, 0xbd2ae0503d9cb363U, 0x3da27621bd4f4b58U,
  0xbddcbb8e3dceceabU, 0xbdeabea63de5fd71U, 0x3dcb1297bde7b9d4U, 0xbde6dbfd3d1ff166U,
  0xbdd8da70bdcdad80U, 0xbc9bcaf43c671c08U, 0x3d2fe01abcb919b0U, 0x3d94206b3d1f9aaeU,
  0xbd7fbfa33de9866bU, 0xbd82ce543d3e5672U, 0xbd82c9cd3daeaf13U, 0xbde380cebdd2f72cU,
  0xbd85a8593c9f2184U, 0x3baf30f03d522f8aU, 0x3cbc6b4cbd678182U, 0xbdaeb71c3c056348U,
  0xba20a480bd8d5192U, 0x3bee0990bd38a6c0U, 0xbd2787463a523580U, 0xbcc402e43cef304cU,
  0x3d3ba98abdaf4e96U, 0x3c4bf6d8bda02096U, 0x3dd186f93b438940U, 0x3de6a2d53d75acdeU,
  0x3d28649ebba1b3e0U, 0x3cec26bcbd57d9e0U, 0x3d9de47bbd85aaa4U, 0xbd859623bca3ed84U,
  0x3d8ad5d93c049668U, 0x3d94b2e13c21d858U, 0x3cbda09cbd927dcaU, 0xbd4a192c3daf9abbU,
  0x3dc42b7d3dad6f99U, 0x3dd01cab3cf1e4a4U, 0x3d5e309e3da89acfU, 0xbce72f1c3dc95445U,
  0xbb8535c03d88f143U, 0xbdb3f2a23d4441eaU, 0x39ad7d003d8606a9U, 0xbd1ae758ba8cfd00U,
  0xbbd6c090bced5680U, 0x3dba87833dbb8613U, 0x3d5008fabd8d56baU, 0x3d6abb3e3b73f7c0U,
  0xbd29bc303dd73cc3U, 0xbdac2d6abda91b9aU, 0xbdc6aa1bbd9d9a3eU, 0xbd97f4353d9fcd3dU,
  0xbd8a5104bdc40352U, 0x3d5f9ffe3da7a215U, 0x3d85af2f3db919f3U, 0x3def4d6b3d0febe2U,
  0xbd490602bdd51e1bU, 0x3bd3b630bda8c2feU, 0x3d8ac9fdbddf6675U, 0xbd9ad7bcbb9f03d0U,
  0x3dd0fec3bd1c3e62U, 0xb9ab18003dc274f7U, 0x3d8efce53daba539U, 0xbca54814bddf8434U,
  0x3d315f523dd1f9cfU, 0x3dbe455dbdb63494U, 0x3db0f171bd800450U, 0xbc8e1f603ccbf244U,
  0x3d180272bd18dd00U, 0xbd0598f63b654540U, 0xbdc877f23d90c679U, 0x3dc31a9fbcf4aec4U,
  0x3db305a7bd3e67d0U, 0xbd334de4bb9bd850U, 0x3d7aae02bb80bee0U, 0x3cac8c8cbda48e6cU,
  0x3d511bcabd56857cU, 0xbdd5ca27bdad1235U, 0x3c6bb8983cebb8ccU, 0x3d851c4bbcf1d930U,
  0xbd41bb1e3d9c7007U, 0xbc0e9a203db6d445U, 0xbbac8a90bd320f1aU, 0xbddbc4d1bd78f5baU,
  0x3ae929c03d74fb16U, 0x3d272f5a3d375dbaU, 0xbdb115693cb723acU, 0xbd0f4ef0bcaa5edcU,
  0x3d879fe53cbb8144U, 0x3d20c24ebdca471aU, 0xbcf8e4ccbd9b11bcU, 0xbdadc3943d66d2d2U,
  0x3dbb4bbd3ce26ad4U, 0x3dec66afbd0fc5b2U, 0x3ce8802c3cd41c64U, 0xbcf20628bcfe550cU,
  0xbd2e265c3cf413fcU, 0xbc1a26703db70323U, 0x3b8703203d4be28eU, 0x3dc076d53dc33279U,
  0x3d9095c3bdc80515U, 0x3de72ed9bc7786a8U, 0xbcdcb5e4bd9511fcU, 0xbd53adf0bd8f1bdaU,
  0xbcf58b723d5353e2U, 0x3d7736333c63b8d5U, 0xbddff6573d855e56U, 0xbdeea454bd4fa9baU,
  0x3bc10e3abdad4cd0U, 0xbde967c3bdf46808U, 0x3d8142c0bc0f4936U, 0x3d2cfb7a3d31a887U,
  0x3cfd2d113d25caa0U, 0x3c52b16bbdfe3a37U, 0x3d33b9c53dd747f1U, 0xbdcea83a3cff89fbU,
  0x3dc7a845bb9c434bU, 0x3d62f7cfbd4719a7U, 0x3dc3baf13dc22d14U, 0x3d709233bdc91b70U,
  0x3cee1c0cbd81afa8U, 0xbd0b1b993dc0642fU, 0x3dd2d5f53d6b82d6U, 0x3c9c499dbb73e800U,
  0x3be8f2e0bc94cdfaU, 0xbdab0826bb2e1ee8U, 0x3d9cd7fe3d4b16c0U, 0xbdfc7d43bdee48a4U,
  0xbdb3e0f1be132cb6U, 0xbdb961f03dbce4d1U, 0x3d84cd833adedc6aU, 0x3db074213c1773b9U,
  0xbc56e6a83d695a3eU, 0xbb09aaac3d8b3360U, 0x3ceffcbebd837ff6U, 0xbd3928613d8f220fU,
  0x3d03faafbde455eeU, 0xbdefc6a23d77dcdaU, 0xbd566f813db445d9U, 0xbc3ab4b23d5a358eU,
  0xbd476beebc22530fU, 0xbc9040fdbd5e68a2U, 0xbde63ed5bd24aadeU, 0xbdb5cfa6bdc777a3U,
  0xbd08839d3bfd7899U, 0x3d390f8dbccdb76aU, 0xbdabc7743d40e768U, 0x3c5903fe3da885e2U,
  0x3c9ec5efbd2fb3f6U, 0x3cdf3e7bbb142be2U, 0xbd3d1b993d208f8cU, 0xbd2521423d837f43U,
  0xbde009ef3c8ef3b6U, 0xbc805de7bc646d8eU, 0x3cb042ecbd97cd95U, 0xbaa3a8213d4fd568U,
  0xbd15498e3cb8ce99U, 0xbe0125a6bb834033U, 0xbd30760abd0bb2d7U, 0x3dac9dccbda263b1U,
  0x3d908bd2bc228a2dU, 0xbbf8d7013da60cbdU, 0x3bfaa67cbd00ad94U, 0xbc067ea1bdf55c88U,
  0xbafa0e4dbae74138U, 0xbc2af215bdd0a402U, 0xbcd191943d1db8cbU, 0x3dced3c13d934981U,
  0x398788e6bd851bd7U, 0x3dbac99fbdc7772eU, 0x3cf4a60cbd8ed68aU, 0x3cfafdfbbd5b6ec4U,
  0x3d6fc1ff3d6c3582U, 0x3d0b07023d7dcb74U, 0x3dccea80bdc5c661U, 0xbd9111e03cc4e96bU,
  0xbdb9a7d3bd95533eU, 0xbdaf4802bc934343U, 0x3d66029d3d445792U, 0x3d3bd2fe3d7c336cU,
  0x3cd491203d85bd96U, 0x3da95be8bd6d2457U, 0xbe088911bdaaf01eU, 0x3d877b883dcecdf5U,
  0x3db00ef83da16353U, 0x3d9111d93d7c6d9dU, 0x3c983f3e3b049225U, 0x3aa51c9bbb7298b9U,
  0xbde5bb773d831dceU, 0xbcbccc433dc4d517U, 0x3dbcad773d159303U, 0xbd0a6bb9bd8a589dU,
  0xbdca8422be0bb0abU, 0xbd335e73bd76d5b5U, 0xbd6d52df3d35904eU, 0x3bcacc1abcf9b563U,
  0x3b0a205f3b4e7013U, 0x3da043a63c5e3d18U, 0x3bd927e53d54e21aU, 0xbdb02f74bd0eddc9U,
  0x3d9d9840bdee1eaaU, 0x3d448445bb962167U, 0x3d2fe4cdbd598ea0U, 0xbc0e32a63dc7f3e9U,
  0xbd2e590b3d51b13fU, 0xbde07b9ebdd42569U, 0x3d34ff063de993baU, 0xbd88f0eebdea4babU,
  0x3dd64af33cbbb2c7U, 0x3da107a1bda50266U, 0xbddf9e8d3db8c57dU, 0xbdc55a15bd3cacc7U,
  0xbd7ae0e73cb7f011U, 0x3d20e2d03da9e830U, 0x3dc71fb3bd98be1aU, 0x3dadcf553d30789fU,
  0x3b86a35a3c435c70U, 0xbd3b9a5d3b9bd979U, 0x3d906afbbdbb0f28U, 0x3dce14b8bb255143U,
  0x3c797f9f3d62c03eU, 0x3d924727bb800403U, 0x3bea8fd8bdc9a361U, 0xbca0e61b3db47eabU,
  0xbdc445fbbd9b51a0U, 0xbdc9e8f43d05e419U, 0xbd6fc0c83db11970U, 0xbdf9eaeebdf3c35bU,
  0xbdc12eeabde1d8acU, 0xbdd048b03c9107afU, 0xbd12ea243d2bff8fU, 0x3db2eb6ebcc369adU,
  0xbd085585bdbebe7eU, 0xbaf9ef36bc4244aeU, 0x3de0dee43dc2bc15U, 0xbdc5f3553dc822f4U,
  0x3cc47fe13d70ac9cU, 0xbd487fc43daa1b2aU, 0x3d640ddb3cb46207U, 0xbdc13e07bb2836cfU,
  0x3d1fecc03d90ff37U, 0x3d7d492c3d0d1821U, 0x3da677483d5e1ecdU, 0x3db2ab163d50449cU,
  0x3d66eb96bdeb27b6U, 0xbd05ddf8bdf9ccb1U, 0xbd2034b1bba8544dU, 0x3dba7811bdddedf6U,
  0x3baf8e3d3cd7c628U, 0x3db950dabca7fde9U, 0x3dcf4ec83cc72853U, 0xbd4d73ae3d8e8527U,
  0xbd2df5363daed7e4U, 0x3ca5f0593d95fc26U, 0xbdbec0b13db5abafU, 0x3b87bf3ebd12ec91U,
  0xbca39766bd6552cbU, 0xbdf1a9f3bdacb36cU, 0x3bd6ea0dbc881ffbU, 0xba68cde9bd832eb0U,
  0x3da1ac1cbd9b79f5U, 0xbce6b21dbe00b2faU, 0xbcb45305bd31545aU, 0xbd86451e3da331a1U,
  0x3d0d747a3ceb5108U, 0x3d1264a23d9bdb0bU, 0x3c3abbe9bd8494fdU, 0x3dd6ee08bcda8304U,
  0x3dc1906c3dac2d9dU, 0x3d74aa193cfd74f3U, 0xbd827f70bda21228U, 0x3df0df543cee5d6bU,
  0xbc9746e83d523108U, 0x3c8cf0353d673310U, 0x3d72e86bbda45d7fU, 0x3bdaa5793d9176a8U,
  0x3d41a3a33dd87465U, 0xbcf76939bd30a165U, 0x3dc8f44c3cc68a14U, 0x3d4ce345babf3e9fU,
  0xbd80df02bde464faU, 0xbca2303fbda6e4c3U, 0x3be27305bdce9123U, 0xbd2a9612bd845eafU,
  0x3dec2128bd9fc157U, 0xbdd6a13a3d0097baU, 0xbe06ce23bdc0662cU, 0xbda4fe20bd9ddebeU,
  0x3da6f7bcbd2f4cb3U, 0x3d7a594fbc0bfcc4U, 0xbc9a9140bdf679ecU, 0x3dab62f53dbfc7b3U,
  0xbd98f5c1bd976e89U, 0xbe06d2a63d6bb79dU, 0x3d597d58bd87f76cU, 0x3d5a14bfbd91d044U,
  0x3da85ef23c1e10afU, 0x3dd7749bbcb7a233U, 0x3d6b533b3d15a647U, 0xbd52313b3dce6638U,
  0x3d904e983c44fe9dU, 0x3dc60ada3c8f32e7U, 0x3d57e8693dc025d9U, 0xbc0caf143d9aaa40U,
  0x3db98ac3bce75099U, 0x3d0602bcbd8d4223U, 0xbd944d443a035018U, 0x3dab20cabd48efd9U,
  0xbc2ca74f3da7752bU, 0x3c4096aebbaed7c9U, 0x3dc2dfc2bde58d7fU, 0xbd846ecf3b8324a4U,
  0x3dfdf2f83de71739U, 0x3dc9f69f3c0346d0U, 0xbcebed233ce21a78U, 0x3debfdea3d912f27U,
  0x3d55e7eb3db73fffU, 0x3ce5ab223d1a63c4U, 0x3dcba0d5bd97c0d4U, 0x3d1bb8823dc675a5U,
  0x3d97af433d80c514U, 0xbe06d7843d0fb1d5U, 0x3da3a807bd23fc1dU, 0x3db12fbd3d232630U,
  0xbd3f7c253d3e0fd9U, 0x3e068172bd899859U, 0x3c86bec73debc5c0U, 0x3d9934f13d8ff37dU,
  0x3dc50f9abd82b0fcU, 0xbd92437d3de4fe96U, 0xbdb0019cbd8cfbb6U, 0x3d2e830b3d19b2b3U,
  0xbd32340a3b804c9fU, 0x3dbf29b9bde9e1b2U, 0xbd9259edbd00bbcaU, 0x3d003f7fbd6228dfU,
  0xbd8887243e068cb1U, 0x3c63c88dbdc1ac3cU, 0x3da4e5ccbd66ca40U, 0x3ddd0d333db9a9c9U,
  0x3b00e7b23dfae620U, 0x3d68049ebc2a7e05U, 0xbc162a4e3d9c4d55U, 0x3de8ab603cc08e88U,
  0xbb7c75e33dc7f2b7U, 0xbcd64fa23c9a40e2U, 0xbdfcfd82bc510e55U, 0x3dcd35b73c1a5107U,
  0x3cae6d77bd19d004U, 0xbddd11183b5578daU, 0x3dbc43a93cfe3b42U, 0x3c9e3a25bd8df604U,
  0xbcfe6a433dcb43cbU, 0x3d487561bda5a094U, 0xbd1092babd997e58U, 0x3b5db9893c3f070fU,
  0xbd863d21bda739c7U, 0x3db4f4c43cbdfa75U, 0x3db36650bd28e8cfU, 0xbd4562ccbd9af8c3U,
  0x3d79884d3db0f76bU, 0x3dea57243dfb881fU, 0x3d54f503bda78253U, 0x3ca5ea87b92f249bU,
  0xbcd4cb543bdde069U, 0xbcdcbfa5bce7b1edU, 0x3cb85de43d9885a3U, 0xbdb41cb33de49862U,
  0x3d1fe2c33dbc521aU, 0x3dfa4dc83de8c5d9U, 0xbd523e28bdd433deU, 0x3c93b225bd6624dbU,
  0x3c776fe7bde4206cU, 0xbe01f9f6bd844e2fU, 0xbd745ae4bc1188eeU, 0xbce5042ebd087cf8U,
  0x3c083bd53ce6427aU, 0x3dfaae3c3dd8c806U, 0xbd044f373dac988fU, 0xbd43df233dd89078U,
  0x3e08f5f9bd813ec2U, 0xbd9e6a77bdab3174U, 0x3a9b51cbbd10e37fU, 0x3c2887ebbd0a88d9U,
  0xbc9d9e273db75e21U, 0x3cd43953bd8b6c99U, 0x3ce153cebd3662a5U, 0x3d51b4ca3c9f29cdU,
  0x3d4dfdba3ddb22c2U, 0x3ccf1ca23e09c34fU, 0xbd7225f1bd910ea8U, 0xbd53cd0d3e007afcU,
  0xbd2ab18bbda713faU, 0xbd94cb993d57c06fU, 0x3ddd21d93e05300bU, 0xbdb5cc543c8411cfU,
  0x3d3efb6d3d7a1f11U, 0xbcb384753d48b10dU, 0x3d63b4e43d4735a3U, 0x3df9b27a3d6bbd87U,
  0x3b051625bc980027U, 0xbd2ac653bcc9d977U, 0x3d9b6b6e3ce9864eU, 0xbcc08414bcc10bc0U,
  0x3b8ec7fc3d9d373fU, 0xbdaa67303dc3ece4U, 0x3d8e05f3bcbe4488U, 0x3ddaabbbbdc85b67U,
  0xbda85a7fbda2a1f4U, 0x3d1dd8bc3d950ef0U, 0x3df3157cbdbef01fU, 0xbb976fda3c563e18U,
  0xbd021e413c91928dU, 0xbd2ed32d3d7259efU, 0x3dd2c282bd7c03d6U, 0x3dad1c0c3d5e270cU,
  0x3c986a4a3d88ec9fU, 0x3ceff4a5bd8fcf8eU, 0xbd86c8d8bcff4303U, 0x3e094dd3ba90db3fU,
  0xbd0e3c623d4067cbU, 0xbd4d4b3ebc4c1a76U, 0xbddaab423d9ab3d7U, 0x3d58cdca3db1de87U,
  0xbda30c85bd15ec2fU, 0x3ca1a5b5bd231b42U, 0x3cf747cf3d03b973U, 0x3dbdafb23d273d2cU,
  0x3dd208ebbd416038U, 0xbd87eee9bcdd4ab6U, 0x3c43e2a83d648dc1U, 0x3d9b7f1cbdbbc054U,
  0xbc74483cbd113039U, 0x3dc2b657bdb0300eU, 0xbc2357be3e06af2aU, 0xbd94f4d53b11f2b7U,
  0xbcacea5dbc5bff32U, 0xbda79cc83d62cfeaU, 0x3c3be45dbd20e2e0U, 0x3cb1bd2bbdcf9c11U,
  0x3dd20eb1bdde6a40U, 0x3c9bce01bd99a69bU, 0xbbf116243ddf0e5cU, 0xbb7cdbe1bc2fadf7U,
  0xbdb8b046bbeb6901U, 0x3e07dd49bc065b80U, 0x3d93d5a73e087d0fU, 0x3d51ff88bde98327U,
  0xbd49ae383c8d90d7U, 0x3d0e7bff3d807c96U, 0xbd62cd733cd199f9U, 0x3d56d791bde35f9eU,
  0x3d9b10c33d446bd1U, 0x3d3ed80e3d845248U, 0x3e1212debda697bfU, 0x3da55eb13de05c2cU,
  0x3d5ba2183d9e8707U, 0xbd52df0abdc9f5f9U, 0xbcca5e4cbdc0bf02U, 0x3d141a18bd35f47cU,
  0xbe078f453d8a0338U, 0xbdb839573d7f56fcU, 0xbdd542e93d8f98aeU, 0xbc197c163caa85a4U,
  0x3d9fae483c23bccbU, 0x3de2ece03d811781U, 0x3aab24713d3987b1U, 0x3cae80f83d52751fU,
  0xbc8cbe5a3dda512eU, 0x3debc7d93db9a61aU, 0xbd71b2b3bcd11eb9U, 0x3e00a9483d652396U,
  0x3cdf483f3dace86dU, 0xbd890178bd76aca9U, 0x3bd6c20ebd8fec3cU, 0x3dbbd791bdae3f88U,
  0xbd5c3126bd707c1aU, 0x3a56e7013db29315U, 0xbd671dccbdd020a7U, 0x3d8b53b7bd890267U,
  0x3c0147d23defadb2U, 0x3dc10a79bc4d126fU, 0xbdb1e175bda0686aU, 0x3e074fc03d9cb215U,
  0x3df9157cbd1da2e0U, 0xbd9e25e23d860accU, 0xbe02b74a3aa262c8U, 0x3dabb95fbd90aa87U,
  0xbdb049fbbde9f43dU, 0xbdadad66bdd9154fU, 0x3d03d7973da11450U, 0xbdbe62403daa812fU,
  0xbdc2c1bebd00d394U, 0x3d86009fbc4317a7U, 0xbdd56091bc8cb18dU, 0xbdf84b9abbb8246aU,
  0xbd60d22abddeccd0U, 0xbd13dcb9bde67234U, 0x3c1ed46abd5fb537U, 0x3d526a72bc680a87U,
  0x3c49177d3d6d1e27U, 0xbc012da73d7a7806U, 0x3d0cd7363c14f13fU, 0xbd233ad03d79bce3U,
  0x3d4b6b2c3aa69077U, 0x3d2ce0e3bd2d9a09U, 0xbd549279bda26c3fU, 0x3d864c8dbe13aaa0U,
  0xbdf67ab2bdb0acedU, 0xbdd70e9cbd600492U, 0xbda11b273d5ea47dU, 0x3d603cd53d90aaa3U,
  0xbc168ada3c83ff7eU, 0xbd8ff48f3e09a15dU, 0xbe110fa23cde82c0U, 0xbdb2bd9bbb937cd7U,
  0xbc98f367be1a8678U, 0x3d0b7c4ebd1f2ce2U, 0x3d2ea042bc63d777U, 0x3d9698e8bd008a3bU,
  0xbdb73f22bc1a74ceU, 0xbd77ab15bd8b0cc3U, 0x3c42000fbdbbd83bU, 0xbde2b5cd3d81b673U,
  0xbdbfd7fa3daa95e7U, 0xbc081792bd832b1bU, 0xbd0a5e88bcdaaa8bU, 0xba6292c0bdf83f02U,
  0xbde3d07fbdab0e69U, 0xbd618fe4bdf2d002U, 0x3c1dd7ce3d3e56bbU, 0xbd2ee24bbd97de8dU,
  0xbdead814bd226f49U, 0x3db492ae3ca27290U, 0xbd9bd0ecbda5b6a9U, 0x3cda8ddc3da0252bU,
  0xbd9a8770bdcca922U, 0x3e0515acbd0c7385U, 0x3cdb04163d876b6dU, 0x3d00d9d6bd5556baU,
  0x3d4fbfdcbcc10798U, 0xbca33383bda222edU, 0x3d7219ae3dff9763U, 0xbe16bf10bda44e17U,
  0xbcae0eb03d2e62b6U, 0xbd170b93bd037431U, 0xbe008b643d00e2d0U, 0xbd4184d3be13bcfdU,
  0xbc5e4a8fbbff2a5fU, 0x3daee172bd9b6436U, 0x3dcc5588bc4605b1U, 0xbd0d3f9bbd74f0ebU,
  0xbd22c8343d9b41bfU, 0xbdb3fef0bc0cea6bU, 0xbdf98cf83db9d95bU, 0x3cd3bdb03d047326U,
  0xbe185341bb034f5aU, 0xbdbfbec5be10bbb4U, 0xbc99c7ce3c5c8c97U, 0xbde8b1dcbd1e845dU,
  0x3aadf373bd90dba9U, 0xbd55ab6abdb195e8U, 0x3d4447713c1ea3bdU, 0xbda080f13d4f34ceU,
  0x3d1c690c3d63d652U, 0xbd0750163d325908U, 0x3d89d4e83da2f96cU, 0xbd69b8afbdba55e2U,
  0xbded5b63bd7c1abdU, 0xbdcaa30b3d383824U, 0xbe013f59bd13b4d1U, 0xbe0e0dbfbc4c364eU,
  0xbdbcc55bbded3012U, 0xbdfb7638bdc764dfU, 0x3d2f40553d97d285U, 0xbd7401a53da9aceaU,
  0xbdeace82bde8d930U, 0xbc070296bdc340f8U, 0xbcad6eecbc69e34eU, 0xbd0592d4bd85d4ddU,
  0x3cca2a913d9313bbU, 0x3cb937a2bd7b5475U, 0x3d3f9b20bddf120fU, 0xbe0f4c023da3ac11U,
  0x3d7ed2b0bd2cfae9U, 0x3ccaf172bdd74b91U, 0xbd6edbbe3b8be41dU, 0xbe0ccf04bb25d4afU,
  0xbceb1426bcbf3afeU, 0xbd6dce0c3dea908cU, 0xbdb0cf46bdbdc868U, 0xbe170bb2bb62ac8dU,
  0xbd954794bd406de1U, 0xbc95a002bda26e70U, 0x3d78c2573d5ad027U, 0xbde85b83bdd33b0aU,
  0xbce9d29bbde8505eU, 0xbc53063f3d5af79eU, 0xbcbb35c63c4c7c82U, 0xbd96d117be0aecf9U,
  0xbd592c2d3d5af5e6U, 0x3caa20eabdfcff36U, 0xbdfa272bbdd44fedU, 0xbdde44e3bd835279U,
  0x3cd5c261be11f549U, 0x3cc08060bd995390U, 0xbe0278c43cbab253U, 0x3d53c84a3d92ff40U,
  0xbd2ee8ba3c977c4aU, 0x3b72b692be0c4315U, 0xbda83163bdc46217U, 0x3ca97a3dbdbcfd1eU,
  0xbdf1e8a3bddea867U, 0x3d5498363d6b8c30U, 0x3db66b22bcf028b9U, 0x3d2fac193da67f67U,
  0x3d74b4f7bd442d19U, 0xbdeba95dbd348b27U, 0xbdd127f53d26e68dU, 0xbd1c02633b10821dU,
  0xbe0cae5dbd236ff9U, 0x3c657ac63d553cbdU, 0xbd82a79c3d421e96U, 0xbdef8aa1be1489a1U,
  0xbbe1158b3d816217U, 0xbdc4504ebdce99f2U, 0xbe031600bdf8998bU, 0xbc0d8b0d3a4ab784U,
  0xbd94e8793d98c8edU, 0xbde272eabd73e5d8U, 0xbc2008e2bbd39b84U, 0x3d3dc64c399f8523U,
  0xbde2aefbbdb57a5eU, 0xbdec8f0cbd4578a8U, 0xbc8a49cf3dad48ecU, 0x3d61b9b53bcaaccfU,
  0xbd3c80283ba7851eU, 0x3d987f0ebe03bc8bU, 0xbb799d373d1ad752U, 0x3d85897b3c814e59U,
  0xbdc52fe93d606445U, 0x3dd9bdd73af6fb2dU, 0x3d51d762bc7e3eebU, 0xbdb2b6e63da7bbb2U,
  0xbd4023a93d54ac0aU, 0xbd342eae3dde71e8U, 0x3d548f09bdfee2ecU, 0xbde24d443d9bc23bU,
  0x3dad959bbd1cff2bU, 0x3d4487e73d1bcb9dU, 0xbdbb5ee63c99d18aU, 0xbcd6a81bbd2bf05eU,
  0x3cf2db2ebdb85e58U, 0x3d8dcf343d220896U, 0xbd6744793dd8132eU, 0x3d34f28c3d01e46cU,
  0xbd9d3adfbd4441f3U, 0x3d5f4a433cf10f72U, 0xbdd124fd3cf02618U, 0xbd56c9d3bdefa761U,
  0xbd1cad35be1058e2U, 0xbdff37ecbdc6439fU, 0x3c4fc5fbbd13dc54U, 0xbdb855483d94b7a6U,
  0x3cfdc9663d1ed1f0U, 0x3ddba1b0bc4df1a8U, 0xbb3667b1bda8d82aU, 0x3d915f55bd6fa4deU,
  0x3db79226bcf64de0U, 0x3dd15c3b3d0b12ddU, 0xbde1945cbcb88b73U, 0xbd090f44bda30408U,
  0xbe147ad23c519b04U, 0x3c01660d3c8e21baU, 0xbde0d74b3d7967a8U, 0xbd769dfbbd830671U,
  0x3d91442d3b4f34c6U, 0xbcd3adc73da6ec80U, 0x3cfac257bd554725U, 0x3da2fb80bc374cd4U,
  0x3d5e7f063ac5fc2fU, 0x3c9eda86bc7bc5a0U, 0xbdf1df273d917c46U, 0xbda6ec7e3da8dc0fU,
  0x3dd05d483d1faab2U, 0xbd243b8fbc9dd448U, 0xbdb378e63dc5713dU, 0x3dc9046cbcea173eU,
  0xbc9ac159bcf83402U, 0x3d8ac24cbcadcc83U, 0xbd1c1f6abcc218ecU, 0xbdce2716bda6316dU,
  0x3d87ebc4bba47e49U, 0x3dc0049ebdb4419cU, 0xbde8cfe1bda515eaU, 0xbd1134b73d91181fU,
  0xbd409448bdaa386cU, 0xbdacc2fd3d22d7a3U, 0xbd442fd83ccf9519U, 0x3b9c9ab83d7bcde2U,
  0x3dceb5be3c239c2aU, 0x3c876d86bd587ae4U, 0x3d5309a03dc10155U, 0x3d16fb453d9c8997U,
  0xbd9d5decbdc365b9U, 0xbdd7942f3db3425eU, 0x3c46ddc23c993407U, 0xbd84ef0dbd702f4cU,
  0x3d22e07fbd8a63f3U, 0x3c9b388c3d0d50cbU, 0x3c0056563cc61ca1U, 0x3bba2490bde5b799U,
  0x3dcca0a73dd0bb51U, 0xbd004c553db6cbc9U, 0xbdd342323d4f0cf5U, 0x3d818fddbd935544U,
  0x3db767ddbd8330c4U, 0x3d6161c5bce8e352U, 0xbdaabf45bc778ca8U, 0x3db4c222bde63b4fU,
  0x3d77dee6bdd6103aU, 0x3be663ab3d788e9bU, 0xbdc1440bbdcba69dU, 0x3d1642f73b8434adU,
  0xbde06b8a3baeb01dU, 0xbe051474be0440bdU, 0xbdede2fdbdbfd1f2U, 0xbdf9f529bd62b19cU,
  0xbcb01ad33d030c22U, 0x3b0184ae3db14628U, 0x3dc1d34fbddc073bU, 0xbdbc6f60bb232c61U,
  0x3d7ee517be045977U, 0xbcc058c4bd34fa74U, 0xbd02eda33cf8944eU, 0xbd291e7a3c5e60b7U,
  0xbad0ca93bdd1a26fU, 0x3ad2088ebda668ffU, 0x3dc1631a3ca33876U, 0xbd51e88abdb3cd6aU,
  0xbba825fcbdca3ad2U, 0xbdec155ebdc22f1dU, 0xbd6d0fbf3d9b2088U, 0xbdf49205bd67bbcfU,
  0x3c86324cbd95ab8eU, 0x3d9366dabddb3b78U, 0x3d39c478bc16e09dU, 0x3d321b55bc31b326U,
  0x3db62a3b3dbb9712U, 0xbbe72790bddf3033U, 0xbc5fcdbfbb01f114U, 0x3d735bc73dc0a91dU,
  0xbc3a870c3dd0a05cU, 0xbc9fcf623db1b39fU, 0xbc9e78e73c88d707U, 0xbb784725bd5171eaU,
  0xbc891e3fbc4b97f8U, 0x3d8ad16e3cd2a2ccU, 0xbde100cebb93913bU, 0x3d1f60cc3bb614b9U,
  0xbdb23a203d57fd2eU, 0x3d965181bdcb068aU, 0x3d3354c03af36c04U, 0x3d8e82b4bd19fa3cU,
  0x3db10a53bc50843bU, 0xbc3789333da6bd2eU, 0xbc9e3dc43d3f6595U, 0x3dd52076bd9606b4U,
  0x3b8d1016bdce3378U, 0xbd9133a03cc1175dU, 0x3dcf1abd3c7efd07U, 0xbd1d2c123d2f654eU,
  0x3c95a5073d4b712bU, 0x3db1af83bcb5150bU, 0xbd2c376b3ceb5ee0U, 0x3d091f85bd28112bU,
  0xbd7f627cbd69393fU, 0x3da6e9acbdc3355fU, 0xbc88ef243d80004fU, 0xbc0881a2bcb3643dU,
  0xbd973fbcbdc87768U, 0xbe0156e03d8869e0U, 0xbd186ae5bc8a224bU, 0x3db5cf96bdbfbc54U,
  0x3db49e013bb5a8e0U, 0x3d84ccf5bd48b21eU, 0xbce33ae03da4fceeU, 0x3dd15a1ebd60bfdaU,
  0xbd0aa4343d307f07U, 0x3d8540fcbd2d53fcU, 0x3c9e97e0bd5f09f6U, 0xbca7f6e0bd8f08b1U,
  0xbda07c793d8c3f43U, 0x3d71f1783db0279eU, 0xbdd35eed3d491127U, 0x3d0a7ddebdbef9e2U,
  0xbdc8f729bdf50edbU, 0xbd4630ffbd33fd3cU, 0x3ab33b4d3d5da97eU, 0x3dceaf48bdddac9bU,
  0xbdf8a4653d442fc1U, 0x3d8611dd3d91bea9U, 0x3d2256033d16423bU, 0x3cff26bebdbcedfaU,
  0xbdb3a4b2bc3b382dU, 0x3d806cb8bda15aadU, 0xbe000596bcce54e3U, 0x3dc29ed5bda018a6U,
  0xbd2ec064bca15a13U, 0xbdd0928bbdc601ebU, 0xbd4ec0453ba5032dU, 0xbd6790d3bd0e93dcU,
  0x3d9382dd3d869f8dU, 0xbd6b64efbd587626U, 0xbb85a6623d729f20U, 0xbd5ef2123ccf26eeU,
  0x3db5904fbd120e6dU, 0xbe01d799bd106060U, 0xbd2192f1bd92028aU, 0xbd74c3babd0ba063U,
  0xbd8c3ba6bd6395bfU, 0xbcfcf7833b73a2e2U, 0xbd57ef193d1adfedU, 0xbdeda98dbd3aed32U,
  0x3da31f353cd0cfbfU, 0x3d8361613d47a252U, 0xbdc5b442bd878c28U, 0x3baebee5bcdf0d3bU,
  0xbdb3ff2bbe049387U, 0x3d0edc0c3b01c66eU, 0x3d89dae3bd91161bU, 0x3db840833da9d0e1U,
  0xbcd3ab8a3d1be20aU, 0xbce6d3c93b4f9f74U, 0xbd6cd6e4bd732174U, 0x3d2f202e3d5857d2U,
  0x3c6a2020bd5018f7U, 0x3db78f32be0282f6U, 0x3d7b19c23d14ea8aU, 0xbddd2c04bc902f7bU,
  0xbd8ae341bdd3fbc8U, 0xbbff13193ccf1bd7U, 0x3b1e1f4bbb70e4c4U, 0x3dcfaa183d5a56b2U,
  0xbcd06fe5bc24e225U, 0xbdee0035be001ef2U, 0xbc405de93d4dd0afU, 0x3db79b4d3d4de621U,
  0xbded2ae7bd12acc2U, 0x3ad845a73d438b57U, 0x3dce9156bd9d6effU, 0x3dbd5b033c57d344U,
  0x3d7e90dabddfdd6eU, 0xbd3ee5223da176a1U, 0x3d7a4dc5be01bc51U, 0x3b5fd6e1bc9ebf86U,
  0xbd86657b3d4276d5U, 0xbd9377b43da4feb8U, 0x3d4e730dbd70a9c1U, 0x3b93f09fbcd4736bU,
  0xbb965e71bdf80ee5U, 0xbc60f89bbd3e1fd8U, 0xbc45f05a3d3efbd9U, 0xbc7b08653d768507U,
  0x3cf92e653cdf04edU, 0x3d29c9fb3d972724U, 0xbd7a6a143d301a69U, 0xbdd3fc543d4301a4U,
  0x3da2969bbe05220aU, 0x3d27a4ebbdc5b955U, 0xbdae1ec23c0925f1U, 0xbe038a903d803e3bU,
  0x3d5779403db9b947U, 0xbdd3c0b2bc11bc8dU, 0x3d6ab967bdc6791bU, 0xbcc0cb12bde54932U,
  0x3daf0e7d3c4fff79U, 0x3d70eca73d9e1bd0U, 0xbdc883a8bd2e25a9U, 0xbd86aa123c4fb473U,
  0x3da459e1bddc7790U, 0x3dc7cc04bce95fb2U, 0xbd82899abdeea778U, 0xbdc33347bde8f6d6U,
  0x3dda8162bc6bcbfbU, 0xbd54077fbcda254eU, 0xbd6390f23c67869aU, 0xbc1d50c7bda7a7fbU,
  0xbd535cf33dd665ccU, 0x3c03e6d53da1f507U, 0x3a9729543d0c6f2bU, 0x3daf8a0bbdccabccU,
  0xbdd063d1bdd8f88cU, 0xbd60e8093d6aeb08U, 0x3dcf663cbaf72cdbU, 0xbda422b23c9d69f6U,
  0xbdc3a3bf3d2bb73dU, 0x3c4be0c3bd993cbeU, 0x3c85c123bde4fb0eU, 0xbd673aee3cc41b7fU,
  0x3d44720e3de10dcaU, 0x3d189895bdb5bd20U, 0xbdd9c4013d7870c6U, 0x3ddf19963d6323c8U,
  0xbd30298b3d1003feU, 0xbc9e4515bdd019ebU, 0x3dc28984bd4c9cc4U, 0x3dde8bc13d46a6a9U,
  0xbdaf05adbdc827e3U, 0xbd82f047bdb564a8U, 0x3d44d7c0bd42c3dfU, 0xbbea7645bd1ae200U,
  0xbd0d83f4bd8041b3U, 0x3d020225bda5555eU, 0x3dcc41403c703914U, 0xbc21e828bd0ae910U,
  0x3dc411823d6b8ba1U, 0x3d047b88bd2ffe56U, 0xbc1942fa3c86086cU, 0x3d3c3d77bd52db67U,
  0xbc1748f03d849ea7U, 0xbdc12321bdb5e5a7U, 0xbcdd0bb53c8ae834U, 0x3ddfff83bcca7c03U,
  0xbd390ede3ce2752fU, 0x3d4d03bc3dd59f10U, 0x3d9886893dab952aU, 0xbccac012bdcafef2U,
  0xbd661c2f3db80e12U, 0x3d73c6d5bb02aa3eU, 0xbda81d1dbd28f329U, 0x3dc0b5ef3c7c4375U,
  0x3d9a883d3cbd0272U, 0x3d5571cc3d320c83U, 0x3ca6c951bd8fc558U, 0x3daf9accbb9bbbe9U,
  0xbdb587d63d879a98U, 0x3d945d7dbdb819a0U, 0xbdd9f0af3daacf24U, 0x3dc179f0bdac7d69U,
  0x3db42ff23dca93faU, 0xbdea05b5bd8a985eU, 0x3d443f32bc97ef84U, 0xbd5befe3bb412c85U,
  0x3c6f902f3d6a2852U, 0x3d95993abcd627a0U, 0x3af1015ebbb22d27U, 0xbd4a7682bd884b42U,
  0xbd4c44c7bdfbe41aU, 0x3d178cac3c9e1a76U, 0xbca56881bd167e1cU, 0x3d91fcb83dc6c967U,
  0xbdd50355bdcfed02U, 0x3dbf0b55bcdc4d4fU, 0xbd39ddf33d9a9818U, 0xbceea0363d9a6d23U,
  0x3d224d90bc984f44U, 0x3c9abe17bc19809eU, 0xbdeb4532bcd361cdU, 0xbda13029bd8dbe5cU,
  0xbcd984a33d014bedU, 0xbd9f697f3dbc5a18U, 0xbd8d996bbd9a9bfaU, 0xba93ea2f3d7360faU,
  0x3c9d8ec13dc14c54U, 0xbc75bd7f3c325e4bU, 0x3dc6b8eabdb9ae6cU, 0xbd3885d43da54b89U,
  0xbd4e5d5dbd9102f4U, 0x3d917c5b3d5f1778U, 0x3db05594bd7f8659U, 0xbc6541d73c7d024cU,
  0xbdd2d67e3be842a6U, 0x3db5e049bd0e4d38U, 0xbdf07985bd80611aU, 0xbc977a77bcf40df1U,
  0x3cb2494d3cdc93ebU, 0xbdd85c22bda74deaU, 0xbd1a57f2bb430a03U, 0xbdc24efdbdaee387U,
  0xbdcce83c3d00bd24U, 0xbc80183c3cfebe7eU, 0x3d3129443dcda828U, 0x3d23d05e3c054cb5U,
  0xba70109abd8441ffU, 0x3cd7a0aa3b95891dU, 0x3dc51f8f3b245635U, 0xbdf383103d8f5283U,
  0x3dc29d2dbd966b2dU, 0xbdab10f7bb933776U, 0xbdabbf1d3dab6667U, 0x3db0a64cbdf52fe5U,
  0x3d78d4493d394397U, 0xbd6062d6bd989701U, 0xbdd7924b3dcdcc8dU, 0xbd0d632cbd3e2c8bU,
  0x3ddd557e3d3c6c49U, 0xbdf6d1e73ddc8cffU, 0xbd2515bcbcaa894dU, 0x3d39c8093dd8f926U,
  0x3c7d0f4a3db69f68U, 0x3d990c47bcc78e90U, 0xbdde9680bd3dbc69U, 0xbcba0facbd9572bdU,
  0x3d86c936bba1767dU, 0x3d4cad393d16374fU, 0xbd90f02cbdc471cfU, 0x3c06add2bd7a4757U,
  0xbd017bf03d40c019U, 0x3daf798cbb9b91ddU, 0x3d774f773aea0c57U, 0x3d0ec5fabded0876U,
  0xbd12fb1d3d307ce9U, 0x3c368e54bd062c5aU, 0xbd9871c03d624dd9U, 0x3d92661d3c91f057U,
  0xbd10955ebdbe9dbeU, 0xbd43cdb33d9a2bcdU, 0xbd2fe717bca1c434U, 0x3ce5fbbd3d68eb37U,
  0xbb0cde2d3d5b9c3eU, 0x3da35fbc3dde8c8dU, 0x3d923ff5bdaa43dcU, 0xbdcaf3b73dc33f25U,
  0xbd562e26bc9152f1U, 0xbcfd5d41bd476e1dU, 0xbded79c6bd528c22U, 0xbcd0a1393dac12f7U,
  0x3d97e850bcceca22U, 0xbafb2bf13dc07740U, 0xbb792c6ebca8fe60U, 0xbd250e4e3dbc2dadU,
  0x3dbcbfb93cf62aa2U, 0x3db6296cbd6085e8U, 0x398946debd1b7f97U, 0x3c58ad3e3cb7ea64U,
  0x3cd601153d7d53c1U, 0x3d4fc915bbbf93b6U, 0xbc29662d3d16a69cU, 0xbd9a8a70bdec69d2U,
  0x3cc223a33d76c4c2U, 0xbdedc2513db6a3a4U, 0xbdc77d433dc6d96cU, 0xbd380d39bd9b0fbbU,
  0x3d120516bd8ee2aeU, 0xbc874c253dd48293U, 0x3d3c7adfbd512900U, 0x3ddfa573bdba54aeU,
  0x3d9386943de2e6f3U, 0x3ce9c5acbdd430deU, 0xbdc534173bb081aeU, 0x3db658043c57d5dcU,
  0xbddf65c0bd60e6a0U, 0xbd11b7c0bd591de1U, 0xbded23593d26d03bU, 0xbd49a85ebdfceb12U,
  0xbda239493de131d8U, 0x3d17f9adbd4f23eeU, 0x3ca246663dcad696U, 0xbdef401ebd86f6d9U,
  0xbca953533ca34108U, 0xbdda035e39b5035fU, 0xbd34b8c53d931cddU, 0x3d31779cbd2a3f0bU,
  0x3ccbd3cc3dd1e7a1U, 0x3d27ee143d79ad3dU, 0xbdceda75bd6dcd07U, 0x3d6d8931bd7cc6e5U,
  0xbdd45b633cef80adU, 0x3d4d20e83bfd7c62U, 0xbd97e2653de5ef44U, 0xbdeefcd0bd390b05U,
  0xbd5ece95bbcb4510U, 0x3d977babbd5c1cdaU, 0xbdb1eabfbde8a830U, 0x3d828c333d70bd7dU,
  0xbdb52b8b3d6f5bc6U, 0x3a7d201c3db5ced2U, 0xbd80fe1b3dcc9e47U, 0x3d7606523c243d1fU,
  0xbd453414bccde2b6U, 0x3d2e59d43daec76aU, 0xb9f369543dc4436bU, 0xbccbf22dbcefb7a0U,
  0x3d1cf7c5bda715a0U, 0xbc92cfecbd5568a4U, 0x3d94f674bdfb9774U, 0xbbf2d31abd61c64cU,
  0x3dd58ad43d2ce1c1U, 0xbd0cacc63de78499U, 0x3cba17a53dd87b4dU, 0x3c7c2d87bbffadc2U,
  0x3c58af00bd807727U, 0x3db10d8c3db0850aU, 0xbd1792b6bdf31b35U, 0x3c459fa93d7d8c3fU,
  0xbddac639bd4e1eebU, 0x3d964ccfbc1aa0e7U, 0xbde69f653cc77ec8U, 0xbde6e81fbdb05c72U,
  0x3e0f864e3dbe684bU, 0x3deaceab3dcca5b7U, 0x3db2107e3dcc1b4eU, 0x3da7ec9dbde42f8fU,
  0x3dac0307bd33641cU, 0x3db08c613d9cd7f6U, 0xbd83879c3d3f2e97U, 0xbda939b63d9a1ec5U,
  0xbdaefa74bd421aa9U, 0x3ca897423dc1f60dU, 0xbd95a8c83d95d1ddU, 0xbc9f72583d8d8a13U,
  0xbd73baa83d983fdfU, 0xbd84ebecbd9fd0f8U, 0x3c807b22bd4a4c00U, 0x3d18ce4b3da344ebU,
  0xbd8daa22bd4547deU, 0xbdafafc4bda63871U, 0xbddd7aaebd493896U, 0xbdb127d0bd16783aU,
  0x3d5c64de3d184f49U, 0xbd8c52a2b9c38cffU, 0xbc3d76973d2383fdU, 0x3d92f28dbd8e26bbU,
  0xbdc97f3a3c69e0b6U, 0xbd2bfeb6bb000b96U, 0x3d7ca1893c5221cdU, 0x3d774e34bd9270d8U,
  0x3db433eb3c4168b2U, 0xbce67c933cbe5938U, 0xbdb20b0fbdb192a4U, 0xbe1340e03b9342a3U,
  0x3dbd8a563da8e577U, 0xbe0303753ac00a8dU, 0xbda90581bd3b3122U, 0x3d428c133d8c308cU,
  0xbc8a6c503da67118U, 0xbd9e9c34bd58acfbU, 0xbc836fc2bdbb0f28U, 0x3c2bbeda3da45f7aU,
  0xbc7738a7bd8d5454U, 0x3df180da3d2a6af3U, 0xbdb088f2bd611867U, 0xbd52c6ddbd993ed5U,
  0xbdfb44183da618b6U, 0xbce5e0a73d60bb1cU, 0xbdeaf6583aa071f3U, 0x3c6b1e6dbe16cc8bU,
  0x3b9b8152bd13db73U, 0x3d91cd903d9780d6U, 0xbd716ce5bdbf5994U, 0x3d888ec23db52790U,
  0x3dc28ea43e00acdbU, 0x3d0ab5593de0ce65U, 0xbdff68823d347c9fU, 0xbd5f1c3fba10ab53U,
  0xbdae4651bc829318U, 0x3c12dc293cbdba92U, 0x3c92d890be02a08dU, 0x3da6cd86bc1b5512U,
  0x3cbed62ebd2e8afaU, 0xbd9be166bcd91f46U, 0xbd0f2888bddfb437U, 0xbd7e33b63c94a769U,
  0x3d800cdb3d38ac1dU, 0xbd9bc85f3debbf14U, 0xbdabed963d1e4e18U, 0xbbfbc6d1bc7ce982U,
  0xbdced73e3d0b780aU, 0xbddcca433d32890cU, 0x3ca122243d36a996U, 0xbd94e34cbdfc3e55U,
  0x3d4a08ddbdfab124U, 0xbd342056bdd8c490U, 0x3ddd0ae53dad064bU, 0xbd684165bde9a695U,
  0xbd5de477bd221bebU, 0x3dc0652e3de91887U, 0x3c2a770ebde326d8U, 0xbc8f4b6d3cbe7900U,
  0xbc857d50bd54b811U, 0x3d147a163bdb0b2cU, 0x3d810d6f3dcfb6e8U, 0xbd2b7434bd9f043dU,
  0x3ba83bac3d90a52fU, 0x3d8377f1bcab462aU, 0xbdd7eb21bd01ba6bU, 0xbde5cd1fbdbcbe78U,
  0xbd08893c3daea884U, 0xbd20dd67bdd27578U, 0xbd599d153e0d0428U, 0xbdde82a6bd813279U,
  0x3da13a44bd381b3eU, 0x3d6be1c8bdb9ad44U, 0xbcb0f3b5bc0b0f19U, 0x3d8d6d443d86f420U,
  0x3a0e7f8ebdd026b3U, 0xbd660b373c17abc2U, 0xbe06dcdfbd8103feU, 0x3d5c77dbbdc02924U,
  0x3d589d5ebd887260U, 0xbb8ab95cbd83437fU, 0xbda5e0813dbb5dbbU, 0x3db738bfbde97af7U,
  0x3caef7f33d1b7393U, 0x3c76d8c0bd569653U, 0x3ddcfe2cbd98c90eU, 0xbdcc09483d13b524U,
  0x3e0798c83d54873aU, 0x3c5cd9f53d95d67aU, 0xbde078933dbd85e9U, 0xbded24d93d213089U,
  0xbe017df3bce0eccaU, 0xbc3b8788bc8a58dfU, 0xbd9d4d5fbd7c13dfU, 0xbc2dc660bd484f0bU,
  0xbd9631903e139dd6U, 0x3d4e5adc3d9ce9dcU, 0x3d54f0aa3dc0c520U, 0xbca90886bdc53f53U,
  0x3d9174aabd27b461U, 0x3b65972fbcec10ccU, 0x3d81569b3a29752fU, 0xbdf45d463d506376U,
  0x3d28e1fdbd87d418U, 0xbd8056b8bd36847eU, 0xbd505827bd40172bU, 0x3bb704793d4633adU,
  0xbdc213efbdd2d6fcU, 0x3ce3b0ec3dd748cfU, 0x3d3a36f2bd575ff5U, 0xbdcc8d7cbd396d9cU,
  0x3dce42323de1c177U, 0xbdcb2ca73d378c18U, 0x3d768b4f3d16185aU, 0x3d057e4cbde094abU,
  0xbdb2050cbd93bc7aU, 0x3d094366bc11db06U, 0xbdacc248bd8599f1U, 0x3da691cebd992a8bU,
  0xbd88653bbdea7e7eU, 0xbd46584bbd0c6415U, 0x3df8bd2fbdc55d4eU, 0xbcbabcfe3dc233b4U,
  0xbdb2b843bce5ae2aU, 0x3ded14343de3d2deU, 0xbcaa9429bbbdd8b4U, 0xbd3d8a1ebd54cd77U,
  0xbde0eb9f3dc46f7fU, 0x3d98612fbdc5479eU, 0x3d85fd4e3d55503fU, 0x3c76c351bdd56e3bU,
  0x3d8bd9393d150dfdU, 0x3e0d1dd03d80f698U, 0xbc4fb7c73d99ab23U, 0x3ce8b9a9bd5e7fdfU,
  0x3d4ff991bc817209U, 0xbdc12f91bc830090U, 0xbd25c39b3cb476b2U, 0xbdb6361a3e05bd62U,
  0xbd711573bd8fdc88U, 0xbd73edec3d98d4c9U, 0x3d1b365b3de02241U, 0xbc8c41923e0557e8U,
  0xbdbabaee3def172fU, 0xbcd48f343ddefdefU, 0xbc574aeabb90b27aU, 0x3d89e731bd1b5766U,
  0x3b41fda43d5b8633U, 0x3d4a3917bd44ec4dU, 0x3d939ea7bd554d01U, 0x3c8b03453df4a26dU,
  0x3dffedfb3d196309U, 0x3c965e78bd3d5464U, 0xbc62050bbd2316b7U, 0xbd9d3aadbd7b213eU,
  0xbc63440bbc8536a5U, 0x3e01b4f03cc7a97fU, 0xbd37f3c53da99f0cU, 0xbdac8bb63e0df36fU,
  0x3d47445cbda2a314U, 0xbd6419093d95e2c4U, 0x3ce1ec8dbd48c1fdU, 0x3d2946c43d999cddU,
  0xbd16845c3e1ec0d6U, 0x3dabc86bbc919d85U, 0xbcb66969bd07d7d3U, 0xbc34b2463c958d9cU,
  0xbd20ff2c3d87c0c4U, 0x3dbbd86ebcd7603aU, 0xbc3c60aa3df87c61U, 0x3d811fd0bd766187U,
  0x3d7949b73d294dc7U, 0xbe0ba6aa3d11f8aeU, 0x3d51f30cbcd0d98fU, 0x3e0fd5bcbd4ad4f0U,
  0x3e0b89e6bd4c9051U, 0x3de7748dbdbe403cU, 0x3dbd447fbd39c448U, 0xbd9e48de3dddadadU,
  0x3d97f70a3dfeb46fU, 0x3e091b8c3da4d7c2U, 0x3dfdf1dbbd1eb112U, 0xbd755b013d22f7c0U,
  0xbcd390df3c52a8b8U, 0xbd48385cbd8eb210U, 0xbd841b483d5bc46fU, 0x3dfa97aebd44ff68U,
  0x3d186023bdab6c0bU, 0xbbf4ca56bdcd3239U, 0xbc377be1be0137dcU, 0x3e0e9301bd9bebb4U,
  0xbd9f7f9cbd989768U, 0xbdab855a3c25037dU, 0x3cfdda0a3d4e82a8U, 0xbdb8e8c7bc2b4a00U,
  0x3e0a503ebdb14d28U, 0x3d4c74c43cc41c17U, 0x3b184fcd3da8d95fU, 0xbd5ff6e6bd941414U,
  0x3db7f76c3d2da696U, 0x3bbc3c513d7b1867U, 0xbd493b053d19c732U, 0x3b7afdc23e06edc6U,
  0xbcef77223d896640U, 0x3ce63a683cee9a84U, 0xbcdfb5953df48b0cU, 0x3db7a5983dbe3fd8U,
  0x3dbace5a3dc79941U, 0xbc5111bebd5e1179U, 0xbddbc1d4bd90d248U, 0xbe0806513d86e5b3U,
  0xbc14535dbca4a7c4U, 0x3db091f73c60b6eaU, 0xbd0b9a13bd150a08U, 0xbd7e71db3e01a7c1U,
  0x3d573fa5bb945081U, 0x3d1f8c3fbdb9d933U, 0x3c78ae9c3d7dae81U, 0x3e07b59f3d6b6533U,
  0xbda2a92e3c9420f0U, 0x3dfce81d3dad1927U, 0xbc9431e5bd2a60f1U, 0xbd44917dbda14533U,
  0xbde1ef213cc81a58U, 0x3d53eb42bd1d26f0U, 0x3de059c83c5abc49U, 0x3cbe4a673da0ade8U,
  0x3dd8de7bbcf2cf37U, 0xbdaa92653d56c778U, 0x3dfff8483e0c170aU, 0x3df628003cca7c12U,
  0x3b6e44fe3c5c87c2U, 0x3c6709453cfdf301U, 0xbd5ba7773d5700d2U, 0x3d8bb7e8bce877caU,
  0xbcdf2eb83daacb44U, 0x3d1e72383db56621U, 0x3d9f4494ba25868dU, 0x3d918e803d2c9e3fU,
  0x3d475c8e3dc306c1U, 0xbd97d5b8bd260718U, 0x3dd17a01bdab0025U, 0x3d9d82cf3d32cc12U,
  0x3d2410ee3ae30447U, 0xbdba20d23e0fbd46U, 0x3ddbd7983dd21a1fU, 0xbd28319b3cab22d8U,
  0xbc3eae7d3e0ecc7bU, 0xbdb353453dd4533bU, 0x3d7bfc9cbda48176U, 0x3d8c804d3da5dd31U,
  0xbc70723abd36f680U, 0xbd5380acbbf7d113U, 0x3dd67f2ebd9e84f0U, 0x3debdade3db435f8U,
  0xbd9f189c3d86c8b4U, 0x3d724913bd088ec2U, 0xbc9584013dbb3a46U, 0x3e0a7787bdb839efU,
  0x3bacec0a3dfa7e50U, 0xbd984b4cbd0b758aU, 0x3da8bfc3be050824U, 0xbd6479b4bd7e1f92U,
  0xbd1036d93e0391beU, 0xbd9c04b63e0b41faU, 0x3d979662bbe02a30U, 0x3d070258bc3d5294U,
  0xbd979335bd0c4b83U, 0xbdb4465c3bbf1d9cU, 0x3d9263c13d8abbcaU, 0x3e02266c3e0225f6U,
  0xbdaca21fbc1b8b56U, 0xbd0a2a92bcf69d0aU, 0x3e0eca1d3b9ba9d6U, 0x3d58547a3dab0871U,
  0x3ce7ac513b56be56U, 0xbda464f3bd8fbac4U, 0xbd8ab8653cda3fadU, 0xbc5d4f413b2b29e3U,
  0xbb5f16b23c13ce6fU, 0x3e03a76cbc46f21cU, 0xbda1f62c3beb90b9U, 0xbca786b53ba328a0U,
  0xbd2e6c873cfeb3a6U, 0x3d69c9b33c27ae7cU, 0x3dec3e863cb74a77U, 0xbc8ad5e63db0bfa4U,
  0x3c6413383d635591U, 0xbdf8897e3b8f31b3U, 0xbd999dde3d26285aU, 0xbcc5e7b6bd323668U,
  0xbd81d509bcac5205U, 0xbd18ad03bded2214U, 0xbd7f34ae3d1ddc58U, 0x3cad63ab3df1977bU,
  0xbb6708dc3d901221U, 0xbd08d75fbd10ef1fU, 0x3d9681be3de84202U, 0xbd8a84733cd3dc28U,
  0x3d9b551f3cc34367U, 0xbd93ceebbd8456f1U, 0x3dde86073d04ee93U, 0x3d4527803cb76012U,
  0xbb7cb9d53d36960dU, 0x3d4b2a5e3d160443U, 0x3de838c7bde2f7bbU, 0x3decbd663dfdcc91U,
  0x3da64bcf3d95c9a5U, 0xbdcd5ec23dd16fdaU, 0xbcc3b279bdcbb6f9U, 0x3d06310ebd5f9904U,
  0xbda919bd3da4912cU, 0xbd78197e3d15e5f0U, 0xbd50eb89bdb78f66U, 0x3d2643073dd6b257U,
  0x3ce9f41d3c447527U, 0xbddcedd7bcd3f896U, 0x3d65e709bd693592U, 0xbcb5c3623d1ac282U,
  0xbd9b0c1b3d8d875cU, 0x3dde1c8c3d3a5d2cU, 0xbdb23b9abcf11ea9U, 0x3dd6ba7dbda07b78U,
  0x3d45af113b95663cU, 0x3da48bcfbdd2e587U, 0xbc8cd1f93d1b18e1U, 0xbd3234833cb0c5d5U,
  0xbb651440bd688fadU, 0x39ae6600bde0a4c2U, 0x3cedaa1cbbbefe30U, 0x3d27513e3dd86badU,
  0x3db94c633dde21d9U, 0xbb39dc203d021046U, 0x3d2b3352bd8ff182U, 0x3d8efeff3d8079a5U,
  0x3c914d24bdc8c4e2U, 0xbdbc3b3cbd3c8c4aU, 0x3d530bb6bd0112b0U, 0x3d9715d1bc9fbdf4U,
  0xbdef855bbd6e28f0U, 0xbd3a40223de198ddU, 0xbdade8823d1639f2U, 0xbcf3cb50bd49e42cU,
  0x3dba19b3bde146ccU, 0x3d5a87de3dece56bU, 0xbd9cf340bcec690cU, 0xbd5ea09e3d19bef6U,
  0xbc8f2648bdabb3e5U, 0xbba7a830bdb8dca1U, 0xbc89e8883d7c2a32U, 0x3cdcbd7c3d426ddeU,
  0x3d2c5a2eb9e04c00U, 0x3cf432ac3dbe074bU, 0x3dea118b3d117f1eU, 0xba34ae803d7c7dcaU,
  0xbdeedb5ebdcefcc6U, 0xbc404a18ba3caa00U, 0xbdd0f3173dcfd17dU, 0xbd6ae11abd773f7bU,
  0x3dae1b333dbf072dU, 0xbd2586fcbc8d3fccU, 0x3d57aeb23d27b44eU, 0xbd4c8ec83db0f5dfU,
  0x3dd4dfabbd9a8da9U, 0xbc197ae03db22b1dU, 0xbdc210e33cb5fb24U, 0xbd58f11abd53860cU,
  0xbccad698bd1631a8U, 0x3d77fa32bcad49d8U, 0x3d596db63d4acf4eU, 0xbde5d3893c14c4b8U,
  0xbdc9651ebd657e92U, 0xbca88e6c3ab13f40U, 0xbbf61910bcbcf088U, 0xbd2e28623daa370fU,
  0x3d61f61e3da90fbdU, 0x3dac15e13c2847c8U, 0xbdcc1f3a3bf2fa80U, 0xbdaa9af4bda93ae0U,
  0x3d001882bc26c270U, 0xbcff3e543d627632U, 0xbb2664a03cc11e04U, 0x3d86398f3d95635dU,
  0x3d997de73d9a332fU, 0xbb248b00bd34f4c4U, 0x3d8c60413d228f56U, 0x3db593773d2063b6U,
  0x3dd83863bdaef158U, 0xbdd83fb0bdc63287U, 0xbc28bec03d3d0346U, 0x3dc80b11bcfa0e44U,
  0x3de2b0b93de29d29U, 0x3d13f23a3d283ed2U, 0xbd2f34e8bd60f3ccU, 0xbc4a0978bda24ec8U,
  0xbd9bf856bdbc5ac3U, 0x3d350c563de1151bU, 0xbd23391ebdb16c32U, 0xbddc89d23d438e3aU,
  0xbd11d77a3c0a6978U, 0xbbce6510bc81a428U, 0x3d1f75ba3ced60dcU, 0x3da16a75bda7bedcU,
  0xbdd872383c24d5a8U, 0xbddfa40ebdbb8904U, 0x3cdac58c3da55459U, 0x3dcbe1293bff83b0U,
  0xbd24d5f8bd81a253U, 0xbdae61c4bd66b1b0U, 0x3db244fbbd1a9d2eU, 0x3dc2f1cdbd9b137bU,
  0xbc0890c8bc83911cU, 0xbc8da954bd9fabecU, 0x3c248248bc8a61d0U, 0xbddabf343bae9240U,
  0x3de907e33d801559U, 0x3d841377bcc0cec8U, 0xbdb70c53bd175fa8U, 0xbbf9dba0bdeef4edU,
  0xbd15c8223c3c5768U, 0x3d7221da3d4c492eU, 0x3d2db332bc90446cU, 0xbd8d19783de5a209U,
  0x3ddf3de7bd4ca4aeU, 0xbdd3d10c3cfcab7cU, 0x3dd7eca93d5c8b8aU, 0xbd36928e3dcb62c3U,
  0xbddc0e9cbda38556U, 0x3dc1b0f53d9c576dU, 0xbd4feefe3d8c15edU, 0xbd3617f4bc45f3d8U,
  0x3c392f98bdb4abd6U, 0x3d8899813cad2f14U, 0xbdc4ca0f3d3e08eeU, 0x3dc7d9b3bd9d7dc9U,
  0x3d010c563cb04f84U, 0x3d909ac73d371492U, 0x3b3338e0bde0811aU, 0x3c78e4a83d00d7baU,
  0x3cea368c3de6f77dU, 0x3cb40434bcf06c74U, 0xbd75c8853d84fa6fU, 0x3d5180c23d09c2aaU,
  0xbc8a84cc3d547496U, 0x3adcfc80bd71e754U, 0xbd93aa003d7791caU, 0x3d9d0da5bd342cacU,
  0xbdda2325bc4edc10U, 0x3962fc00bd3b775cU, 0x3c0787c83dafd2ebU, 0xbdbf838bbda84289U,
  0x3d61bcfa3c6ce788U, 0x3ceb164c3d71f0beU, 0x3c3812b83d7d7336U, 0xbdde2a11bd205022U,
  0x39e86900bd861342U, 0xbd9b16463d9d731dU, 0x3c676488bcccdda4U, 0xbd77ba34bb90a320U,
  0xbd82a47cbbd333e0U, 0xbd7bfd933c70d7a8U, 0xbd6a5363bb1a0600U, 0xbded2d3bbd872374U,
  0x3d8f853bbd2823ceU, 0x3daadae33d52a472U, 0xbd9e2d9c3dad7a79U, 0x3dce8f4bbcee28acU,
  0xbd8bbb4ebdb06e64U, 0xbd8fe0d33d870e4dU, 0x3df08cd3bda37e5bU, 0xbd599e163d396376U,
  0xbd71d5b13dba524fU, 0x3dac7c47bc119ce0U, 0xbdb08460bdb8da8bU, 0x3c6ed1d8bdd5ef22U,
  0x3dd30b7dbccfddf8U, 0x3cafbd6c3c4546a8U, 0xbdc9a42b3d4b8532U, 0x3de0407bbdbc5ee0U,
  0x3db2bf8bbd7754e9U, 0x3d9cb137bd882f10U, 0x3d291586bd9b7f06U, 0xbdede24e3ddb63a3U,
  0xbc7276d03db85bcbU, 0xbd85cc813da3988fU, 0xbde071e83c9c943cU, 0xbc32c7b83d92f679U,
  0x3c4bfb18bdebd81bU, 0xbda5df053d4bd6b6U, 0xbdedaacebcc08f48U, 0xbdf04138bd5296e4U,
  0x3b936e40bd4ae0bcU, 0x3da9c931bd9e664cU, 0xbbe5dda03d68983aU, 0x3dbe4fa3bdcd5086U,
  0xbdb354e33dd5b5c5U, 0xbd9b9d633dddc9e7U, 0x3c634fd83c1b49a8U, 0x3d714656bda1c5a8U,
  0xbd36b8803d7e245eU, 0xbd9f38d0bd657ce5U, 0x3d7136a23c25d898U, 0x3c335d683c84e774U,
  0xbdbfa31dbc8ca440U, 0x3db13b453dc656cdU, 0xbd89637d3da68447U, 0x3dce0b41bcac3610U,
  0x3ddabef73d007112U, 0x3d9248fbbd666253U, 0x3dbeaf2b3bc23660U, 0x3d5693463d66104aU,
  0xbdd640343d0fa1ceU, 0x3dc405733da2c1afU, 0x3da466273dae32d9U, 0xbdab61973cff712cU,
  0x3ca4d5ccba12a680U, 0x3d09440abd210f42U, 0x3bed48803dbdf7b3U, 0xbcd772803d7a3766U,
  0x3d930ac4bdcb5ba7U, 0x3d6e91db3c76d667U, 0xbd95e2ef3d1a914dU, 0x3ddf2c97bd7d0b9cU,
  0x3cc3ea323da6d37bU, 0x3c3055f8bd1c77f9U, 0xbdca79c5bde4104aU, 0xbdcdb52d3d267ab3U,
  0xbc04c6893da34a35U, 0x3da566313d4eb4dcU, 0xbbbce0023dfd52a9U, 0x3bcf3a0abdf6beddU,
  0xbc0c5d943cc2b9ccU, 0x3d4570ae3ce45323U, 0x3d301e4c3b629d0bU, 0xbd23b9293dbadd00U,
  0xbc0b2d7dbd821439U, 0xbcdc3846bdb34926U, 0xbdcf65683c8b8670U, 0xbdaf17093d1b8326U,
  0x3d329d65bcbfc4baU, 0x3d99e8bf3df9c648U, 0x3cf01211bdd96462U, 0xbd379725bd9826c9U,
  0xbb772ce13d9f1bc6U, 0xbd8678f43d62d844U, 0xbcda05183d8a215cU, 0xbd85fbfc3d65302fU,
  0xbd973166bd491df5U, 0x3bde9162bda66671U, 0xbd9796e83da94c1bU, 0xbcb5aa22bb1d1b7cU,
  0x3a9a8a9f3dd54135U, 0x3ce947e7bdb1d89eU, 0xbdb55cb8bd292318U, 0xbd952d75bca915fbU,
  0xbda46c083d02c9b1U, 0x3ce9d8f2bc60cb0eU, 0xbe055ce0bd9c5cfcU, 0xbddace283d95a2e1U,
  0x3c313a15bce618d5U, 0xbd54ba46bc7bd468U, 0x3c38bf123ca2bd24U, 0x3dd6b2a13c9913eeU,
  0xbdab7924bd8d5505U, 0x3cf637233d7fbd05U, 0xbc972e7ebd4be7edU, 0x3d0ef2b83d72a207U,
  0x3b0faa73bd0a9a93U, 0x3d653decbdbb710dU, 0x3cba51b0bdffec3aU, 0x3c09ae663cf5d5a6U,
  0xbc4da1a8bddd24e6U, 0xbd79d7f23cb52825U, 0x3a6e06693d8f7bbcU, 0x3db1d668bd3da7fdU,
  0x3db3d3993db4d64fU, 0xbb595cc03dbcdb26U, 0x3ddc35e6bcfaa2e2U, 0xbdbc5fc5bd075f6eU,
  0xbd87a203bda1ffd2U, 0x3c8485bb3da1ffeaU, 0xbd6543f93c81f42bU, 0x3c46366dbd8e78b7U,
  0x3db9d4abbc6b145dU, 0x3c87dc213d83ce17U, 0xbc2272533da4710cU, 0x3da69ab13cb007aeU,
  0xbd90ad7dbc21f2bdU, 0xbdc76af0bcf2d830U, 0xbd0c88893c95ad21U, 0xbd1c251d3e09215dU,
  0x3d78fe99bd7bf169U, 0xbd306dd7bca9766cU, 0x3d515fb63c929bb8U, 0xbddd97573dad41d3U,
  0xbcd58a1fbd94a6d7U, 0xbdc1258c3d7b5cb1U, 0xbdbc30303c965d6dU, 0x3e00539ebbb7ae6cU,
  0xbcb871d7bdc1ad5bU, 0x3df0836c3db088f4U, 0x3df65857bd8cc45fU, 0x3c41123f3dad45a9U,
  0xbd9f99323ca93754U, 0xbdc6cc2e3e053478U, 0x3cde6aa7bd669721U, 0x3d93c405bd995cbdU,
  0xbde2ab97bcc58882U, 0xbcc9c1acbddad488U, 0x3c7af577bd5df321U, 0xbd85ef203de628a6U,
  0x3da096553d650e70U, 0xbc8c19b9bdbb4ff5U, 0x3cc24986bc0e6e2fU, 0x3dc976c43cff0b13U,
  0xbda604e63dc2a4dcU, 0x3d1b8f05bdb00e96U, 0x3d94f6d6bdb8922dU, 0xbdaad0d7bc33ac4eU,
  0xbdc54ad7bd25d34eU, 0xbcfe8c8e3da38c87U, 0x3a9b106ebd6bc280U, 0xbd6884903aee87c4U,
  0xbd1575273d54e433U, 0xbdd6a0d1bddc0287U, 0x3c72c4933d3d54d8U, 0xbd8277123e09b50fU,
  0x3b038bcd3da3cb0cU, 0x3da8d7eebda909b8U, 0xbd8c33fb3de3dd2cU, 0xbd9d4cb93c8989d3U,
  0xbd76f55abd58489bU, 0xbd9ee570bd7b2a3bU, 0xbdda116d3da47703U, 0xbdc4282cbc13c697U,
  0xbd9b7156bca5f524U, 0x3d00d7193cd3ba39U, 0x3dafba3bbd8b0c47U, 0xbd3c70d93d4216a5U,
  0xbd58e236bd9cc378U, 0x3dce80a2ba3db7cfU, 0x3c3a0e343ce05855U, 0xbd87ecd0bd8acd13U,
  0x3da499a3bb718175U, 0x3ceb5cde3df14b24U, 0xbd9a9a4ebd006ee5U, 0x3d0a1a593dad5a8cU,
  0xbcdab8e93dd728e2U, 0x3d69237d3cddfe2dU, 0xba9025e5bbdb8ebdU, 0x3da13c44bd50e14fU,
  0x3dec87e63c7b9e18U, 0x3da715083dc9e3dfU, 0x3cb68453bdc931a2U, 0x3d7da4a93da3f862U,
  0xbdb786713dde77dfU, 0xbb49ad663d285eb0U, 0x3dc417bc3c3caef3U, 0x3d173dc83d37283eU,
  0x3d0fe6863da279aeU, 0xbcf1bc233c303ec2U, 0xbc71fe9b3d54b369U, 0x3b5289bebdd87dafU,
  0xbda6e9aabd8b98c3U, 0x3b408801bdf614fcU, 0x3de76e4b3c29346fU, 0x3c6d54373c77cea9U,
  0xbd933d6a3d26b7a0U, 0xbdbe9a3abbfde8a8U, 0x3de60386bcdca670U, 0xbd6ecf51bd15c582U,
  0xbe04f882bd629f61U, 0x3d79e235bba6725aU, 0x3c91acd93cb79146U, 0x3c07990d3de18560U,
  0xbda4993e3d1d06b0U, 0x3d89b5183cddb6f9U, 0xbdc4bcaebc198209U, 0x3d8dd1babcbe18ceU,
  0xbd707ab9bd9197bbU, 0x3cce58523c331a83U, 0x3dd578523c350eb4U, 0xbd8ed8243e0054e3U,
  0xbded6ec3bc353af6U, 0x3b2d0564bdc99a9cU, 0x3d5fe449bd5d5dd1U, 0x3d3b34f23d772e52U,
  0xbdeb059d3cc2ba5bU, 0x3c01a0713d01f948U, 0x3db14a3a3da4bf83U, 0xbdde3a5c3c82eb48U,
  0x3dfb2c833daa21caU, 0x3d7df94cbd04afd0U, 0x3d903981bde61f63U, 0xbd1467573bbbde23U,
  0xbdd34a863dc6b7bdU, 0x3da0d30a3d6b4204U, 0xbdffa19ebdec2b25U, 0xbda05bee3db2f4dfU,
  0x3d42f0c3bd7f38bdU, 0xbdafdcffbcc53d58U, 0x3cf19b89bd3f364fU, 0x3df4c426bb114784U,
  0x3de567663db71c2aU, 0x3d964f1c3d076c45U, 0x3da58f2f3d853639U, 0xbdaeac68bced39e4U,
  0x3db285373ddf704fU, 0xbd6bb1d43ce1896eU, 0x3da45e5f3c389352U, 0xbdf552f5bda05cb2U,
  0x3ddeb6bbbdb30064U, 0x3b0e05e03a1e9780U, 0x3a757c00bdc7619aU, 0x3db600e33dbe6141U,
  0xbd1ea15abde0b0e6U, 0xbd18cec63deb4c49U, 0xbda4c0703c887e84U, 0x3d1b60debda2e014U,
  0x3dd51af93de1e7a5U, 0x3dca15793db555c1U, 0xbdae520a3d03cf66U, 0xbda9c7483cb5acb4U,
  0xbd1ab28ebc5e17f0U, 0x3d60f702bde5a289U, 0x3dc4ad353d8c1f6dU, 0xbdab97d63dd510f7U,
  0xbdb509a6bd298b6cU, 0x3aee49003cf1ddf4U, 0xbdc20f1c3d2041f6U, 0xbddf31e2bd7d304fU,
  0xbd4df52a3bf02fa0U, 0xbcd912c8bd1f1470U, 0xbd9a725abdda2e10U, 0x3bbebbe03de9693bU,
  0xbdd270d73d4d554aU, 0x3dba1c1fbd0db52cU, 0xbd90475ebc714170U, 0x3b973410bd753c4fU,
  0x3cda3cacbbfde870U, 0x3d87785dbdebd12bU, 0xbd69a7aa3c230ac8U, 0xbdf02188bde8a5d4U,
  0xbd2630dabb44efa0U, 0x3cd64654bdea37ebU, 0x3dd909bb3d7f409eU, 0xbd960b6e3cae10f4U,
  0xbcb8da203c732f28U, 0xbce880a03d9462cbU, 0x3dcbec7d3c9f9aecU, 0xbdefdcac3b8a2580U,
  0xbdb904b2bc40e258U, 0x3c8f794cbb239240U, 0xbda8e6c83dad08f3U, 0xbc8915b43cdb87acU,
  0xbda002d73ca87924U, 0xbd8c169a3dc23c99U, 0xbc8ade643d93e477U, 0x3deb1ce33d1dd1faU,
  0x3c954dbcbd54ef2aU, 0x3dd2b79fbd0bd40aU, 0x3d41e99ebaf03e80U, 0x3d86e4f9bb935a80U,
  0x3dd6fb6fbdcddf69U, 0xbdd0a831bda7d00bU, 0xbc9b1110bd792ea3U, 0xbdbcfa33bc65e4e8U,
  0x3dd2ac193d06b496U, 0xbdd6acb33d474382U, 0x3d6b23ea3d6f11e6U, 0xbc921e9c3d968189U,
  0xbdb9095abda1c6dcU, 0xbde2f23a3d06b986U, 0x3be720803c71e7f8U, 0xbcfab73c3d14f056U,
  0xbd464d52bdafd645U, 0xbcbd88cc3dde7e81U, 0x3cce015c3dc3b397U, 0xbd2115a43d2170b6U,
  0xbdc5439fbd58735aU, 0xbcdce9fcbc988ee4U, 0xbd183c2e3db76741U, 0x3c2423a83daa73a7U,
  0x3bd9a2703c02d348U, 0xbdb431a0bdaddf84U, 0x3dceeeaf3d36fe86U, 0xbdaa5702bd8bc99bU,
  0xbdca54543c9a7bdcU, 0x3d0cd0223cd01e2cU, 0xbd01e04ebddb275dU, 0xbda637dabd718018U,
  0x3d74149a3d55b2b2U, 0x3d9f98f5bd162decU, 0x3da72e493dd6b309U, 0xbb3e8ec0bd307fceU,
  0xbced6e24bd6784beU, 0x3b849f003d9ddf83U, 0xbdb33ecc3cc64e8cU, 0x3d9d85edbd5939daU,
  0xbd5bfde2bdb7e8a3U, 0xbdf06f35bded6d08U, 0xbdd7ebcf3da4538fU, 0xbd821f48bdee451aU,
  0xbde7bc01bda42a2fU, 0x3d95717d3def2831U, 0x3c3106983da2c5e7U, 0xbdcd5bf5bd90f260U,
  0xbc0a2ff8bcfdf2d0U, 0x3c964c5cbbcd63d0U, 0xbd53f7ecbd676ef6U, 0xbcf46dc03c1e6fc8U,
  0xbd63d277bda7eca1U, 0xbdf0357abced5554U, 0x3d8743a33ddbeb87U, 0x3c87fe0cbd612e36U,
  0xbd3c35763d828eddU, 0x3d5940ea3d3d99c2U, 0x3dc0fe5b3c40ca08U, 0x3ce162cc3c9989ccU,
  0x3dc760ed3da3cb75U, 0x3a9a5680bbb5afc0U, 0xbcb510b03db8d4b5U, 0xbd625c893dc36b03U,
  0xbd03d77c3ca0976cU, 0xbd72659c3d61976aU, 0xbd916806bdd795ebU, 0x3c34f3a83c98adb4U,
  0xbdb6d6573dd7d001U, 0x3d8088473c8fd18cU, 0xbbac3350bd9e254eU, 0x3da4affd3d24d8daU,
  0xbd0854783d987999U, 0x3d15f8c63ac04380U, 0xbc6b68503cbbbe3cU, 0x3d3e60c23cf79eecU,
  0xbd3724f0bdbacb54U, 0xbd625212bd8e29eaU, 0xbd06bb963d0f2b22U, 0x3b0ad480bb883910U,
  0x3de9363f3d4b9fa6U, 0xbd82725ebcb0f74cU, 0xbdc36d163cab1aecU, 0xbc1668c0bd888c0aU,
  0xbcb38b18bdc9df35U, 0xbd0df2a4bd93e0a2U, 0xbda41b7c3dcb768fU, 0x3dd2481d3dc07251U,
  0xbd75cb323d38eb5aU, 0x3d561fee3ca0d614U, 0xbdd270a6bd6e107cU, 0x3da31a1b3da63a21U,
  0xbdb4c5bcbca9d278U, 0xbdc55186bd8bf99fU, 0x3dd65353bd6494daU, 0xbd6e5d61bce7b4fcU,
  0xbd7a7bd4bd953d7dU, 0x3dca468bbd4cc504U, 0x3d7cf8ee3c80131cU, 0x3dc237cbbcbc28a4U,
  0xbd932890bdca411fU, 0x3c2ead08bdc041d5U, 0xbdd53e3c3c665418U, 0x3d9ae20d3b1c22e0U,
  0x3d4de8623d20494aU, 0xbd726885bdb897c6U, 0x3d5f0c5a3d9fb293U, 0x3d929bcbbc154528U,
  0x3c19bd68bc781580U, 0x3dbdf99dbdaec01cU, 0xbcd667c43d44434eU, 0x3d726a223b66b240U,
  0xbd9717523de9858dU, 0x3dd345bfbd2220b8U, 0xbbfd5d70bd4c194aU, 0xbdccfe0ebdb4b502U,
  0x3d7b3982bca4b564U, 0xbd5c4c14bd1b203aU, 0xbafd4600bc9d4de8U, 0xbd8becb43dc3d777U,
  0x3bc36540bda82d0cU, 0x3db4444f3d9a5275U, 0x3c88593cbda54e6eU, 0x3d43cdf63d8f0159U,
  0xbd967fb7bb2c11e0U, 0xba1ad080bd964af4U, 0x3d75fd423d89a9d5U, 0x3c32a5d83cc2116cU,
  0x3d9ee64dbdb87652U, 0x3d84ff75bc1114d0U, 0xbd8fdcea3d28430eU, 0xbd795733bdc67cf1U,
  0xbd2d1b1abc7e73d8U, 0x3db69a09bc9d6f4cU, 0x3b472ee03d9d9ef9U, 0x3d897459bda030feU,
  0x3dc1e793bda668cbU, 0x3dcbc1d3bd4a8a14U, 0xbded047e3d1f7f66U, 0xbce5d6243d969dfbU,
  0xbd67da7d3d8ac81bU, 0xbd60d0d2bd3d7b10U, 0xbd7f16623d823127U, 0x3d4ee952bd7367b9U,
  0x3d7a6ad03ddb2b68U, 0x3dc5b60dbc65d95aU, 0x3d648a13bdb06737U, 0xbda6f6063c2868cdU,
  0x3d189ccfbcf85c79U, 0xbcd359543deb34d1U, 0xbd4da4633d07a6caU, 0xbd8c4fbabde41b80U,
  0x3bf660a43c650a51U, 0x3db5c4993dd713cbU, 0xbde4170f3cf0afbfU, 0x3994dc403dc177f6U,
  0x3aabc3353dab5c20U, 0x3cc5561f3d93f70bU, 0xbd0b1f56bdbd0ba1U, 0x3d0b011b3d8b6a9aU,
  0xbd4f06d0bdd3a3a3U, 0xbd26a4db3d347994U, 0xbdb3467bbc988b10U, 0x3d30e0243dce72a6U,
  0xbd2b6fc63d967781U, 0xbd388302bcec5da1U, 0x3de71e023d3bac5dU, 0xbdcef0ffbd539447U,
  0x3c99928dbd357061U, 0xbdfe85e93c3a83e8U, 0xbdd50092bd76523fU, 0x3de6bd2cbcb243ceU,
  0xbbfc44ef3d9d355fU, 0xbd4be7163d8548f9U, 0xbda26dabbd67f388U, 0x3d717c0dbcb9666aU,
  0x3b0eb354bdd00933U, 0xbce5d55c3d1db2c1U, 0x3d804a313cbc8ce1U, 0xbdce7ee53ca476daU,
  0x3cdd686dbde1b9a7U, 0x3c7bd49c3d818ac8U, 0xbd58dae6bcc57f2fU, 0x3c4e8aabbda0acfcU,
  0xbda5a4b5bcd42101U, 0x3dbada383ddefc32U, 0x3d829eaebd7cd035U, 0x3d6a5833bda8166aU,
  0x3dc75de3bddf9f5eU, 0xbd10a0e23dba74deU, 0x3d7475d9bd71aa83U, 0x38c8e83a3c2ca397U,
  0x3da77a66bcc6b558U, 0xbdd2be0a3c9e7ca1U, 0xbdf4c1053d94aafdU, 0xbd3fc96bbca946b3U,
  0xbcf14191bd76f284U, 0x3dac772a3cc2870cU, 0x3d450dc0bdc0dbc8U, 0x3dfed3ea3d3df2f8U,
  0x3cb5ea09bc7e3908U, 0x3d3c1b8cbdd43634U, 0x3de2be523d9e8667U, 0xbd02dfcdbcca6c8bU,
  0xbdaaad4dbd6a29e3U, 0xbdfb668abcbeade5U, 0xbdaf5bc63d4c8f73U, 0xbda8c7fabd368e4cU,
  0x3def71ebbd839b19U, 0xbdea67813dba9aa5U, 0x3c54e12f3da6f979U, 0x3db476ae3cf088c5U,
  0x3da74ca6bc9466b4U, 0xbdd70ceb3da334e7U, 0xbd9bd187bd81e71dU, 0x3d767e8d3d916a4dU,
  0x3b8d6db93d9e303dU, 0x3da79e313dd5110fU, 0x3d193a603d798c1dU, 0x3cd2898e3c20e2b2U,
  0x3dab4e59bdec468dU, 0xbd1182d1bd538011U, 0xbd2063ab3d9faec6U, 0xbce9e4d33dc64b18U,
  0x3d37719a3d877405U, 0x3dee870dbb7e22f4U, 0xbdd333673ddf9702U, 0x3d5bc3f2bbfc0f0aU,
  0x3d820e54bc3a6589U, 0x3dfe1a273d44c337U, 0x3dd4fdd8bdbc6b06U, 0xbd8f307c3df4320eU,
  0xbddb661f3da9d4f3U, 0xbd824f02bdb42eb0U, 0x3c0d6050bdb8f7c4U, 0xbc4480fabcffb8ffU,
  0xbd3bd655bdcfbbf5U, 0x3c9f89413dbbee22U, 0x3dd5e99d3db89bdfU, 0xbd8d9bcdbdba7b66U,
  0xbd4ebbccbda4cdcdU, 0xbd8a9f04bdb594beU, 0xbd0785633dc72baeU, 0x3dc71a59bd379c84U,
  0xbe0a68d2bdba13faU, 0xbdb5c5ebbd7ff267U, 0xbd4d1a9c3b96b604U, 0x3ded3bf5bd0ee76eU,
  0xbdc048403dbb57fdU, 0x3d8724b53dc17696U, 0x3cc25e8fbcbd9062U, 0x3df98a743dddbb32U,
  0xbd6ba6cb3d10d381U, 0x3d3516ea3d9c7c0fU, 0x3d5332013c295ecdU, 0x3dd10e8d3d0db812U,
  0xbcbf1de43dd51fa1U, 0xbdfe75223dbe6e44U, 0x3d1b39c73c8517d6U, 0xbd7586b8bda8b21cU,
  0x3d51566dbd85aa31U, 0xbd0ec1e4bdd99c60U, 0x3d55b2693da497e4U, 0xbdab5a413d624b6aU,
  0xbca21271bd222642U, 0xbd36e371bd888da9U, 0x3cdb35353cdc277dU, 0xbd37d477bd471889U,
  0xbdcc2fb8bd69d46aU, 0xbd2ddab7bde42615U, 0xbde14e403b9e5bbaU, 0xbb1c48d53d904e94U,
  0xbd8b56aa3dbeb0c0U, 0x3c965719bd093216U, 0xbdd648f63b6aa2baU, 0x3df86ee0bcd3b506U,
  0xbc93f7363d3f9bf2U, 0x3c8e16873cacd7bbU, 0xbb5054963d2fb4e9U, 0x3de541be3d208790U,
  0xbd80eeecbd5f7cc4U, 0x3d7d5daa3d2844bfU, 0xbdb18b5ebd377cc4U, 0x3d3b24b5bcce5aedU,
  0xbdd4e0783dcf7730U, 0x3c971575bd02cd81U, 0xbe046c7fbc475bfbU, 0x3d96a15bbdf51e4aU,
  0xbdfbea1b3d95cdc6U, 0xbddcb7113d659faaU, 0x3c57fdde3d3fef6cU, 0x3d6e3346bdb53cf7U,
  0x3d20b8813ce6cb34U, 0x3d3370d23c2b3a59U, 0x3cfa1c8b3d8cb65fU, 0xbd4b1cf43d3dd122U,
  0x3d24ac63bd1b7d5bU, 0xbdb8eb673c930a40U, 0x3d4f2b5abd119e26U, 0x3d32a6d9bd592fe5U,
  0xbdfca2193cd3027bU, 0xbdaa0f0b3cd4af61U, 0x3dff9d8fbdd3e278U, 0x3c6d69c03a953e04U,
  0x3d779babbcb24bbcU, 0x3d8f0f993dd6165bU, 0xbcd150a4bd63e81fU, 0x3d467bc53dbc5695U,
  0x3d72ee7cbd213736U, 0xbcc968bbbdd264d3U, 0xbcebff003b47549cU, 0xbda8d007bd61fbafU,
  0xbd9fe8d13d9d4ff1U, 0xbd464415bdfcfb8cU, 0xbd7ccea9bb918225U, 0x3dc524423ca669a2U,
  0xbc173177bdb84e6cU, 0xbce7443f3d862a0dU, 0x3c88beff3dd24b48U, 0xbc3a9dd2bdcb2a7bU,
  0x3c2fb5873c087e3cU, 0xbc617147bbdacbfcU, 0xbc518169bc831391U, 0xbd9072d3bd04e3b8U,
  0x3c7d77c1bdd294e9U, 0xbca7a85b3d10fc33U, 0xbc3adc08bda7f37bU, 0xbc9bd35dbdbab4cfU,
  0x3d2f87b03d97bd5cU, 0x3da0cb3d3dbe4fb6U, 0x3d7f68b53d7a2b01U, 0x3d6557d1bbd8e4f0U,
  0x3d0f68b83de13f6eU, 0x3da256c8bca0d92aU, 0x3c6a06cabddb6276U, 0xbde944283cb7e659U,
  0x3ce29174bbb01510U, 0xbdc787a83ce67d34U, 0xbd0441123d1ba9f6U, 0xbdb555b53d969087U,
  0xbddd32393d02be5aU, 0xbcc46430bded9915U, 0xbca008bc3cb9c05cU, 0x3b67de403caef33cU,
  0xbb493800bd4d78a6U, 0x3cfa96143cbbf134U, 0xbd00b0723db34933U, 0x3d03afa6bd3fbd80U,
  0x3b4f22603d81fb15U, 0xbda89a52bdd4bce6U, 0xbd8808b03bd73cb0U, 0xbdb7f378bdec564cU,
  0xbdaf4ff0bd58f282U, 0x3dad559d3dc8026fU, 0xbdc604cebde623b6U, 0x3d79eb8e3d69b79eU,
  0x3db1f9e13d29b23aU, 0xbdb3e04a3dcc2be1U, 0xbd9fa2a23b67c460U, 0xbcf6ee80bc4aef38U,
  0x3d5cdcbabd4e9fdcU, 0x3d2bb0b2bdc2cddeU, 0xbd92d4c23de18711U, 0xbde23178bd3e8b34U,
  0x3dc75c353dbe07f9U, 0x3d997c61bb1efc40U, 0x3da717173d71b056U, 0xbc8550e8bcf29514U,
  0x3da9e6b5bcf8b03cU, 0xbdad8afe3d5b2556U, 0x3d23ae763c87ffdcU, 0x3dd3c28b3c9fc0e4U,
  0x3cc17ccc3dd2c529U, 0x3d1c50523d3996eeU, 0x3da4014fbdcfcedcU, 0x3c8c7864bd9c4976U,
  0x3d67ab9abdb96c53U, 0xbd7b9b04bd327612U, 0x3d922935bd9ebdc0U, 0x3d8e4db7bb9430f0U,
  0x3c91f5ccbd5e3c60U, 0x3d1259663bcf7120U, 0xbdd444993dc94a4fU, 0xbd58dd0ebd542c28U,
  0x3cbb6294bd6a8654U, 0x3da432d33d37965aU, 0xbccfd680bc6a4fc8U, 0x3d1216963d86ed47U,
  0x3c4a3578bda94d0bU, 0x3c6952983d9591a9U, 0xbbd11c30bd4229e8U, 0x3c6832e83c276458U,
  0x3da5ddcdbd914018U, 0x3cb5d484bde4c22aU, 0x3bd10b803d86cb1fU, 0xbc220e183d35b696U,
  0xbdcc2501bd52837eU, 0x3de0174f3d8be031U, 0x3dbeb1353d69667eU, 0xbd81ddce3d326fe6U,
  0xbdeecafe3ce50df4U, 0x3d9e64d13c037298U, 0xbda52b02bcae4238U, 0xbd35b16c3cca6434U,
  0xbbd06a30bd81d9bcU, 0x3cdf78bcbd759e1aU, 0x3ce5c064bd98dd52U, 0x3d93f6b53d8b59a1U,
  0xbcfad1643d6a5672U, 0xbdaa91b9bca055d0U, 0x3d4144563dbcd40bU, 0x3d8a24e73c839864U,
  0xbc642308bdf08abcU, 0x3d82700bbd93c8e2U, 0xbc483948bd188cc8U, 0xbddf707b3d9053bfU,
  0xbd2c12f6bd989e2eU, 0x3de0c4853da68a2fU, 0xbd221822bdde13baU, 0xbd7067df3d2fa82aU,
  0xbd7008e63dd2141dU, 0xbdad3670bd777230U, 0x3dca5a27bd3e903aU, 0x3db78f53bd83e310U,
  0xbd43068abcbe0af4U, 0x3c3b01c83dcb652dU, 0xbdc67785bd0736deU, 0x3bc010d0bbe62dd0U,
  0xbdb43deabda94a6aU, 0x3de079e73ca52624U, 0xbd99b789bd89f93aU, 0xbd2216e03db1b919U,
  0x3d9c797b3db56899U, 0x3d726ca2bc51b838U, 0xbde9b4953d9e5079U, 0xbc73d6f8bbef5700U,
  0x3dcf6c49bd3a0dc6U, 0x3d8a45afbdeedc3fU, 0xbda5df983dd48a6dU, 0xbd2479503d7308eeU,
  0xbdba7b8abcc6e52cU, 0xbd46ecba3d8fa333U, 0xbd719c76bdbb127eU, 0x3d83db29bdafbc45U,
  0xbd05a24e3dbb227dU, 0x3de1dd893de15e2fU, 0x3d2b15c6bd9eb5d8U, 0xbdaa8a4a3d04d48aU,
  0xbc2678803dc5e453U, 0xbd359bca3dd3fb11U, 0xbdb83318bdcb7ea8U, 0x3d967ab73ddc79d1U,
  0x3de0c5973ca7608cU, 0xbcec36e83ca92b34U, 0xbdeb82cd3d132cd6U, 0xbd9fd83cbdda5a3fU,
  0xbc27a9b8bb9db040U, 0x3d36a4c63caeaadcU, 0x3dd6627f3d510f36U, 0x3d7afeee3d8418c5U,
  0x3db0b0953b91e420U, 0xbde6655a3c1817e8U, 0x3d44cfe63c86d944U, 0x3d8ef8793de6bc39U,
  0x3d97cbc93d675c72U, 0xbdd357713dc78a7dU, 0xbd96bf2a3c102848U, 0xbdb0d6143bc51d80U,
  0x3dcd6873bdd09a06U, 0xbdde34c0bd598f56U, 0x3cbc241cbd89be8aU, 0x3da214d53c8566bcU,
  0x3dc50aafbc8ddb5cU, 0x3da9a7dbbd481dd2U, 0xbd043622bce362f8U, 0xbd06ebbc3dce5d57U,
  0xbdc016aebd8faf5eU, 0xbc812c68bd4dec14U, 0x3ddd69f9bbafca80U, 0x3c21dde83d54c402U,
  0xbd8b29203d553012U, 0xbdbd1b88bc7ea378U, 0x3d83dcc33da976f3U, 0x3d172b92bc6c2128U,
  0xbd792815bdb99b94U, 0x3da8e97bbde9b591U, 0x3de7db05bd6a4d55U, 0xbd813bf13dc48459U,
  0xbda50b953d22cedaU, 0xbdca5cf9bde0fa44U, 0xbbd5de90bcd587e4U, 0xbd0b6494bd8877c9U,
  0x3da08349bdaad6d8U, 0xbd27dc58bd9a8fa2U, 0xbd4ee6f0bc635e50U, 0xbd5fba0abcb6a194U,
  0xbd290b2cbc967044U, 0xbdb0ded33c9875ccU, 0x3d9633bbbd92d0e8U, 0xbb145a203d9fb467U,
  0xbde96777bdd5e45cU, 0x3d64a3323c83abccU, 0x3d47a8023ca75414U, 0x3d21e876bd7672fbU,
  0xbd762e50bbbd52a0U, 0x3de280a1bbc0e780U, 0xbd81a5e2bca98218U, 0xbdc3d1c3bbdda1e0U,
  0x3d4df50abc8fbe14U, 0x3db662e53d9d8cddU, 0xbcdf07f83d0679aeU, 0xbd688bdb3dec3361U,
  0x3c9ff294bd793bb0U, 0xbd1938ea3d3130feU, 0xbde6f109bddeee37U, 0x3cd3660cbd509322U,
  0xbdee00913cee1e44U, 0x3c07f8283dbab485U, 0x3d8b8d11bc3e2488U, 0x3d998c69bd076decU,
  0xbd7169763d985ab5U, 0x3dba4f3dba561300U, 0x3cecfa343d79765eU, 0x3d0c2c3a3de47785U,
  0xbd33efe23dcc459bU, 0xbd45358abca3810cU, 0xbddcd2cbbd787d9fU, 0x3db6ac653dad7279U,
  0x3d574df53dd89a0aU, 0x3db79dc73df08ffcU, 0x3d7e55f4bd8746faU, 0x3dcc2be43cc24467U,
  0x3d96fb523e00a27aU, 0xbd63d19f3dce45a3U, 0xbc45940e3de613b5U, 0xbcb6c1e3bd109061U,
  0xbd8a9b8dbccf522dU, 0x3cec15653d3e120dU, 0x3d2eddfa3dfdc642U, 0xbca34efc3d88b102U,
  0x3cd1dd74bdb9c7daU, 0xbb99c73d3dc62897U, 0xbca9b5b53da35821U, 0x3ddcc641bc46b29cU,
  0x3ddbdb163dd82866U, 0x3cbd7dce3cf8971dU, 0x3d828e05bcaf7fccU, 0x3da016e5bd0889ebU,
  0x3d9574173be5ec0cU, 0xbd945a76bd1a4e0cU, 0x3d7987d23ce29580U, 0xbca264cfbd8b0865U,
  0x3cd2a0adbd4c2d26U, 0x3cb9150f3d0d19caU, 0x3e117a053dcb1f20U, 0x3d82b1f53e198006U,
  0xbc996281bd827706U, 0x3c04082a3e1492efU, 0xbd954d8a3e0eba38U, 0xbce1f8ebbda74fa5U,
  0xba8e80c63e0edca4U, 0xbd0e2b2c3c3e0733U, 0xbd0f95803d87a357U, 0xbdaf437d3c768d6fU,
  0xbdf4dcc23d975f8fU, 0xbd473fbfbd7c4638U, 0x3d8cca86bdefa9bbU, 0xbdbc4e3b3e01133dU,
  0xbd2d6ab63de9055eU, 0x3da8379c3dd7e17aU, 0xbc9f8833bb96227aU, 0xbd2b788a3da36dfaU,
  0x3dd24d3d3d7b806dU, 0x3d7aef3fbb4e791aU, 0x3d79668cbd64ea07U, 0x3c23730a3defc761U,
  0x3cd68974bd75ce5cU, 0x3cafff633d93d1d7U, 0x3b05cc3fbd604c2bU, 0x3e09fd31bdb3a6bbU,
  0xbd15a0823ded7cc2U, 0xbd60f12a3cadc560U, 0x3c2a9b203d974bc2U, 0x3dee3791bd8b2a02U,
  0x3dc5395f3cae21b5U, 0x3d89a3973df724c7U, 0xbd78d2173d8ef28cU, 0x3d667ed23d936c14U,
  0x3d97e8d33da6ab4aU, 0xbd219c47bdb44d38U, 0x3cd9b1b0bc4dce1fU, 0xbde7e28abc23b7ffU,
  0x3d65e3ed3c9e0643U, 0x3dfccce13e061fc2U, 0x3dcaad48bdc81673U, 0x3dfba0373d560155U,
  0x3b26baf3bc748dafU, 0x3d7a8cd93ceb8865U, 0x3e0af88e3e110ef3U, 0x3ca29b123dc23529U,
  0xbd190d85bda0cdf0U, 0x3d201e383d394e58U, 0xbd62536dbd6a401bU, 0xb9888d0a3c8d7693U,
  0x3d07b3c4bde4554eU, 0x3c223f6dbd5a2417U, 0xbdadff9f3c372f41U, 0xbd68d39c3b802f9eU,
  0x3dbb432dbb03a744U, 0x3db46b61bbe3badcU, 0xbcae59d73df40a4dU, 0xbd9101523d8d6a2dU,
  0x3d56abdb3d2bd18fU, 0x3e049addbd79adf3U, 0x3e1381c9bb9a4ce8U, 0x3af86dcc3df80071U,
  0x3db58f353d9c8372U, 0xbdf589f33dc69764U, 0xbd27bcdd3d91d6bfU, 0x3de737cc3d123ee3U,
  0xbc8ebfe0bd8b8048U, 0x3cd39e783ca0055fU, 0x3ba03b373d9e921eU, 0x3d39ccec3d09e796U,
  0x3d5dd86ebc88962bU, 0x3e09d0cf3e0c815aU, 0x3ce466d93d91cd0aU, 0xbc518d6cbd6cda32U,
  0xbd325cf03e165f4bU, 0xbd67eb8cbde35412U, 0x3de4d7133cfb5087U, 0x3da52c8b3dbfe718U,
  0xbc7f15063db9996cU, 0xbcc660ecbd096066U, 0x3e1020623d808c45U, 0x3d04c1e33d6c86a5U,
  0x3cbeafd7bd170395U, 0xbac59a5d3dc65229U, 0x3bca19c6bcd27290U, 0xbcc2df13bd8869e6U,
  0x3dc27f0abbe510aaU, 0xbd8384463d1bdb97U, 0xbd4c514fbd6e5dbaU, 0xbd62bb47bd678d1aU,
  0xbd83e9aa3cfc4fb0U, 0x3de6999f3d18f3c5U, 0x3e133ba53db3f6aeU, 0xbd150d973d850a49U,
  0xbd272b5abd7d2566U, 0x3dd578d4bd241078U, 0x3d0238c93d24c911U, 0x3db5f6bc3ca83c2dU,
  0x3e0cf56c3d944861U, 0xbd7d25723e067fa4U, 0xbb7c8f4cbd002c4fU, 0xbdf181c63d3cadb1U,
  0x3d7f430abd86dba1U, 0x3d564db9bc31b3f6U, 0x3d87901bbc9be33aU, 0x3dffd5fc3d40de9cU,
  0x3e0a9c643dc48123U, 0x3d527d373d59fafaU, 0x3dc842ff3e0c31c7U, 0x3df2c17b3d482807U,
  0xbda2f6873dfbd6caU, 0x3cbf79a7bd1a2c82U, 0x3daad5903dca5c07U, 0xbc54edddbc0840faU,
  0x3d5f347cba419fc9U, 0xbd47a8223db105b2U, 0xbc57cc6a3c092521U, 0xbceafc89bdc20729U,
  0xbe03ade1bcaf2d0aU, 0xbd047fdc3d4c21e2U, 0x3c956d1abd02291aU, 0x3d4bf108bd93f01aU,
  0x3e03eb183d9e5fc9U, 0x3d6022f03df12329U, 0x3dccf44bbdb0799eU, 0xbcf9bf3e3d8bcefaU,
  0xbdcb7d4b3da5f68cU, 0xbd9369df3db1e475U, 0xbc057a1bbda36762U, 0x3cd04bc1bc61da46U,
  0xbd1b886bbdd0d94fU, 0xbd362d8dbde618d5U, 0x3e14e449bd86f919U, 0x3e0752523d74b4edU,
  0x3d96ed0d3de259ccU, 0xbcb29767bd10123dU, 0xbd49a1e3bd98f4e4U, 0x3df2df34bd0bcde8U,
  0xbca5eabf3dfd1eedU, 0xbda5fc6d3d38c3f0U, 0xbd90027f3d844322U, 0x3dbdd0fe3ce30260U,
  0xbd46c03d3cdec35aU, 0xbd92e9a33dd84e76U, 0xbc5191313dcc3b80U, 0x3c3f7cac3d458a01U,
  0x3c6cd5da3e0c1517U, 0x3df8cc39bd3c5f10U, 0x3d8bd56fbdc2d1aaU, 0x3de7f2f5bd36aa57U,
  0xbd19be583d1782ccU, 0x3dabdc3abcc18dadU, 0xbda88dfa3ddbd9d9U, 0xbcff42c1bcb11aecU,
  0xbe026858bd94a6baU, 0xbdeb7115bdadda87U, 0xbd330c6a3d194973U, 0x3da4f9f43d931369U,
  0xbd5e632e3cc21903U, 0x3c3f1edabd59cbbeU, 0x3dad2a52bd8b9d2eU, 0xbd528bbe3dd73e40U,
  0x3d5a65b23c07e47cU, 0x3b5369523db4a8ecU, 0xbb83a9563d81af3bU, 0x3db385703d2dbbbcU,
  0x3d99d2fdbca66b24U, 0xbde165783da69817U, 0xbd0e21fe3d60477eU, 0x3dabb9d5bd5be2d0U,
  0xbdc93bc93d557576U, 0x3dda7cfd3c8471fcU, 0x3cf002b4bdde4eedU, 0x3dd559593d744dceU,
  0xbd323bb23cc2c8f4U, 0x3de823333db5d041U, 0xbcc08fb43db4f58fU, 0x3d5b398e3d823b5bU,
  0xbdddd3e5bdef7634U, 0xbda9b0de3d785a26U, 0xbd3c82da3d1a1852U, 0x3cf14134bd9e6b35U,
  0x3d51632ebdde294dU, 0x3d5027bebd151080U, 0xbc9271ecbcbbfe24U, 0x3c8c501cbcbc74a8U,
  0xbd168b143dc84e69U, 0xbd3360d2bde651beU, 0xbd9c54da3cc71aecU, 0xbdaa9f4e3cb79134U,
  0xbde8efe3bdc34481U, 0x3ca327bcbcdc9954U, 0xbcf85410bd769685U, 0xbdd4d0d0bced0c24U,
  0xbc5bdcd83d1b9392U, 0x3de3f87dbdf0239eU, 0xbdbd69973d671af2U, 0x3d207faa3d248e9aU,
  0xbd634484bd8f71beU, 0xbdd1bf7cbbd137f0U, 0x3d99a73d3dbe3c83U, 0xbcc1acf4bd9f07e2U,
  0x3da9745fbdbcec5aU, 0xbdbbc152bd841f8fU, 0xbd5ee67c3dec5b5fU, 0x3d286cae3d30b81eU,
  0x3d2dc9d2bd350eceU, 0x3c7c3818bd322b70U, 0x3b99a1503de5cffbU, 0xbcb83da0bdec0363U,
  0xbd7595323d33e456U, 0x3d59729e3ca9b624U, 0xbdea4a34bdc3cd1eU, 0xbdca5019bd7d6b21U,
  0xbd7ea3373d766dc6U, 0x3c14f0b8bd0300e0U, 0xbdc5c857bde475dbU, 0xbd6791b53d487fc2U,
  0xbcfbf6b4bc780278U, 0xbd85cadc3d593e52U, 0x3daee1a53d776ad6U, 0xbde8e0ed3ca2c884U,
  0x3d1c0ae2bd60e0d8U, 0xbd6b6d76bca01a7cU, 0x3de538fb3d050bc6U, 0x3d302572bdc6144cU,
  0xbd95b1e43d1bac0eU, 0x3d810b03bcff77b4U, 0x3dea2ce9bdb30d57U, 0xbd8c377c3d7488c2U,
  0x3d1d7b863d5335f2U, 0x3d135d22bd277de6U, 0xbd3f6150bc816e14U, 0xbd3bf306bdbf82fcU,
  0x3d142196bc8952d8U, 0xbce103703d89cdedU, 0xbd4c1fb239e69300U, 0xbd9a41f83d5a79b2U,
  0x3d19089ebc85117cU, 0x3d973fbdbd162314U, 0xbd974d8ebd057456U, 0x3d71f1623db353c1U,
  0x3c8f5c7cbca13380U, 0xbd3a44dc3d3c0a92U, 0xbd0e891cbd98dba9U, 0x3d12da363dd55ba5U,
  0xbd0e4172bd65a7e6U, 0x3dd537813cf17cb4U, 0xbd835e023d27fcfaU, 0xbd4105923da807a5U,
  0x3dc79c8bbdd98422U, 0xbd993c3d3b0283c0U, 0x3d39e0fa3db757d3U, 0xbcf95ac8bdc055c7U,
  0x3db3f3e53d9799a7U, 0x3cf7dfc4bcee467cU, 0xbd4666b0bb707400U, 0xbdbcec35bdc2a30aU,
  0xbca9ee64bd858a03U, 0x3d81735d3ca7499cU, 0x3dbf092dbdb05939U, 0x3d4641623d749cb2U,
  0xbd3d456cbd43cb1aU, 0x3d07a1bebdd543bbU, 0xbbf318d03de1e4c7U, 0x3d919bf7bd12b570U,
  0xbcbb27503d9e92e7U, 0xbd1bbab2bcdb8ed4U, 0x3daf6f05bd6c37abU, 0x3c5ad9983db6e3e1U,
  0xbd0d7bdabd9be052U, 0x3dbcdca1bdeaedb6U, 0x3db9efa5bd96404cU, 0x3d0008ba3c81bedcU,
  0xbd07cf563d467ecaU, 0xbd192ab0bd4b9266U, 0x3ddef8733daf85f3U, 0xbc0f4118bd30d5c8U,
  0xbd8eb960bdd87f5bU, 0x3d665c9ebd22270aU, 0x3de1594d3ce15fdcU, 0xbd903def3dea7e83U,
  0x3dc955d9bc615428U, 0x3bdc97303d785d42U, 0x3ceb744cbd103a20U, 0xbc9916a43dd80661U,
  0xbdb7ec62bdebac16U, 0xbdd8d14c3d43f706U, 0x3dc304533d4aaeb6U, 0x3d9597613d8bb281U,
  0x3da310af3cbb77fcU, 0x3d554aee3daa3d45U, 0x3dcfaed9bc7ec868U, 0xbb071c803d98d52bU,
  0xbb9867203da20d99U, 0x3c6860e83dce8d85U, 0x3d29bdb6bcb2d6d8U, 0x3d62df92bcdcd44cU,
  0xbd7254da3dbf2821U, 0x3de3889d3d77ade2U, 0x3dab54b33dea9819U, 0x3ce41b1cbdee690dU,
  0x3cbdcc54bd7be5e9U, 0xbd270be8bd1c8e9aU, 0x3daef5ed3c491568U, 0x3d5ac282bdea0a72U,
  0x3dd73ebbbc05ea20U, 0xbdc323a03ca1863cU, 0x3da214ab3dc1c495U, 0x3d686bd23d151abaU,
  0xbda42c4dbde2204eU, 0x3de1c9053d5e960aU, 0x3cf1d0f43d1595aaU, 0x3dec6a633da769d7U,
  0x3cf92c0c3dd124c5U, 0x3d5d3ed23cd37244U, 0x3da5cd4b3cdb0cacU, 0xbd83ca323dd85dbfU,
  0xbdefc764bda5581dU, 0xbc97d800bdc0fbd0U, 0x3cafabe43b9c5930U, 0x3ded39c93c137ab8U,
  0xbdd7f8ecbc0f1ce0U, 0x3dc39ff1bdb05386U, 0xbbb35490bd9a6f54U, 0x3d3b747a3ddbd6adU,
  0xbcc14b3cbd3dd30cU, 0xbc750d40bdc07673U, 0xbd033974bdbc0dcaU, 0x3db139dfbdaa3138U,
  0xbc3a7ed8bc49efb8U, 0x3de6df833d925e87U, 0xbd16ab443d96cc65U, 0x3baf5c803d9c0639U,
  0x3dc9fb71bd061b98U, 0xbd70f0c43caf4d4cU, 0x3dd2f9bf3dd0a22bU, 0xbd5f711cbd8aea44U,
  0xbd757fbdbd7135c1U, 0xbdb8a638bcd76480U, 0x3d574c6ebc0e14c8U, 0xbd3daf903d03ab8aU,
  0xbdde5b493c2a0888U, 0xbdc4da85bdcebbe3U, 0xbd0e671abdbd6467U, 0x3d6a580e3d6c16aaU,
  0xbcc4c8143dc53e1dU, 0x3d3e5dd2bd8d3d7eU, 0xbdcd0910bdbb16f6U, 0xbd0b48aebc66f790U,
  0x3c83c644bdb51aabU, 0xbd4b58d0bdd9a37fU, 0x3db3b0593dba3d31U, 0xbd58a7c2bd0c7682U,
  0x3ce706e43ccdad4cU, 0x3d177f4a3da7f463U, 0x3d30d53abdcc51a8U, 0xbd02d940bcb4eaf4U,
  0x3da3a9af3d6f2efeU, 0x3d9f2f9d3cbcd65cU, 0xbdb398123dec1789U, 0xbc8d2658bd42fc7cU,
  0xbd1634303d98134fU, 0x3d89425fbd419d40U, 0xbdb9d6163d64c63eU, 0xbdef792cbcbd1d90U,
  0xbdd3d9f1bd850634U, 0xbd806aa33c346058U, 0xbc80ebcc3dd7573fU, 0xbd3c8b3c3d584b32U,
  0xbdd7c6dc3d9a751dU, 0x3c4f2478bcd54c84U, 0x3d186bfabce6db0cU, 0x3d9a34673db81741U,
  0x3db52865bdcfba5fU, 0xbda40f02bc840bdcU, 0xbd741d08bd53668aU, 0x3c61f7b83c106838U,
  0xbd955c38bb986420U, 0x3cf385f4bdd9eac8U, 0xbd9660963ddb5b25U, 0x3d0e60eebd9b8df4U,
  0xbdc6005ebdea9592U, 0xbde3532c3d6b4d8aU, 0x3d4b60223c0601a8U, 0x3d230da6bd9337efU,
  0x3d39c3ca3cb65b9cU, 0x3ddeb8e13d70aa2aU, 0x3d09acc6bd866d8eU, 0x3d92dfbd3d6eaf72U,
  0xbd3d7a46bdbb0b16U, 0xbd97f1443dc1ecd5U, 0xbd49f3503dd74073U, 0xbdebac8b3af202c0U,
  0x3da7de9bbdaab02dU, 0x3d6db0aebd62e1fcU, 0x3d8252a3bde487cdU, 0xbdc41c703cd2fc44U,
  0xbdcb7fac3bb6cdf0U, 0xbd9fbf96bd8c8b3eU, 0xbd02b8363d39e8e2U, 0xbc912fb03cb01d14U,
  0xbd8e790cbddb2902U, 0xbd20139c3d2689eaU, 0x3dc9114fbcdee4e0U, 0xbcc73114bd04d75eU,
  0x3b34b300bd18d71eU, 0x3dc3a18bbd3baffaU, 0x3d8c7a5f3a1a2780U, 0x3c0e7428bdd0f1aaU,
  0x3da405fbbdcc8609U, 0xbde4c7b8bdb6e59cU, 0xbdca5582bdb2c946U, 0x3bd4fd103de64593U,
  0x3d72b46abd47065cU, 0x3de595613bd2f1d0U, 0xbdb2bf1f3dc866bfU, 0xb9dbf200bdb76bf9U,
  0xbc6f2458bd470cf2U, 0xbd44d1b8bddc2faaU, 0xbdc82901bc5cf1f8U, 0x3d1d685abd97b3ecU,
  0x3dc365e53dd91df1U, 0x3dc6ca213d2c4432U, 0x3d8909bb3c5df378U, 0x3de49381bd8542caU,
  0x3d978845ba7a1d00U, 0xbdac5d22bd9448e9U, 0xbd3ee510bdb06412U, 0x3db32c613cca3c0cU,
  0xbd8d208ebd1ef148U, 0x3dea9219bdcb5030U, 0xbd3edcbebc0a7318U, 0xbd2708a4bd9de489U,
  0xbd5d192a3cf4ae9cU, 0xbde4c9263d8af32bU, 0xbd46e44c3c1374b8U, 0x3d04674e3d82abddU,
  0x3d8d7fdb3dcb80cbU, 0x3b4299603d010fd6U, 0xbd046024bca057fcU, 0x3d801cb53d384cceU,
  0xbce6e4a0bde634e1U, 0xbc836ea8bd558822U, 0xbd739c2abdea3e57U, 0xbdb55788bd0ea254U,
  0xbb5364203db0ccabU, 0x3d841e873c2f1eb8U, 0xbdb4ca86bdec7257U, 0xbd191d143d51f5faU,
  0xbc612610bd43d49aU, 0xbdaf07323d13e4f6U, 0xbc37c6683d98ea2bU, 0x3d31a6eebdc4a2f3U,
  0xbdec7843bd6643aaU, 0x3dd424713db62cb7U, 0xbcf91bf03de43b59U, 0x3c85f3e435520000U,
  0x3b4d5ee03d8d2ac1U, 0xbd0cdbccbc93fd48U, 0x3c597ad83d60cc3eU, 0x3d3f76823d9de065U,
  0x3d5ff07a3d97110fU, 0xbcae22103d7b0e5eU, 0x3de567953d83681fU, 0x3c78fce8bd8e0052U,
  0xbcf521d43cb26fe4U, 0x3dbf71b7bc90d108U, 0x3dc27fa3bd30ec20U, 0x3ca223243ca6e824U,
  0x3d2159a23d8b7e93U, 0x3dc26079bdd3d450U, 0x3dc775133d43ebb2U, 0xbdbfe617bd92d498U,
  0x3de31817bd97f166U, 0x3d58c3a23d948ce3U, 0xbd9c4bf6bddd3856U, 0xbd0b69123d829d8fU,
  0x3de717a9bdb890a1U, 0x3d72554a3cbc292cU, 0xbdec1eeb3d1211e2U, 0xbdc6bc2cbd977484U,
  0x3db37721bd68135eU, 0x3d2dd1e23c97b034U, 0xbb331a40bd590208U, 0x3db11a433dcc5163U,
  0xbd90b0163debc253U, 0x3d1681963dc496f5U, 0x3db1043fbc8cbd48U, 0x3d8b89ebbd8bee4aU,
  0x3dab31033d6addf6U, 0x3d9c770fb9b27500U, 0xbd31137c3d0b3f2eU, 0xbda96de83d83861bU,
  0x3da40d873d1985b2U, 0x3db1b1fb3da5895dU, 0xbdb24f983db4fc55U, 0x3b8a48c03d3e24feU,
  0x3cf195d4bd6aacedU, 0x3da26639b9868a00U, 0xbda4eab4bd81486fU, 0x3c3b8bb8bd2b37acU,
  0xbd7b240ebd94ec1cU, 0x3d1b0e16bdbc3e83U, 0xbb6ec0003d74cf22U, 0x3c09e9883d723bceU,
  0x3d4ef73ebd8d8c24U, 0xbcbdc1c4bd230a68U, 0x3ccfc834bdbbef3cU, 0xbde4c10c3d69f93aU,
  0x3c18ffc8bdd4b0baU, 0x3c9c6bcc3b415de0U, 0x3b785f20bd6664ffU, 0x3da20ce53d6b463eU,
  0x3dc90985bc5033c0U, 0xbc9d7d1c3d550fcaU, 0x3d5fbde63d81669bU, 0xbddb47abbc2805e8U,
  0xbd3f30aa3d57291aU, 0x3db50a71bdce5ac8U, 0x3d6f98eebdc47436U, 0x3ded0f9d3d75fa16U,
  0xbddb8b463dc20f0dU, 0xbcf01d443d4cd39aU, 0xbdbf777e3d80b19dU, 0xbcb9f9c8b9bb1900U,
  0x3db8fe7dbdba0562U, 0xbc4521f83ca27e6cU, 0xbd91939ebd1fa5bcU, 0xbd69465ebcd3898cU,
  0xbd8e4e7c3d0d25feU, 0xbdaa3178bd5b7b66U, 0x3d4c87d63cdebc14U, 0xbd9d904a3d44558eU,
  0xbc0a94d83d07867aU, 0x3dd158413dd3b8e7U, 0x3d6a5a363de58ef1U, 0x3cf9c024bd4bac78U,
  0xbdadfc5a3cbf7694U, 0xbd66591f3c5e0de8U, 0x3ba14ed0bd7c4498U, 0x3de1027fbd8456d2U,
  0x3d2831dabd95038eU, 0xbca792ecbd50d7c4U, 0xbdd91cf5bd4ff7d6U, 0x3d645ace3c8a090cU,
  0xbdb6d8263d5953c6U, 0xbdaccbe93d66f95aU, 0x3dd99ab5bcc5b44cU, 0x3dd2dc75bdd6d887U,
  0xbdc558f6bdc10ad5U, 0x3d6762eabd64024aU, 0xbdeef1c83de2eaffU, 0xbc9eba583d661132U,
  0xbdd7e1ebbc843234U, 0x3da06ea93cca7804U, 0xbc32fd583db1f6e1U, 0x3d9e01bd3d34aa2aU,
  0x3ae3aac0bd3f4beaU, 0x3d9b8b613daaa6afU, 0x3bb62c70bda6ee0aU, 0xbcb732d8bda0416cU,
  0xbbb29a60bbc27f50U, 0x3debedd3bd28d45aU, 0xbdf039fdbd6d9252U, 0x3d993a093d4ed88aU,
  0xbd9625f9bdbe42e4U, 0xbd799276bdeb8342U, 0x3d9a5613bdaf4766U, 0x3db37c43bd5dc4eaU,
  0xbcc2d3d4bc328678U, 0x3d86c4c13d1352deU, 0x3dda56d33d81da7bU, 0x3da3038fbd8ec114U,
  0x3dadcfcb3c3cf5a8U, 0xbd679a683dd85659U, 0xbddc823cbd19a26aU, 0xbdeab87a3de473bdU,
  0x3da863b5bd4fc64eU, 0x3de7e18bbd265022U, 0x3d889d65bc526930U, 0x3db86f53bd902dc0U,
  0xbd4e0c363dda6a01U, 0x3c037e383dbb8275U, 0xbd0ed7a03dd2e29dU, 0x3d54ac063cc6ab14U,
  0xbda135623cbd083cU, 0xbbdebd40bc073178U, 0x3c6c2108bdd376b0U, 0xbd9338c6bda294f6U,
  0xbc4b8c703d2754b6U, 0x3d96f8b93d8278e5U, 0xbd4a5f92bd81f4b0U, 0xbd42753ebd216ecaU,
  0x3dd8cf973d65aec6U, 0xbdb6baaa3d1b1806U, 0x3dc6052fbdb9cac9U, 0x3d8e4479bc1f6cd0U,
  0xbccb71f8bd15aef0U, 0xbd060fe43d9335e5U, 0x3d821237bdac0b14U, 0x3c895c043d19aa86U,
  0x3d9a6e09bd7f35bfU, 0xbcc77970bdabbbdcU, 0xbd378c9ebdd387a2U, 0xbded857abdad7a5eU,
  0x3d7cd1223daae6a1U, 0x3dd3ea5f3d475eaaU, 0xbcd31e9cbd9616a8U, 0x3db961733d69ab46U,
  0xbd84051e3d8f8295U, 0x3c9cc4643d9c3ca9U, 0xbdb1310a3de78bf5U, 0xbd91b8f0bde63ec5U,
  0x3d2977d63dd43aa7U, 0x3bb797c03bd01c60U, 0x38f12800bc0ce718U, 0xbd027428bdd43fc0U,
  0xbd250a4abcf65c78U, 0xbd77a483bdeaff37U, 0x3cb58facbc8d638cU, 0x3de738a13d49d8ceU,
  0xbd7e7bf9bd8886d2U, 0x3d9f03ebbd9f2803U, 0x3dee18e33d3c7b82U, 0xbde8c616bda608bbU,
  0xbc84c10cbde6cdb7U, 0x3dcf8ac53c7e91b8U, 0x3d2643c2bda9fc2aU, 0xbdd102513cd9f37cU,
  0xbc128190bd5cff9eU, 0xbd6a2c693de28915U, 0x3ddbe0a73d93e495U, 0xbccc64d43bb8a1b0U,
  0xbdde00ad3d8ad143U, 0xbc4e50b83d48fa42U, 0x3dad95133de80695U, 0xbca9e7843d617ea2U,
  0xbd25e5c03de86547U, 0x3d28ca26bdb7d422U, 0xbda652a83de04853U, 0xbd39300ebdba083cU,
  0xbd56730ebdb1082bU, 0xbd985050bda92c5fU, 0xbc2ec9f8bd82749eU, 0x3dd3c9113d29d07eU,
  0x3d497f06bc88c4e0U, 0x3d153ee2bd5858c0U, 0x3dbfb0a33d930adfU, 0xbd03a038bdb8601dU,
  0xbdc6f285bd8a2e66U, 0xbd9278c8bda043f0U, 0x3db695873dee7c03U, 0xbdb6ef4c3b78a880U,
  0xbdd46160bdcd373aU, 0xbdbbb5883c9dfcccU, 0x3db1e2c73bea29f0U, 0x3dae883bbc85796cU,
  0x3d807ed5bc683a30U, 0xbd450f3e3dad5f97U, 0xbd115f5ebcc6113cU, 0xbd420a4ebd2e7a30U,
  0x3d8142313d954f25U, 0x3d627722bc07c1d8U, 0x3dd5c9233dcdc263U, 0x3c17f1b83d1db67eU,
  0x3d6c77b2bca6e8b8U, 0xbdae1843bda3be4eU, 0x3ba061103d2ac54aU, 0xbd95c3443de73abbU,
  0x3cb964b4bda97c88U, 0x3dae66593dce7463U, 0x3d84cf633da21223U, 0xbdd1baf93de8f60fU,
  0x3ca2d1ecbc6b0080U, 0xbde918bfbd525d40U, 0x3d8a821b3dc8ea21U, 0x3dc1315f3d4a5632U,
  0x3d94224dbd86de14U, 0xbcc416f03d3fffeeU, 0x3df032fd3d1e64e2U, 0x3dbd8553bdc625efU,
  0xbb194ca03c858284U, 0xbd78f5fe3de601d5U, 0x3d5fc83ebcf000c0U, 0x3d902abd3dd67651U,
  0xbc0354083de4e321U, 0x3deaadd9bdbf154cU, 0x3d5e9f9ebd8cdbebU, 0x3d006baabae27700U,
  0x3c2b8308bcf48aacU, 0x3c4129b8bde6ef02U, 0x3cc937e4bd083f28U, 0xbd821f1b3cacc2bcU,
  0xbd8cb7a53cbab444U, 0xbd230ea4bd87daf3U, 0x3d36783e3bbfa070U, 0x3d8ebaa73da45393U,
  0xbde985023c9febecU, 0xbb3be880bbe27040U, 0x3ad49a003d24dbcaU, 0x3d8f24153dca5a1fU,
  0xbd776e5dbd8eb999U, 0xbde5611a3de61abfU, 0xbdf01cb63c6fe658U, 0xbd752f943d03bbe2U,
  0x3b0f3da03d38f542U, 0xbdefff0d3ca40f44U, 0xbc14bb00bd728b25U, 0xbdeeaf513da0c0d9U,
  0xbd6e54443a88b440U, 0x3dc72b9fbc1c0ca0U, 0x3bcd6ea03c1e1f48U, 0x3d9c559b3cdf0df4U,
  0xbcf516303c674ce8U, 0x3d487d7e3d8b2347U, 0xbdd69a54bd9afd91U, 0x3d56f5563c11d2f8U,
  0xbd725c16bd0811c6U, 0xbd6f0831bd01d79aU, 0xbcd8d100bd10524aU, 0xbd996a023dc1a809U,
  0xbd3077eebce1eed4U, 0x3d4bf5fe3da75889U, 0x3d8cf9c53d96762dU, 0x3ddf7511bdc43a34U,
  0xbdbc9c803d912d31U, 0xbd90c02e3bc192c0U, 0xbd2bd1c2bd238af4U, 0x3d8a2e05bd89b8bcU,
  0x3c909b143dde66d7U, 0x3db98cf1bd9fd7a5U, 0x3dd9ff5bbd0eff92U, 0x3d5891d6bd9ccdfaU,
  0x3d27f5363dda3765U, 0x3deb388dbca6c108U, 0xbb0fb8003c0a58f8U, 0x3ddbca0fbce80eecU,
  0xbc81fef0bd0f6630U, 0x3dcccde1bc01f548U, 0xbd691f6bbd227d9cU, 0xbd83074fbdc3a872U,
  0xbd72af0a3de1b2b5U, 0x3d8e7d0d3dccf3c8U, 0x3d2fe3003b0f3891U, 0x3de64f593db97109U,
  0x3d6cfe563d0b9df4U, 0x3ac0828b3d8a723aU, 0xbd024b5bbcab21edU, 0x3dfd2328bd673e12U,
  0x3ca0a6083db94860U, 0x3b1792b73dc1a08aU, 0xbbaaaa923df7be86U, 0x3cba4f4abd7bf8e3U,
  0x3ce1df813af0a1f5U, 0x3d99bbd3bcb973feU, 0xbb2276523d8f2717U, 0xbd02adfd3de55345U,
  0xbda6055c3ca4a52dU, 0xbcf435593dae62bfU, 0x3cb1cfe23e080ccfU, 0x3c8c7f7bbda9c674U,
  0xbd8d95eb3dd18c71U, 0x3e14cfd33b4f8ab0U, 0xbcb36c953dc24b48U, 0x3e0ac1673da98910U,
  0xbdd1381abd27afebU, 0xbd772f80bd4f5070U, 0xbd941b50bd0bdf6fU, 0xbd8bb5923df42f45U,
  0xbd9b81453ded18caU, 0xbdb11c56bc9ba9e6U, 0x3d18cba63e09fcaaU, 0xbda64c4b3d5922c2U,
  0x3daaf54a3dd6d151U, 0xbda6a7febd3de307U, 0x3d354d003d98f2cfU, 0x3db5ac7d3da0909cU,
  0x3db1ca1cbd6aaa96U, 0xbda79c6b3bc07fd3U, 0x3c9dc8d7bd7e6d18U, 0x3db80dedbdc6c593U,
  0xbccf27dd3dbed165U, 0x3d3526233dcb363aU, 0xbc2d84393beefa89U, 0xbd7481513beb9cd4U,
  0xbd8b51863e04dd9bU, 0x3cbe33c23dcaaf87U, 0x3d5b16793d20b6ecU, 0xbd892a7dbc541bafU,
  0x3d9186913dd37ce2U, 0xbcca5e10bb1b2d92U, 0xbd8e717a3d7a4dafU, 0x3ca83f08bd98df7bU,
  0xbdabc640bce6a3c6U, 0xbdf04d8cbdb7cb8aU, 0x3d14946c3c1191a6U, 0x3c4a8487bd0bdd24U,
