/**
  ******************************************************************************
  * @file    cooler_data_params.c
  * @author  AST Embedded Analytics Research Platform
  * @date    Tue Aug 22 10:38:02 2023
  * @brief   AI Tool Automatic Code Generator for Embedded NN computing
  ******************************************************************************
  * Copyright (c) 2023 STMicroelectronics.
  * All rights reserved.
  *
  * This software is licensed under terms that can be found in the LICENSE file
  * in the root directory of this software component.
  * If no LICENSE file comes with this software, it is provided AS-IS.
  ******************************************************************************
  */

#include "cooler_data_params.h"


/**  Activations Section  ****************************************************/
ai_handle g_cooler_activations_table[1 + 2] = {
  AI_HANDLE_PTR(AI_MAGIC_MARKER),
  AI_HANDLE_PTR(NULL),
  AI_HANDLE_PTR(AI_MAGIC_MARKER),
};




/**  Weights Section  ********************************************************/
AI_ALIGNED(32)
const ai_u64 s_cooler_weights_array_u64[25089] = {
  0xbdd8eef7bdda0c50U, 0xbdd58712bdd6227aU, 0xbdd13b64bdd32213U, 0xbdcdfbd0bdd01276U,
  0xbdcabe29bdcc1426U, 0xbdc7209cbdc8ae2cU, 0xbdc36731bdc504e0U, 0xbdbf983abdc18c65U,
  0xbdbc2d4abdbdbb9eU, 0xbdb91433bdba6a71U, 0xbdb56706bdb748faU, 0xbdb26632bdb3c7bcU,
  0xbdae75afbdb0551dU, 0xbdab0fc1bdaca7e3U, 0xbda76669bda945d5U, 0xbda4411abda5c734U,
  0xbda0c2ddbda28a03U, 0xbd9d27c2bd9ef6b4U, 0xbd99ad9dbd9b7497U, 0xbd963e29bd97ed8dU,
  0xbd92ea41bd948f11U, 0xbd8f7a4abd913886U, 0xbd8be668bd8da7abU, 0xbd888817bd8a3db2U,
  0xbd84f9bebd86cb9fU, 0xbd817871bd833acdU, 0xbd7c2dbcbd7f8beaU, 0xbd752acebd78ba09U,
  0xbd6e505abd71b070U, 0xbd675f14bd6ad940U, 0xbd603814bd63d052U, 0xbd595dcabd5cc731U,
  0xbd526871bd55cc5aU, 0xbd4b9a00bd4f145bU, 0xbd449101bd481f4eU, 0xbd3db648bd411c4aU,
  0xbd36dc11bd3a605dU, 0xbd2fb777bd33361fU, 0xbd28d0ecbd2c3d5cU, 0xbd21fce9bd258131U,
  0xbd1add6fbd1e4631U, 0xbd1405b6bd17802dU, 0xbd0cfa32bd1070c6U, 0xbd0604b4bd098044U,
  0xbcfde612bd025b6cU, 0xbcf0330ebcf6f737U, 0xbce2847dbce92ce6U, 0xbcd4c168bcdbaf03U,
  0xbcc68647bccdabb3U, 0xbcb89e9ebcbf77f8U, 0xbcab22a3bcb1dd35U, 0xbc9d87cabca47a20U,
  0xbc8f4b3ebc967affU, 0xbc813293bc881ed1U, 0xbc66620abc747ebdU, 0xbc4a8582bc58257aU,
  0xbc2e5250bc3cde3cU, 0xbc1270d9bc206e1dU, 0xbbee47ffbc04cbc2U, 0xbbb8b6fabbd44636U,
  0xbb808c56bb9c06c5U, 0xbb13c0c2bb4bd1b7U, 0xba0b0d70bab78a4eU, 0x3a9ebe7739bd0b90U,
  0x3b3c47ed3b0509fbU, 0x3b9557a13b73bfd7U, 0x3bcd15403bb13d38U, 0x3c02791a3be9441bU,
  0x3c1e55103c106b02U, 0x3c391db93c2bfee6U, 0x3c551d803c46fdf4U, 0x3c70cfdf3c62e3e8U,
  0x3c864bc83c7e3f8dU, 0x3c9449ef3c8d2ed5U, 0x3ca1f41c3c9b403cU, 0x3caf8bd43ca8c9e1U,
  0x3cbdf3c13cb6b486U, 0x3ccbe1a83cc4f21eU, 0x3cd9eb9c3cd2fac9U, 0x3ce7bc503ce0b8d7U,
  0x3cf5df203ceed3faU, 0x3d01b9183cfc9ef8U, 0x3d088f453d052bf0U, 0x3d0f7a8b3d0bfbeaU,
  0x3d16823b3d12fe27U, 0x3d1d67283d19e5bfU, 0x3d24521a3d20d410U, 0x3d2b459f3d27c3b4U,
  0x3d3233d23d2ed12dU, 0x3d393cee3d35b7a3U, 0x3d40190c3d3c9b69U, 0x3d471ada3d439bbeU,
  0x3d4deea43d4a6f76U, 0x3d54c7543d51685aU, 0x3d5bcc0a3d584a3dU, 0x3d62bd2f3d5f4808U,
  0x3d69b63a3d663999U, 0x3d70c8023d6d3627U, 0x3d77b2a93d7439b0U, 0x3d7edb783d7b477fU,
  0x3d82cecf3d81256bU, 0x3d862bdd3d847b99U, 0x3d89a6b13d87da80U, 0x3d8d2c1b3d8b6edaU,
  0x3d90966a3d8ed9bfU, 0x3d94062a3d924d84U, 0x3d9784da3d95c319U, 0x3d9ac8323d99352cU,
  0x3d9e4f9c3d9c68baU, 0x3da1eb613da006bdU, 0x3da5516b3da3be81U, 0x3da8a0523da6dfb6U,
  0x3dac4d233daa8ae3U, 0x3dafa4e73dadfe83U, 0x3db34fb63db16881U, 0x3db6dcb23db513adU,
  0x3dba816e3db8afabU, 0x3dbdb6b93dbbf23dU, 0x3dc098043dbf1ddbU, 0x3dc425093dc24f16U,
  0x3dc7f5e93dc610b3U, 0x3dcbb0c03dca21c1U, 0x3dcf613e3dcd0a4cU, 0x3dd313683dd1c37aU,
  0x3dd612423dd45d11U, 0x3dd9ebe63dd7eb62U, 0x3ddd03543ddacd96U, 0x3de07bdd3ddebf99U,
  0x8858333cc6c2a762U, 0x55a9c46a332fc75aU, 0x74c93c3cb891daaaU, 0x7ca7969c46c9ac8bU,
  0x775e3581427f6caaU, 0x37ab58893e7cb49dU, 0x6d234248b6229d81U, 0x6d1dad863f27acc1U,
  0x4dbe736d8ca66ad4U, 0xb6be3e48953a2f6fU, 0x5770a2c4a47cac38U, 0xdaa07d2ebe939d92U,
  0x674f93d02a625d7eU, 0x66d08476b8d06283U, 0x3c6d282d4a62b28dU, 0x6fdb781d6b60673dU,
  0x9c9f69c5a8ca909bU, 0x6bc5844a9d8656d0U, 0xc9a387ac29b85c97U, 0x36d34e3bb2a7beb1U,
  0x505c354a3d8155b7U, 0x60842c5e6765b238U, 0x8233a770be8163c9U, 0x519465a5c94d73ccU,
  0x38229d858433728cU, 0x4e4677d8cb8b9343U, 0x2c7eb4a4a736ae39U, 0xb558c136b1704792U,
  0x39ca4285d0966a5eU, 0x7e66925d9b82cf74U, 0x3ba17125cb4fac61U, 0xb45b7377b78b3ea5U,
  0x619ec380cdb39b91U, 0xb9368ddfc1732c9eU, 0xda7a5b54543e7f8bU, 0xa9385d8d5d453488U,
  0x92bfabbd859ba781U, 0x82b1b8c076484687U, 0x78708a4eacaa7fb3U, 0xb270577973b25c2fU,
  0x458bb481a253379fU, 0x5f789e34cba45c81U, 0x7e5a846f5ac1bc57U, 0xc4d695d88474cbabU,
  0x97637c5a5a50876fU, 0x40ab25837a4b71c1U, 0x2ea37b1e7b7e387fU, 0x2f8ac1958a3b9eafU,
  0x9080ca4bbc6fad86U, 0x28b4b5a2a44daac0U, 0x5ebd2b8a5558ccbdU, 0x8f73448141906b8cU,
  0x6681577c72902e64U, 0xc26cba68894575d4U, 0x8c82992a62658920U, 0x4dc8a833c2c2be4eU,
  0xcd748ab64fa3bdc5U, 0xa990935572374c40U, 0x8b956352b05a84caU, 0x1c772174aa902fbcU,
  0x95cc5295c3d66961U, 0xc96832659898d47bU, 0x4c41a756ad9d5c8aU, 0x5357502d1021afb5U,
  0xc6639fd08bbbc543U, 0x77b8537a76b161d2U, 0x9fcc98837d837729U, 0xba674b22b6b06ebeU,
  0xb09d457439879d9cU, 0x682a3d8f328b7739U, 0xd45c7fb5a3c581abU, 0x80343440cdbe88d1U,
  0xbfd1c523ab8e69a8U, 0xc4c077a75137ab9dU, 0xd77f9ec6cd73243dU, 0x26395c406e9fab4eU,
  0xbd94633da24b8c82U, 0xbcb39ec69c9582c0U, 0x6fc593b496b69c8eU, 0x454c80474cb16775U,
  0xb0d3a972a8cd59c7U, 0x906b8da7c6b35a61U, 0xac7fd2d4b485c9b0U, 0x988f39463691ab7dU,
  0x9f5f7b3b32299dcdU, 0xcd58b55fbc755887U, 0xa6325361a729a629U, 0x3836d57582c94c31U,
  0xc2b7afbd85cf6986U, 0x655554889399983dU, 0x71d28f38404b4637U, 0x9656aa8f8c2dcd26U,
  0x4f675b8d3b623d5aU, 0x948e49bb50d0cb4fU, 0x944553d2912d29cdU, 0xa04dce26592f96c5U,
  0x63b856852874ac56U, 0x9f1aa371ba86d641U, 0x8cca8b977b3e2620U, 0xbed5c39e668ed5a8U,
  0x6283312f30a87e91U, 0x45b18eadbcd99b4bU, 0x814f654cb6c5bdb6U, 0x9cc34553b6b73e26U,
  0xbd6964902e85b66eU, 0x68d14faaa061814aU, 0x87c13eba3d568739U, 0x354a8e9ec48e513fU,
  0x9693c5d49063a475U, 0x4acda09b7b87d951U, 0x4680963c9588bdadU, 0x8c85503d50557bb0U,
  0x645eb6b99cb2b496U, 0xd0d04f4ac55391caU, 0xd49448457fa38e1fU, 0xa66541496d282d70U,
  0x398b4ab29652ce5dU, 0x54cba052a487ca41U, 0x7fb7adcf909cb436U, 0xa1914e5d5d899533U,
  0x61923e93b19d4559U, 0xa3cc2cc18965aec2U, 0x3ebea1bcd7be4c84U, 0x5a4b972a83445128U,
  0x48236c51b9272b8eU, 0x66459cc5709d5e5bU, 0x4c4076759da7be5bU, 0x7daf76d22b572f78U,
  0x327d933d96c8315bU, 0xaeab9925cc8b2085U, 0x6078a66331dd8961U, 0xd3caae9cc53d75a0U,
  0xb9b282d9b8a1e4b4U, 0xa52fcbdbbe2a40b8U, 0x84596f79c27e2c56U, 0x35a6d746c06ad667U,
  0x2ea8574f6eb34230U, 0x46839f6f99465070U, 0x63b216ab8765618cU, 0x6fc73f9887cfbba8U,
  0x8fb986853848ba52U, 0xb93ecc81b933cf60U, 0x59984896c69ed0b7U, 0x9c80952a20729980U,
  0x8f23653559c39e70U, 0x8e36503969a949b6U, 0x818e75a09778416aU, 0xe53482abd08d8f4cU,
  0x782d7830c3836fcdU, 0xd2c4bc9b92d8522bU, 0xb991707f7b6dc465U, 0xb4b7ae29342e72a4U,
  0x72bc2f8dbcad3f32U, 0x6c3736cbd44fcbd8U, 0x2a996cbc6c1526a6U, 0xd74a938080a4995eU,
  0x8c992c7d87216d6eU, 0x4276497e8fd04838U, 0x39be6f53cd46ae64U, 0xcbb378a9bd5383c7U,
  0xa484af3428cbce2aU, 0x506c32a9c2d688baU, 0x73352b8e304eb683U, 0x41a957b575497e7dU,
  0x8c79425ab5475dabU, 0x7f288c8734beb449U, 0xad4e738f9dc87580U, 0x4f505654493235bfU,
  0x4a4171c8c0c93458U, 0x3ccf824130cb6b8aU, 0x6e73964fc9b779a6U, 0xa2ca42d45fac3b6fU,
  0x372ecd3e3a24606eU, 0xc22b8acca585902eU, 0x7e44c0b2833635d2U, 0x394b7b8dd2b864d8U,
  0x80d86c88c3c59640U, 0xd4836a99a2346475U, 0x4370576875ccad7aU, 0xd6a7b8da95bd329fU,
  0x9e35c245d58c4cbfU, 0x60675b4b3c943457U, 0x7ccc4d91adc53e40U, 0x7bad64a8ba86a576U,
  0xaf9fcf9cbfccbe58U, 0x4697492d287e8484U, 0x956065569099c9b8U, 0xc1ca4b4bacbd9d65U,
  0xd262b62ad2914761U, 0x96d4d647c6ba4681U, 0xb84435862e675172U, 0x55ae2dcf9026549bU,
  0xb56492676439b495U, 0x323c82c782434d8cU, 0x8ecf48412e8548b1U, 0xb7935f99565ac497U,
  0x7a93a743a7cb2190U, 0x82425730802e4adbU, 0x8c7b4b90b6a639baU, 0xa266ceb279c49796U,
  0xc5a0c637c26f9f84U, 0xcf486db98b6041bbU, 0x29be5c5336a47797U, 0x618177592e93ad6bU,
  0xb44768d2967b5e9dU, 0x99ccc4b526439f69U, 0x6327a3cc875022aeU, 0x64ba7dad992f6cd9U,
  0x9a486426453f6958U, 0x4bc346cd4952892cU, 0x34b851a8d1cea347U, 0xb98e40a17d7c8a6fU,
  0x45cb5b93be7a8b59U, 0x45b8384c48457d5dU, 0xd52d7b70a9506b98U, 0xbb4f3c4c5dd6ce66U,
  0x7622392f86c9ae33U, 0x475b3198c96f3134U, 0x31634e7129bac4b9U, 0xb95d487b84bd464dU,
  0xb5cf39426037922cU, 0x5d4cac5077c7cb68U, 0xd7aa2e45352cbe85U, 0x79c4327669746a61U,
  0xa8aa5e6450cb88c0U, 0xd987302fdc74d032U, 0x79c952b8d17e8d78U, 0x4bde71336172a23fU,
  0xa253b174ad539070U, 0x95c15d784b435731U, 0x6d2e458daa89a891U, 0xcd37c58abec96960U,
  0xac5fb0a6d1a3a3c3U, 0x748db263c555aaa9U, 0x9f3997946bc4ceb5U, 0x6e39ca475f44a882U,
  0x93c67c59296e3787U, 0x95bf887bc4b77f65U, 0x6a7ea6556da85ad2U, 0xd743aa9322b74a37U,
  0xaab6d351bb6b3647U, 0x9986727e3daf45bcU, 0xb087cb87ae4c8b68U, 0xa5415d31948f54deU,
  0x9c9177b296bd7c97U, 0x7c523f64c0d2d674U, 0x8ba2a3552ae0a1b0U, 0x4aa995af24318da5U,
  0x52b38d5a6d74bbabU, 0x8273b5b69e8c6942U, 0x9e84825f757ca5ccU, 0xafbd5f6b3392a4a6U,
  0x9aad1abc2247a943U, 0x9091467688817451U, 0x574b599a53c52c7aU, 0xaf51b154a96f619fU,
  0x834079388b888b46U, 0x99ae1b336f93be25U, 0x71aeb32a7e3e3562U, 0x639a1b33ba6dc231U,
  0xbd42a98b74339b84U, 0x98aba82c4ea12577U, 0x1c343c57884c5065U, 0x4c469a928f3299c8U,
  0x683c936b20409c97U, 0xa0b945bf956d646aU, 0x2cbf21538c3a258dU, 0x98c6b4be5582879fU,
  0x9843c652ae9eab50U, 0x892dc73cce2d6f31U, 0x772a86abc05f1a41U, 0x9535a33dcd40965bU,
  0xba96b8beb9ce80bcU, 0x9b6cc3c47763bd78U, 0xa65398a2a5304c98U, 0x4046b2c98976a1b1U,
  0x72319b8b279b631fU, 0x48678fc6c1425928U, 0x7f2f8f4c993abfbfU, 0xcd7db4ab2c38ba36U,
  0xaab2942cb33e9748U, 0xb63b8b7337b41c29U, 0x808b1e95449a8947U, 0x9e5431c481694c58U,
  0x7dae1e4933765d24U, 0x361cc531587a4264U, 0xbb3d7b5d651c744fU, 0xb36c8572b6673e8aU,
  0x777b796cbf906e53U, 0xa37c3db07b6cc9c3U, 0xdb70a885979265c8U, 0x4a4fa1746e299a3bU,
  0x5cd34f95588cae47U, 0xbac072b3c4c29352U, 0x644227796d59389dU, 0xc1614e7e60c7b96dU,
  0xb07ed73c50847a21U, 0xcc996e1ca7693c93U, 0x496d50b8478e8f77U, 0xc058bd623b6ab198U,
  0x99717230b25fa187U, 0xaf4c9426d168b47bU, 0xaf4a54a48b40628fU, 0x33a7a7b070595e3dU,
  0x46238a315b637b9bU, 0x4c657676a4c07c4dU, 0xad7ec49437245a49U, 0xa69996496a6e9c48U,
  0xe0a05a2c6759a593U, 0x7e86ab2d9c9d9860U, 0xd5584a57794498c3U, 0x4b24ca9170c0ab5bU,
  0x74dab25f472c408eU, 0x37916c5ba53dcc87U, 0x6355475c76a657cdU, 0x4c38929f2b30cea9U,
  0xc2703d605f7c92ceU, 0x742f4539cb344799U, 0xcd2b538fbc739e88U, 0x5a873c2c2a357fc7U,
  0x1d21ad325145912eU, 0x5b73c567c2c02f80U, 0x858663c753be6074U, 0x53453bd66d5abaccU,
  0xc5ae82ad5a997ea7U, 0x4ec5642aa38b50a2U, 0x4ba090b22451b39eU, 0x3fafac969e556abaU,
  0xb324405b3d47c080U, 0x53aec5433e782d6bU, 0xa4917726577a9493U, 0xdd8f72552d6ad040U,
  0x6fa4c1b4af5b8a62U, 0xae69416a624cc7a5U, 0x77c353392c89726aU, 0x47b38540a0b56b4aU,
  0x44597a81c6c0b72eU, 0xa82d939e9de08632U, 0xb7a5cb293fa72a49U, 0xe0e494c22d5d75d9U,
  0xc659436e77a3c0d8U, 0x292d98363189b1cfU, 0x9026bc74889e5d72U, 0x3dd9b7d9c3895639U,
  0x52ba8c504083c7dbU, 0x80777b892bad4072U, 0x767ba77a3393adbcU, 0x2d3793313238925bU,
  0x8470506e498b583bU, 0x9ebcb09650589876U, 0x9da7c57586d64d83U, 0x504c3d7461aaa273U,
  0x652a7243d16b45d0U, 0x8892d4d570d79cd2U, 0x8c6bac9a92c56960U, 0xb8bbbc5cd28e4e38U,
  0x9fa236b07a6f515bU, 0xd848c44793c13358U, 0xd68c9d62699c9bc5U, 0xb6612b2d6b3699d7U,
  0x253aa95b37bf8facU, 0x33a9367e8da92daeU, 0x44823333b499494dU, 0xd9d62b31887f782aU,
  0xcd9938b15860ce41U, 0x4e93635644bdcbc8U, 0x6f825c4fb82d4db6U, 0x468bb0517643845eU,
  0x54cad4b56a5732c6U, 0xc39993a1655a9f65U, 0x7aa9952626c6afa7U, 0x45d36faf97d34939U,
  0x3cbdaf444ca04d37U, 0x8740ca7950455797U, 0x93a22d4d40ae8c94U, 0x537cc04445458426U,
  0x8a8f36d49b6457aeU, 0x93c3988e64a3857eU, 0x6b5264a5b3bf9db6U, 0xa6a0b8922fac4cadU,
  0xb491d2c0a4ad28b0U, 0x26d5ad8f40872f27U, 0x773c6f2eb5793f26U, 0x716a604cce8257b7U,
  0x937d667483ae50d1U, 0xa85e8524935e357fU, 0xbd458ea4239ea89dU, 0xaccc67c492304e2aU,
  0xb9bc9142b2a3bf37U, 0xc16e36aaa7b12b69U, 0x8e3b6a555e606d24U, 0x59843f6443a36071U,
  0x3a9db9b55f884f30U, 0x999c6042d3a28372U, 0x49523e94725d81bcU, 0x3491882a8e4c43c5U,
  0xae9e972c48a163a1U, 0x5ad4c03d60d5c497U, 0x55a4c5ab4d6b5679U, 0xd6583db83e7ccba2U,
  0xcc713c7bc72fb060U, 0x50a097b4b9cc2782U, 0x8574ae50c1cbb0c9U, 0x91b172532cbd6e75U,
  0x2d463896adbf49bfU, 0xac26a6d197b64b7dU, 0x353d3d6d319dd88cU, 0xcdd488c433a4b029U,
  0x893ab15fa76caaa9U, 0x3eb58b5227b7bba3U, 0xc5947db8c078c75eU, 0xb5c9d480554f457cU,
  0x4c8990729f778bbaU, 0x90309d964e5f38a5U, 0x77a73db55f45c2c6U, 0x9f399526cc345966U,
  0x416f50913375ab7aU, 0x2c9c37c574658e27U, 0xc09a42d592815787U, 0x973dc064c27a739fU,
  0xb04ca641c496a8c9U, 0x6b666e79b76c38b5U, 0xaba8567fc88d93d4U, 0x55954d924bc7be96U,
  0xc2be2a8e54d8a23dU, 0x6f61bd8bb2ad31d5U, 0xd55db2ce34cd6995U, 0x3028bf754a45a87cU,
  0x34b2c0707c7ab64bU, 0x2ccd82b4bfb64b90U, 0xc25b378d75477142U, 0xc55e556d50554fd4U,
  0x722a3e4333c7c049U, 0xae34c37b33992db0U, 0x39d14344cda12aa6U, 0x3963a87125552e93U,
  0x4dca9e4145574e24U, 0xc595ac4184b28173U, 0x4040b5ae35d3a6b0U, 0x72249cb8bbc0c698U,
  0x5161ad4c80aa6658U, 0x79633676c6683073U, 0x97ad2fb6d644b828U, 0x68708dbf375729a4U,
  0xb53e9395c49f34acU, 0x6179916e5788d5b0U, 0xc0aba152b982372aU, 0xb4cfc69082b87c78U,
  0x86ca6c8f6b669688U, 0x69432abc6b9f44b1U, 0x6f4c98b23d68c42eU, 0x58be2cc9917d5d57U,
  0x7b412a6e78729fc0U, 0x83408a5630906ba7U, 0xc58f8ba6b1a55884U, 0xa86563c529d27ea9U,
  0x3684bb68309442a6U, 0x2a6638742d2f7d9cU, 0xcab571697351bd59U, 0xd8899670c54fc257U,
  0xc23161aac471c1c6U, 0x9a35ad8b30752e4dU, 0x986a387d2c6e69b4U, 0xa38ac2973cc1d1c0U,
  0x27d7c4652e968944U, 0x8d7385543e467b79U, 0x6ec28496b561a0c6U, 0xcb7939b83a8dadb0U,
  0x47b048b175a74b6aU, 0x652c6ac1c05acf49U, 0xa6b7803b5724347dU, 0x9e6188cf5a40522bU,
  0x5b6a3537a6a12e7eU, 0xbfc3635d8035483eU, 0x6960624f83bdd7c9U, 0x9cc05ec67fd63528U,
  0xc1b8c8966b615b34U, 0x5c71763ea0399a3cU, 0x2a27c72945cc354bU, 0x94933acf67c15231U,
  0x537d4e6b3d8aacbbU, 0xc878bc514bca54a5U, 0x7a7d8e956b85b243U, 0x308ba8b65b6b7f2eU,
  0x2baba0aa637aba92U, 0xc44c2f54c2a08cbbU, 0x5f2abdd4867861c2U, 0x4f4586b2648957cbU,
  0x43acab5f3d6c5657U, 0x93c99a21a2389784U, 0x67b1b3589eb11dc8U, 0x6a3a464a42bbafa4U,
  0x4c2c5f9b5ca6d95dU, 0x452e909abc97accdU, 0x89bd318d4ca66d5eU, 0xccaf9b715acf3fa7U,
  0x48d68d436582a965U, 0x24cd6190b4387f50U, 0x56a8a0ca2537794aU, 0xc7b69fd8488ebcbdU,
  0x98ac1e425b783195U, 0x41cd79b9736e2760U, 0x799620ad966d48b3U, 0x6baa8d2d8487a874U,
  0x4eb66c815dc03865U, 0x4ea17c87ae2b337cU, 0x65984ba5b5316547U, 0x47469854a0424d74U,
  0x4eaf5882ca342877U, 0x97ac36397f6b7185U, 0x9aa49c4b755b973aU, 0xcbdd9b5453a97f4dU,
  0x568b722e732b3e3eU, 0xa2d69eaf81ae8737U, 0x6d31657e4da57d4dU, 0x294bca206393c976U,
  0x67d27b80643fb123U, 0x95c4532eb1592dcdU, 0x66504d96b76a2b84U, 0x3d7557463332c55aU,
  0x318d4d50b4b73e9eU, 0x6171b879b758be4aU, 0x34357ad18ba6a7d2U, 0x9d6ebbb1be35b5bfU,
  0xb031d3b247397366U, 0x61968d3dc568c5bcU, 0x5ed291824488cb3bU, 0x4e7dc5bbc63f6bb7U,
  0xaeb32c5a27b5beb8U, 0x8e3b5c399c3546bcU, 0x6248a6c59541be8fU, 0x9581ccbe449a3696U,
  0x6e4d40822e7751b2U, 0x6a6832972284915eU, 0xc65eba454ea8b942U, 0x316fae5b3f543745U,
  0x944dbf4178c023b4U, 0x3082d55ec87daa7bU, 0x7dbb4689d1cd422eU, 0xbf3aa7387b435f50U,
  0x33d3de722cc44490U, 0xbc843153b158b140U, 0x89b76c674b61d07aU, 0x63bf69378e61ccc0U,
  0x38712927443cc8a6U, 0x3c8b80561da6a77dU, 0x533b2398cb593979U, 0x1f9a8d8d8fc65640U,
  0xcc93becfaaad20c6U, 0x4ebda3c96d1e6fc6U, 0xb430c6456b9fc1a1U, 0xb82229caa2735ab7U,
  0x91a48b8983733a96U, 0x3c5f7b5546892e93U, 0x9784253b63a06e3aU, 0xd0c6695c7e9c9e29U,
  0x8d987ecd9542295bU, 0xcf65c237688a6db0U, 0x8a90ba5e669bb2c5U, 0x7125b08c9b61aa71U,
  0x705dba299838ccbdU, 0x69ca6f3a273ca581U, 0x9c5450879b5c4769U, 0x4b4b1f6f312a5062U,
  0xa17a78a250768c83U, 0x977b97a1b270598aU, 0x334f4891594c5726U, 0x50b6af7183b4b639U,
  0x513d5d4472464a89U, 0x59283a7555b46158U, 0x3841b32979d0a348U, 0x7f973d96544dbe6dU,
  0x2b9662423d6c1d42U, 0x3381d137b04ead74U, 0xc53d33693f83c242U, 0x1fac7d56c6404b75U,
  0x7371476079b5aa7eU, 0xd5cb608d7e41b58cU, 0x514587959cacd857U, 0x934b6b606894844eU,
  0xadb39a5b982ace95U, 0x2d6fb95551805fc9U, 0xa875652c985d7063U, 0xaf372d5094385258U,
  0xb8ca6586b8d3d67aU, 0x304ac2b726565186U, 0x543f86965b5e4891U, 0xb551995a66a79e4fU,
  0xd4acab69717fc1b5U, 0x897ac47378b2a19dU, 0x5cb0502536ab4241U, 0x50c9314a4677417fU,
  0x2657c4a6899526c3U, 0x834a262b5fbe9e8eU, 0x4279cd7d63aba5b6U, 0xb6a89bd7c3c679a3U,
  0x5ad37b2c5f5ac77fU, 0x8fbe38b026cfaa6dU, 0x5c648f64333ea94dU, 0x486caf6c3d30863dU,
  0x6dd72e62b27856c3U, 0x80294f984f98449aU, 0x6782b9d82fcd61d1U, 0xc0b9d4533270713cU,
  0x5656bf29542b96baU, 0x9d94baa856978f2cU, 0x83a7a66b4c63cf7aU, 0x8ba364c06b3b8c2cU,
  0x9934b625a2735876U, 0x3e76a9376169b94cU, 0x6e8e7786423d289aU, 0xac7c5f96a2b7282bU,
  0x5786a34e59b86d54U, 0xc67cd362484dc22aU, 0xba448da4583f4bb5U, 0x457e84bd7a5abb3bU,
  0x26798a86c83ed58fU, 0x54b8af46383fd35eU, 0x2f8da4a0bd61b782U, 0x728a453db3b1419dU,
  0x435532cf96786a86U, 0xbdc795a75f95269dU, 0x5b8885b39d2a916fU, 0xb15a538f6dabd040U,
  0x443e4843c3b42e49U, 0x31b8b66a6da7336aU, 0x95ae967143a43fc3U, 0xb434ad6230d486a8U,
  0x2464557d81363933U, 0x86244bbeac25a651U, 0x72b028b26da57e81U, 0x81a14451cb6147c2U,
  0x2e9bc4b94c555d2fU, 0x5c7b892947c02d25U, 0x274c2786b741b8c3U, 0xaa372a584f873357U,
  0x45c79766c3a9b125U, 0x30d678c9cc993ecfU, 0xca5eb96bbb2d904bU, 0xb1612b8ba8a2b427U,
  0x5848cf5561268169U, 0xd35885c92e44924eU, 0xa56e4b8c6fb6847fU, 0x2965b9344f8fa65dU,
  0x446fc9ab5234d556U, 0x59aa487a99aad742U, 0x5d67c47899b2254fU, 0x8879b7a5b6bb96d2U,
  0x84495db4718f508dU, 0x2a7c64868690808fU, 0x3b6c72696249987cU, 0xa1c22964392f77a3U,
  0x4289af6d57c4d06aU, 0x7a72479f48692c5cU, 0x3d66ac4da03a5bd7U, 0x5a25d22e74684a44U,
  0xcb3546bd66714c60U, 0xa0694694947e3f4bU, 0xc9b0d6b44d8ab7c9U, 0x2643834c3dc94f87U,
  0x977d258931a97895U, 0xd42954969ab23e7eU, 0xbb7e36cfa4b1a884U, 0x4834c56b8345c685U,
  0x4c8ccbbb89627a5bU, 0x24b990b22c41382dU, 0xb749a0b49bb1a0cdU, 0xc05b3d70797a665aU,
  0x658d846982afbe5cU, 0x59575487b1aba177U, 0x32b83c688a7d766eU, 0x8c549dc07f91b8c9U,
  0x6dc92d17458c9765U, 0x46bd65b576b74a8aU, 0x2b1d25432059bd3cU, 0x73559bdeb7412574U,
  0x9c6bd5666de33c57U, 0xc8267da580786a34U, 0x74b6ded4e0589a71U, 0x18825675ac5371d6U,
  0x6572718ca83f2b18U, 0x5c7b35c07e8c67afU, 0xb32886100f6786d2U, 0x94cad0b5df357824U,
  0x7f3a25744a9051e2U, 0x9bc24460c0747b79U, 0xb0cbb24ae24dee73U, 0xac87ad1abd628955U,
  0x8e504aa93f2d61a4U, 0x9871219d2d499fd2U, 0x4b491e6815783853U, 0x34b0da5089c59ce8U,
  0xb51f3d23863299dcU, 0xd15da84c2656b17eU, 0xaf3e52b04cbdb55cU, 0x4f9eaf30bf911d86U,
  0xa8cfe3855a4fea3bU, 0x3b9c42664658997dU, 0x3d8a4c9e36c48d55U, 0xc3808642f4c3c590U,
  0xbfc178bc44846b93U, 0x3db87057ba73a986U, 0x590bbd948b5ee24dU, 0x7985553b7f217ba9U,
  0x27377d434cebb7d2U, 0x26be711367869ac9U, 0xd1b3ceb2d05a466cU, 0x1e4c5f59d18db196U,
  0xec65591b6da819a6U, 0x67923ddd9b6b584dU, 0x680f1f4173141d65U, 0x929b2c69383b518eU,
  0xb82eae71cabfebefU, 0x8870806db3967275U, 0xdb56e490d3c64672U, 0x61155e8dae83d441U,
  0xa3c881b94726b15fU, 0x4923bc42e98fc2a2U, 0x97126a60127c993aU, 0xecb4c4cda7cbda88U,
  0x55a921aab940b6aaU, 0x356baa1f9cb54eb6U, 0x633bb443587ecf7cU, 0x4266a80631955a7eU,
  0xbe558ba8432f7158U, 0x529368cb7f4bd858U, 0x8192489d1dbfbb0dU, 0x7b4ca76db8949664U,
  0xb1829813a0471949U, 0x85a255cbb4256d4aU, 0x1d5356454f7d8a8dU, 0x1f2d19606537224cU,
  0x6c6ea8e6bd6ae49aU, 0x2155568a51a4897bU, 0x9a695b6394549788U, 0x1dadded6909873aeU,
  0x85402c379b985293U, 0x563341c093852228U, 0x2ba531a9a55d9f75U, 0x8423276925b26d87U,
  0x90d03cbbb755bd2fU, 0x9fa147cb5030c590U, 0x4f6cce862f44ac8aU, 0x4a936872d25ab26aU,
  0xb2615ab0bb7ec697U, 0x48d180b443cbb844U, 0xb279a0b66e9c35b6U, 0x735e566cd276cf3bU,
  0x7fb951af274d7928U, 0x4489a62e46aa42acU, 0x48535d786a8f9d93U, 0x5f578fa0a39f819cU,
  0x81ab288d7ad47d4aU, 0x8fb1c97c5e279821U, 0x4db738c63f44b296U, 0xa8409a6eb8a4d4d2U,
  0xd4827e617c7cb152U, 0x5c363ccdd7c9878cU, 0xa05ab23b4cb72bb4U, 0x5a64cdc3a4526ec1U,
  0x9b303dc1bf743a43U, 0xd7cc713e7b91ba45U, 0x613e57688a86b2a2U, 0x92ce3b4e8cab7735U,
  0x26652c954293a779U, 0x9869935cd2bdc74dU, 0x41cd30cc7fc67581U, 0x3e6254d0ae789494U,
  0x2d56e2c5839d6e8dU, 0x5b97beae8e6a9dc1U, 0xc48548aad059d6afU, 0xad8b75804ca9aa8fU,
  0x5b48caba547d8995U, 0xcc70a1ac3ebd4e36U, 0xc1c758bcc5758039U, 0x8bc6423a55a86188U,
  0xbf7f32c3d6b19134U, 0x54c91321aa39564fU, 0xea42d292ab338e85U, 0x49a2572f7c80a744U,
  0x80bb6c525a3e15a5U, 0x2394347d6e84c5b4U, 0xb78d5dbe613e3474U, 0x9588b26dc433c6a1U,
  0x9864558ecda19cc3U, 0x483ecf39556ac723U, 0x92289fc63572c24bU, 0x3a57d585c0988d49U,
  0xdc418bce6455c122U, 0xc04b932db38b9ab5U, 0x77859fd3777c9b60U, 0xc377d8676b4095b4U,
  0xc3b974b0b34492daU, 0x92b39e70d02212a6U, 0x516630d2d6c5c475U, 0x71914e3a2125971dU,
  0x5a3e60358d55a13aU, 0xa268be7cb64acf8dU, 0xc0bbd799d354bc37U, 0x9565a88ba1618e82U,
  0xb0cd68b69bbe84aaU, 0xbc1d2fc165df91afU, 0xca3742bc87ce2f96U, 0xbdd134b2147f6eb5U,
  0x7eca3f35223e37cbU, 0xc34d2a9ebe7ed88bU, 0xa38d523c54339faaU, 0x8d6c95d2bde84e94U,
  0xd453d4b6981d3188U, 0x7370bace4970c272U, 0x987fc87b6fa0658eU, 0x6299d2d5bd6f7965U,
  0xa959745f1f29b7a5U, 0x6471385a7e629e54U, 0x83a697a69987db79U, 0xae263e89788e7edfU,
  0x5460cfa94a6d8d86U, 0x8aac9b45ae397c9bU, 0x7c25302b5dc37854U, 0x867a4f7b494cbb5cU,
  0x71d882ad839ab468U, 0x6d65b923be5ca343U, 0x86a4c4b26550c57cU, 0x4613258aad7f68d8U,
  0x5e327fae784054b3U, 0x8f6998aaadba3d56U, 0xbcd6486961ab7d43U, 0x435abb65ad80477aU,
  0x29c38f56977a6995U, 0xcc7d9e5e92863037U, 0x6381a19c6d238391U, 0x9a3869105a3d50c1U,
  0x9e533d3ab65acc89U, 0x533b3042755076d5U, 0xc050d4482ed0b2a8U, 0xc042cf35bf8ab8afU,
  0x7186a1d8642c6945U, 0x72c29cac81bc2d78U, 0x7b60b19ca658ac82U, 0x29504e3d9a407d54U,
  0x8b83b22f63699972U, 0x30305585baae8157U, 0x39ca4a71479ecab7U, 0x89d0844e8f792478U,
  0xa84656433e2da686U, 0xb5ac448331507eb9U, 0xc680b68985648c5fU, 0xc75d6a783cb9a0d0U,
  0xbf4782878f8f9482U, 0x474fc794aa8d3496U, 0x79782da6c37a9783U, 0xa62fa66f53c57096U,
  0x27c9a5438dc7ac9fU, 0x7eb18871b5ad2486U, 0xb85f3c84c737a579U, 0xa1566c7f80b87388U,
  0x992d53c3a656afb4U, 0x4cc58252aecebeb9U, 0x243fcd547d22445eU, 0xcd79a7879acd9282U,
  0x508f55b16e477b2cU, 0x9b6051a491d365bbU, 0x8478849f5b46c7a8U, 0x8182cf8ecd616cb0U,
  0xb8dfd86653341b70U, 0x5b634653767170b5U, 0x3147bd47ad5d9ca0U, 0x9f6a659d53a14a43U,
  0x5fac52a0cf76b189U, 0x6eb0a04ca9be9e55U, 0x9dced07f51809f67U, 0x8fa99c86c33e68a6U,
  0x547a99baa1357e7dU, 0x3e86a6c9b29e6cc6U, 0x7e4b9b318c784316U, 0x4ed7ae30816c3468U,
  0x33a663aa8858788bU, 0x413a52c4b0a77cc7U, 0x6a20abd0d22c5d8dU, 0xd1b81d9787cb4abcU,
  0x44cf9a45d4832ebeU, 0x9dc78ea2836ad0dcU, 0xbb75a97f8824944aU, 0x40c49132843fc096U,
  0xbc5ba960864b3456U, 0x343d49cfd04b9417U, 0x325d889236c4837eU, 0xca906989245656bcU,
  0xb169db3094307154U, 0x806059c6306fbea2U, 0xc160a1514a6863c2U, 0x246c7fd95bc2646aU,
  0x25c18f8dbb7b94afU, 0x95876edd3453c671U, 0xaca95c28608f4089U, 0x406964965b434c9bU,
  0x8e7da99e57769338U, 0x60c55b5f1ec03764U, 0x2031c3819fc1db52U, 0x8e9733855789a980U,
  0x569ccd664b7d70b2U, 0x20533e6c962d9a60U, 0xb1a4499324bb63c6U, 0x6a48aea951c5b469U,
  0xa672864db83ad133U, 0xb8479fb3ada57371U, 0x3b457c363b53cee3U, 0x844b5c535eabc06aU,
  0xc23ecb8dc35ca2abU, 0x277187d8ca49646eU, 0xaaae918a86265296U, 0xa638d958ddcc452cU,
  0x3d1a225531a28064U, 0x9081c03fa6926e38U, 0x348c9a762b578f61U, 0xdaa1aeaaacbbc982U,
  0xc9d654764a5ed896U, 0x8c6dae863caf4630U, 0xbeb16451be6d8770U, 0xc6c9e48769a6aca7U,
  0x2b14588959711cd4U, 0x956b4fd26aaa8e31U, 0x26b9a3b8a323c9b4U, 0x67b336b6be89337aU,
  0x81a3d58c95cc4555U, 0x6791b086495ca89dU, 0x3bc8ce6d3ca22097U, 0x4f31a8c7c4716095U,
  0x3899312665bebdb4U, 0xb156745f81b2b3a6U, 0xbe7065728733c0a0U, 0xb8bdc647739a5499U,
  0x9ea96c93c64b9dc0U, 0x5f90ca5e31ae81c5U, 0xd7604bbb67ce2674U, 0x694434c82b60779eU,
  0xa524229253692dccU, 0x82b173274d45c67bU, 0x28bf4b8371d88c85U, 0x5d437f9ea9995897U,
  0xaeb8a0d0a9248e4fU, 0x962aa19dd392602fU, 0xd547525e7625b19fU, 0xaf5a9b6a9669a42eU,
  0xcdb024adb6b47982U, 0x4c8b55bd3d4055b3U, 0x465724336569898eU, 0x44aea3cb7b749835U,
  0x85cf577ca39b4dcdU, 0x637e728cb1b96baeU, 0x8eb1b8386e3737afU, 0x757d97cc588bbf5eU,
  0xbb9470c64d9e70aaU, 0x43c5388d4a889387U, 0x5c3e5228b3523947U, 0x3f818fc63c3567baU,
  0x8352574158d1a6c6U, 0x42483896d8cd59d1U, 0xd64f284c35a379a2U, 0xa23d5cd6b98fa1c1U,
  0x3f88762d76901c7bU, 0x3cabb34132c9a4d7U, 0xadb8bbcacf679f57U, 0x97615a9c381a6087U,
  0xc98c558f84438d91U, 0x55379ecd8c3e9e3eU, 0x8b77759356b03b38U, 0xad9dcaa92f5f65a8U,
  0xd56ec36264443625U, 0xc6599f96bd4338ceU, 0x6bdd4f39bd3c695aU, 0xa141ac449c705529U,
  0xc36157836fb3c757U, 0x76794f889351722fU, 0x954490cd81785351U, 0x8e8ebec1647b26ceU,
  0x3c4cc8a067629928U, 0x30d0698b2856c859U, 0x996d52c39759b0b1U, 0x37297627376233cbU,
  0x2fb66c8898465a5bU, 0xa2bf85d379a34a7dU, 0xa04fcd35da4cbbc0U, 0x6e848f5fc2b08b7cU,
  0x7e329aa8594443a7U, 0xc79cb06b25804c4eU, 0x409d5a62692aa92fU, 0x4f3e55af985c3b91U,
  0x35363ea95b2e8e7cU, 0xc13197782f2d69beU, 0xaa5c3c2f773d723fU, 0xb435c93f77548745U,
  0x4596ca2bca90593aU, 0xcd823abfaa212267U, 0xd0a745336a862eddU, 0x7160cd3ec58a436fU,
  0x2720b64bc73ddf9eU, 0x29b255896a287c8fU, 0xa6acb9489ca2779fU, 0x66aca9b59ac2d35dU,
  0x26272f4066b38fa6U, 0xc0b3a94d74c5b371U, 0xbe3bce5a57ca56c4U, 0x9a8d3f43af6476b1U,
  0x55c57b773dc09028U, 0x2a8aaad26f67a62dU, 0xa23f1174545f55ccU, 0x3337aa4f9e57b87bU,
  0x2883c0bcbe9c3239U, 0xd2664ed287794d26U, 0x78466e7548b72bd2U, 0x418ab0b67a536861U,
  0xc48ab2ca4b61c8bcU, 0x736632a88366c36dU, 0xb96b3aca3d2d64a0U, 0x776069d52d828d42U,
  0x9faa576b963b8d45U, 0xb57b2fd69a37216fU, 0xc73d52ac323a2a78U, 0x723cbf75d4c7cac3U,
  0x8f4cc17891774981U, 0xb27552a555ad7a84U, 0x3f9faf95c6616435U, 0xb7bc98b2a4488839U,
  0x5037b792d1d442c1U, 0xbb85ae8a5f3c5ab5U, 0x5cd25193899ec4b2U, 0xad597c7ed3d46034U,
  0x697577483e504f2eU, 0x8cbf3f3684c45b9cU, 0x8ac52f9d2b7c6d93U, 0xa79a4db1379ac0a3U,
  0x7fd8687c428eb48aU, 0x6a517d464f8dbac0U, 0x37927ea9ae65aaacU, 0x5fcb2d844fa7c345U,
  0x84489d3e59c97e86U, 0x4059d368c252873aU, 0x37c42f4dbba4863cU, 0x4d78599f37407c85U,
  0x7d76712c53946c73U, 0x474e454bcfc0cc8cU, 0xa068ccc38c9a549eU, 0xb69926ca7388bd69U,
  0x74338b7ec1d5b5d5U, 0xc7278db3a37d73b3U, 0x9bc65c5ea0c745cdU, 0x31bc82587a3db5adU,
  0xd5bc40c849948ec7U, 0x43ac5d9ca0c03098U, 0x53385f8dd1543aa0U, 0x4dd76d64a882d37aU,
  0xd23e78a5d95c352aU, 0xcc41b9d3d8b3ccc0U, 0x43b88f6e6e40cc83U, 0xcecec977b8c9ae86U,
  0xc660c19065a1adb4U, 0x952370579bcb695cU, 0x468c7d654435a6d4U, 0x74589097a832673aU,
  0x6eaed78c3471bd76U, 0xa3ad9e646c5140d6U, 0x5f682e655dc77878U, 0x5348815767bb953dU,
  0x9084b4b4cfaabc7eU, 0x85c5af6e4da5b0bdU, 0x7470a67231d13d54U, 0x2c328696afbdb1d1U,
  0xc244b63d8a54babcU, 0xa126d742bb2a50a2U, 0xb8bf6b666e865bbaU, 0x6b3b5fa351c4995eU,
  0x6625c484656c4e7dU, 0xc742519e3a497ca4U, 0x6a4f66648ecb683fU, 0x836ca3d646abb768U,
  0x3f3d397aa95f2470U, 0x932c3c2832684c3dU, 0x3cd1994f3dd62648U, 0x8d90464f91333669U,
  0xc2237f4a76675cd1U, 0x808dad67a15fcd2aU, 0x748a86d7985b7c4fU, 0x9cb49875b09d6230U,
  0x926e30322b6a39bfU, 0x5fa192b2d16234b9U, 0x8775c2cfd376bec7U, 0xaf79793a74598bb0U,
  0x926a9ab097d0634cU, 0x5fad51c68e9d9d7bU, 0x86cdc774899268b2U, 0x2d5ecdb585b7bd55U,
  0x4f5db36788d76466U, 0x7580bc4a4688c26aU, 0xb9849a9f9cad5468U, 0x89ad436c70ab30b5U,
  0x43c3c17c9d459075U, 0x3b3129aab3c46e85U, 0xc936d2275aa7bb68U, 0xb3436d237574b430U,
  0x669936bb3d96d844U, 0x294f575e658a69afU, 0xd574ba70558b4fb6U, 0x803ba13a8ad476cbU,
  0xafbe75c38d9c59aeU, 0x3779426aa9687e52U, 0x26c4ad61af6fb498U, 0x3cc37551924a89b2U,
  0xca68376a27aabe9eU, 0x6b60c929cca5aba2U, 0xd48866d5617169c3U, 0x8b8d3b41589a4c70U,
  0xba9eae39d29bc742U, 0xbb41b9bd2d4f3ecaU, 0x6d2465a13c9d4769U, 0x6ea1c2787797a7bbU,
  0x453e3bb6ab248344U, 0xd7d85036ceb6ad86U, 0x4090682b71d3353dU, 0x4dd87e2349716583U,
  0x3766626682454f3cU, 0x548882d3d46e7231U, 0xbe4960c6c66e7f7fU, 0x26a7d2937c8dc9b3U,
  0x2d8db83a5b9a9c81U, 0x656cc961c8a56170U, 0x2f5d7c9d70d43268U, 0x66b08ec0d4c4b58bU,
  0xc4cab8734746aa53U, 0xcfa05e3255577728U, 0x54799d5826a6843bU, 0x96713d444b4372aeU,
  0x2ec09bcd45c33ebbU, 0xaf6ead736cb17049U, 0x277bb69d6d2e838eU, 0x5d9251575983c284U,
  0x8294d65d54c78763U, 0x65912a35cd33a841U, 0x5d519624c54bb6caU, 0x8d9b48507bafb44cU,
  0x7f5b403b5d413d5cU, 0x60a66d78c6ac7fbcU, 0xac47a86b4c445651U, 0x467224cd702e9cceU,
  0x333f7f8bca31694dU, 0x2470595e32868dd2U, 0xa02a9162b33ca2cfU, 0x92d870704830462fU,
  0xc840bb9cb392bda5U, 0xd5595b4e6095cd9aU, 0xd73196767487632aU, 0x68577460c4c0462fU,
  0x7b74568e7f73516bU, 0x2c77c9b7487ed8aeU, 0x6159159433c49526U, 0xd4b08e3ca56ec53eU,
  0xc0911f6dcfd9974bU, 0x946ac65645c5ac96U, 0x837569c09e83493aU, 0x24591d92aeadc686U,
  0x3840ca80352443c1U, 0x8439c56880703ebeU, 0xca3448bcc6c23d2eU, 0xa89894358172645aU,
  0x669bc636a02c2d2eU, 0x6aa29a8e3899b255U, 0x87d4cf85a6634e75U, 0x698f57c525575736U,
  0x86a6719fa440abb6U, 0xcc8dcc5dc0b035d8U, 0x9d7a36275cc6b41aU, 0x385b41b886af887bU,
  0x8aa990ac45468c80U, 0x7d515a49439c355fU, 0xc8281eb05fbd5860U, 0xca287662c3812c1eU,
  0x9f47e6ca729ab78dU, 0x4995243c848ba166U, 0x9f7bcb3d95a62680U, 0x5d827eca7260d09dU,
  0x8863437290252b55U, 0xacac63b457638c6cU, 0x423d83c651868882U, 0x73c7dd5978a054a6U,
  0x9a31a64d4a41c66fU, 0xd9738a742f675e30U, 0x8b5a73cf85425a7aU, 0x3fbb716aa3c21346U,
  0x4a9c7a7d2f7c3068U, 0x263d65b8a46bc5cdU, 0x40a087b783575740U, 0x6d90803dd15f99abU,
  0x50be745f95ced84dU, 0xac3d3b304fb2bf5cU, 0xa94a396553b5cc69U, 0x78709130bfab955dU,
  0x5b31c13137339ea1U, 0x409bb94b7bc8856cU, 0x9a7ab89e7c7a9861U, 0xbf43a2483fcaae5cU,
  0x966d498bb6554f61U, 0x9d687a8140913a9aU, 0x5a6b53297f7e60e5U, 0x4ed23a3872aacaceU,
  0xc4b8476bc440b0b8U, 0x7974c47573bf4555U, 0x4c5eb8899b9eaea9U, 0x9191cdc3c97c6235U,
  0x1615a9d28fc64d82U, 0x6154c474753fc152U, 0x364e8cc487923ce6U, 0x47d44b44cf30801dU,
  0x298cb555badb6b47U, 0xd23ccbcec8a32cabU, 0x78ac8b509c6e83adU, 0x459866bb92503b7bU,
  0x5bc55e583e5e4666U, 0x8c432a48d348328fU, 0x3e369c98d8c64843U, 0x40a37d38bed8b33cU,
  0x9f563cad5eb6ad71U, 0xd277c1b047d65fc2U, 0x439ab8b075c0d7abU, 0x994589d55f9cbcbcU,
  0x8ed15b97b8586456U, 0x62b733a0283ed7caU, 0x8682715e2c3d916aU, 0x295c53a0bc6cd86fU,
  0x4da785c372605670U, 0x6f328a2c65869647U, 0xa77526cfc6afd34fU, 0xa62e563c662ec3d5U,
  0x4f63c1ce8a308989U, 0xbf808873b244d3beU, 0xa6908cbd7bb03979U, 0x6d9950d3787bc795U,
  0x77b78e273d394e8cU, 0xa648906b58426aaaU, 0xbeaacad677b42c53U, 0x51bd3d3d5e789f47U,
  0x6a5e549d919577d5U, 0x9c8bba2f3f80637fU, 0xd47cb64976b686d7U, 0x69c7bda52859ba71U,
  0x2a87d65f9eb0299fU, 0x99da6784ba988091U, 0x5a9a4a7d842bbf41U, 0x285db9b762c9b528U,
  0xb35bdfe38e761c49U, 0x31c54071c048934cU, 0x7e317f23c2aa4469U, 0x6b7995d3e58a7361U,
  0x5c37222b9e9ebc2cU, 0xd2a63dbb868b3c30U, 0x85697c9a8a9b5296U, 0xcea08db06fca4c1bU,
  0xb8863493403cb36dU, 0x4c25c9224d576385U, 0x85a47356b849aa65U, 0x7589dd3066b4d983U,
  0xa458733b4db3b972U, 0xdfcf6d753ac84235U, 0x68bf6374884698c9U, 0x554452c49fa39292U,
  0x68585cae9d547666U, 0x55c476331eb67aceU, 0x84a0c53b74c52aafU, 0x754fad7b9467c164U,
  0x5e4d75ce66bf5552U, 0x8736d4b7aad771dbU, 0x5bc87959274d3d81U, 0xafa63d7f3e817c2bU,
  0x7aa73f74d792a384U, 0xc397384f7d72596cU, 0x3b46c8d960419529U, 0xbabb76915372594aU,
  0x685a50af53cd752fU, 0xbb7cb475b776e0c5U, 0x5e232a386d71d49aU, 0x4ea971aaa0ce21c0U,
  0x84864d46bc593ec1U, 0x6a4be88d6aab4b7bU, 0x6cb45dc284db6ab8U, 0x9d52953fcfbc9e81U,
  0x6b1d879e4ad69839U, 0x1e90a9d9546b4f7cU, 0x3d98c89f418c7786U, 0x3494c941bda27837U,
  0x6f539a71bb9f5a40U, 0x793c43cc7e5f28c3U, 0xc36c7fc57c677251U, 0x6b2c9772612e9ab9U,
  0x1e5bb68c9a8c72b8U, 0xa18e619c5abc4e3eU, 0x4aae2fb39988651eU, 0x7c55946bc4449c83U,
  0xa35b798a995a9449U, 0x3c5fe26ada7db92bU, 0xbcacc39b61b07ac8U, 0xdec0e25153be2dc8U,
  0xa91937a2c04a42b4U, 0x9b77a4b5cac8358cU, 0xbd606a4f9c64b135U, 0x8a98bd7dd8512a78U,
  0x301aca52463f32cdU, 0x6b8a95418de0dd59U, 0xb63789b5b84e4faeU, 0xc7b4a0d6ce4245bdU,
  0x8b264d5b5d63cd50U, 0xd98982b2bb613eb1U, 0x3e1aca70bb473ecbU, 0xd6b724d5573e44cfU,
  0x7b9fd17f877dd8d7U, 0x88b2478e9bc1aa33U, 0xbf84cd9b67d671b8U, 0x7a74894959264d2fU,
  0xac6bd3c6a83931a2U, 0x45c8916260a1ae62U, 0xb2cd907b908d585eU, 0x4791a02b6f68bf5aU,
  0x7c4254cd759cc598U, 0x2c583d515a4097c6U, 0xaf9184ae4c6ba568U, 0x2d5f66cfb59e8c30U,
  0x7ed85a81beaed288U, 0xd14839cc8acea16eU, 0xbc715267cc4ac5c3U, 0x70459591be85c947U,
  0xc1693c69a823d2adU, 0xd74669d1c535546dU, 0xb8939bc869becba0U, 0xb56a42b07c2c3679U,
  0xc8ae8b94a37f563cU, 0xcfc38facc6366323U, 0xc94dd62e63d2517aU, 0x8d46a44ac05b2735U,
  0x9e64ada5374dafb5U, 0x7e4d5887c6a7d149U, 0x8481b925556ac29eU, 0x4b6fce2b825b7b65U,
  0xb9d5b2cfcf812b43U, 0x836268ae6270bc4dU, 0xc358323c2897815bU, 0x3831d2608ac73e30U,
  0x30c02d97c8cc5f94U, 0x47462861af653d5fU, 0x3973b0e3975579a0U, 0x3b3b1e8a5ddb6d45U,
  0xb73a39bf406d79adU, 0xbdc4514f979c93b8U, 0x53635c232a7570ceU, 0xad5d393fd1b72544U,
  0x358d261c724272b3U, 0xc7524d331db21884U, 0x75a795c052423aa6U, 0x2fa9216764213d9eU,
  0x5fc5678675544293U, 0x5457c158aba1ae67U, 0x4ba71caeae3c6c43U, 0x46504979c78a913bU,
  0x6d3fc67cbc584c7dU, 0x6d86cd5bb8874446U, 0xce5f37405ce4423dU, 0x9b2e755269238591U,
  0xa3a1776c66c68139U, 0xb4a65bc18160c5e3U, 0xcda8879b4d578535U, 0x33974339a0a34659U,
  0xb14e5157858bc393U, 0x9059a0b1be5aa983U, 0x36407ac859276694U, 0xcdcb998bbd495b4cU,
  0x4c5dbf38516b37caU, 0xab784f52a623bf5dU, 0x7a37e12f50b88899U, 0xd72b49dbeaab6cd4U,
  0xb79c82be7e278eb5U, 0xa4408ccc9f4d989eU, 0x685e657bc9b56279U, 0x66b22d7f40228e5dU,
  0xc83ca13a6e932eb5U, 0xca7b8bb53992bc5aU, 0xc475c2278134c57eU, 0x486f2bd44960c7abU,
  0xde56593eb5439f24U, 0x5ea64cb54c585a98U, 0x6ec537c66ca6956eU, 0xbbcd72307b30c56bU,
  0x895689d4cb91345dU, 0x8ead71ab87c77da1U, 0x8fce36b285668adbU, 0x76c673cc5acc538cU,
  0xe3d35b9e8430924dU, 0x961b769c9328969fU, 0x9459cbbfb226cd20U, 0xc87b9087d9bc9135U,
  0x33484aa57445585fU, 0x542e584a9a8a56c3U, 0x39c6ce5d329e978eU, 0x41a1497a28aa4a8cU,
  0xb1659b943f51c23fU, 0xc1a18027cf62cea0U, 0x65d39d9e6a9397b5U, 0x438c54d17f7f70d9U,
  0x974e64354d676f41U, 0x4ad97e3ba8d8c021U, 0x4bb0a6c27b56347bU, 0x907b9943c05c35ccU,
  0xd07d87add23973c0U, 0x6a89a3bc482476c3U, 0x887d57693cb85f56U, 0x2e7c1e62bea58863U,
  0x71615dac46aeb233U, 0xae564a81c76c6ac0U, 0xcb326bc5b2c3359aU, 0x2178a7a9ad9e84a0U,
  0x7a34ab782a8c2e5cU, 0x71b76c8dc78397d3U, 0x35278f2b93753bafU, 0xd23f9a63469d7da2U,
  0x87bc4ea09540231fU, 0xbf4b7035571ec2a4U, 0x3d2fc688ca88b173U, 0xc0ab3eb4c67f842dU,
  0x2f392c8ad323b2abU, 0x847d529822736897U, 0xbc90b87b5853a5a5U, 0xc152ad8051d16a89U,
  0x5528bb868ec44150U, 0xb1b69b8d33c5bfabU, 0x7ca2a19791cc34c4U, 0x9c3d308a78b5724eU,
  0x6496688c873089b5U, 0x7b2c43c5cf8d60cbU, 0x5d9b557b8557ba78U, 0xce2ea5a23f658193U,
  0x76967956563e738aU, 0x65695d40a2aebf51U, 0x66c9be60c95ac5abU, 0x4d7cacc7734db59eU,
  0xbe3c426d2b04ceaaU, 0x91f6a370c135a924U, 0x800f8646acb556f7U, 0xefb0c029431a1655U,
  0xd9949d71fa69b577U, 0xba3f0d5faf79863eU, 0xaf7d793eb1a956a8U, 0x57b935add1cf8bd5U,
  0x351a726d312544a5U, 0x704956f2b4d19864U, 0x954a9eb832b5bbafU, 0xf3f7c9eab64c6b6fU,
  0xb120c3a69dcdefe1U, 0x5a3252441b149b8dU, 0x61dce891705e8d51U, 0x861d869325b157f3U,
  0x6edc7a5c5a820b6cU, 0xa5866594688fc6aaU, 0x312686297c50a851U, 0xc0c4bbcfa188676bU,
  0xab49a27542d3b091U, 0xc0b6515e086f8a0cU, 0x8ca5a2be6572c574U, 0x9f85830f3a677e65U,
  0xcf5c3dafc39cdc3cU, 0x55644949835a89e5U, 0xbe1f627e84499e95U, 0xf7f17a87bf4d9a41U,
  0x7386201b143f519bU, 0x48635c723b683836U, 0x32ae784df8dcaf76U, 0xa41d2d390c409176U,
  0x3d8aee87897d9542U, 0x4b9bb1a32b7dbda0U, 0xf5a9f1b835795c67U, 0x9133c0e9cbb9ab73U,
  0x99343721581a2e15U, 0xf1627e2b5194ad67U, 0x19628b32bf18c7a9U, 0x328a425689a2a877U,
  0xca8c85e4977be4adU, 0x902c18690d7d3185U, 0xc6889feec455c37aU, 0x57a7784b9953ad79U,
  0x398788b2b26c8039U, 0xbe5099d5cd50954bU, 0x5595175c358d3179U, 0x8de7c3254d6530c2U,
  0x8156c33728be7e53U, 0x7c0d4227859a4852U, 0x88e3aefbcd8deaadU, 0x307fa8902ed59f60U,
  0x73d96a4d904274a2U, 0x682e580769a7273U, 0x345e439978ad272eU, 0xdae8dcc89ec7b641U,
  0x83282d472c6b9546U, 0xcf537ead62a06b3eU, 0x9359517a809eb2a5U, 0x8d92819e59631e90U,
  0xcc95704e493721beU, 0x741398967ee96ec8U, 0xc0cd78885d799186U, 0x363be8e8d350b85dU,
  0x9c464991d3aba0c7U, 0x274b343ad4b7d147U, 0xd3c63c646a8a4222U, 0xacd49b71917e5273U,
  0xc1564160a658be5bU, 0x40a7394c95ab70c8U, 0x5a6237382a866858U, 0x5f724e754a713640U,
  0x6882bac140316969U, 0xb1268bc7352abba8U, 0x98b3cf9660ca9d90U, 0xd08b5e647957a96dU,
  0x7fb39c76c0ccab51U, 0x29785bbb94d137b6U, 0x464d5bbacf76c35eU, 0x8c96ac2a5db94f52U,
  0x5cd1c78cad23be97U, 0xca2631293d353c37U, 0x89a65a4676c2c746U, 0x564a458a4072ab6aU,
  0xa8ca26b6845f9c72U, 0x7b857e2ad29f2765U, 0xc9af442abcaf6fc8U, 0x4a336a58422f56c2U,
  0x4c772851c1b85b2aU, 0xba7fa599a9c98c37U, 0xa77b5ea227bf616cU, 0x3047926d802fa97dU,
  0x3495bfcca3d3a597U, 0x909a7f5bc9b89b5cU, 0xbb4f9d9e758949c8U, 0x555c29c77196819aU,
  0xc21d3c2f4b894a55U, 0xf74b8b57b13f5298U, 0x92037b36a8949236U, 0xd24e74a68d2f2840U,
  0x792db3b0e1a3b1c2U, 0x806c9169919f3896U, 0x81fb4ad674e5b1c0U, 0x717e0f5949cdc56eU,
  0x4263e24eb9989b6cU, 0x788688eba8964780U, 0xad915b4a373a6e85U, 0xf5ffd861ce2f20a2U,
  0x7a94a14a3e5cacbbU, 0x6a599f215e1484b1U, 0x40e0a9fcd0fa66d2U, 0x3d7b2768b1a7bb4bU,
  0x629dadad981d818aU, 0x61b44e4b8b68e467U, 0xd995017b3e2b6054U, 0x6f8e86e09f3d9794U,
  0x23a1288eac605ae0U, 0x8ba3da6815350f51U, 0xae8693e19b89735cU, 0x925199660e4023a0U,
  0xd5f7a2a3b9f2d8a9U, 0xa73f2f55219e54b8U, 0x403dbf3027423a8dU, 0xd173adcfe9e2b6adU,
  0x48432e3b6d0a9461U, 0xd5d4e2a882ad9994U, 0x3f745f6067b4e66bU, 0xbd9725173f5320acU,
  0x9bc6738892e39089U, 0x189a3a7f362cb17fU, 0x9975eed6d2bfa98fU, 0xa8d533ab3a17ec5U,
  0x48d04d3777535f2eU, 0x8e5846ca60a1be53U, 0x619c9e380b822352U, 0xcb8e3670936b3395U,
  0xa2a49746cc8ca8cfU, 0x4877169354446a56U, 0x83d6595b7d6ac566U, 0x53361b3724b28d5eU,
  0xa06238c9703e0f66U, 0x8a4d67618ceeab6cU, 0x3d385053490d8996U, 0x5af5869eb4524f7dU,
  0x57586c55b6d841a7U, 0x3339702038780a7eU, 0x9fa66f4f7e8ef64dU, 0x7c8d100b5cc0521eU,
  0xd070b88f90b68850U, 0x6531bebe519192c0U, 0xa0342877b80f1400U, 0x327976d27248f1d2U,
  0x9a37599e040a7159U, 0xb7517077b9b2583bU, 0x4a286d8cc9a248afU, 0xbd971866a2975993U,
  0x6a6e698175ed4237U, 0x3b7c02377a54a14cU, 0x808d3eb3a5a1be24U, 0x12cf6c445a949145U,
  0xa68839a07727759dU, 0x2eaa833aa38f9372U, 0x9d8eb066b56c8fcfU, 0x5acb21c22340af38U,
  0x79af2c728c7eaa28U, 0x56c57caf7cab7a9dU, 0x293c82a5ba4a26b4U, 0x7b2d87698f345160U,
  0x45bdd22d496e6369U, 0xa0992e2ab862695bU, 0xbbb58a567fbb9b87U, 0x1ed14f7759ac7088U,
  0xcbbb778bba9e87b8U, 0x2563763f64b147caU, 0xaa3047b4a442a653U, 0x6f72304a2c2370ccU,
  0x47b921516d324ec3U, 0xbb7cce872e2e983cU, 0x4ebe28445f577653U, 0x59cbbbb4b0a6be58U,
  0xbfd66b72cf9c638aU, 0x94cd9a673a5bcda4U, 0x866bb542abd1ab69U, 0x53817e7e9e3d902eU,
  0x8464299575a6552aU, 0xa54b62c2767dcfc1U, 0xc89f6a528a6d7e50U, 0x602f6b396f842c84U,
  0x2c5b659894848181U, 0x68305cbf98a85cc2U, 0x78b9696bc491aa41U, 0x838a9d568c7b86cbU,
  0xc35fad837c278bafU, 0xc99d7f70b77d97c5U, 0x91d7305f29704162U, 0x982c50be943784bbU,
  0x70312cbdb179852eU, 0x3a636134d381af7fU, 0xaec83a30a9ab9371U, 0x327fc68cbdb6458fU,
  0x31969431b4d87f5bU, 0x51a56d9989b9a79dU, 0x46937d53384a53b1U, 0x49683d25ae789a56U,
  0xbd3e812d9bc86ab5U, 0x406f8968a0bfd557U, 0xc78c893c7b88a3caU, 0x3197236fa3a53452U,
  0xb3884a8e5f90b99eU, 0xa98f9433cd96468dU, 0xb47d62849b6d7dc4U, 0x5d612a47884388a1U,
  0x8169be6269cc6154U, 0xc831496026bc558eU, 0x988f68be2eb04632U, 0x664cd6a769b83093U,
  0xaa643c2972518598U, 0xaa65ab708fba37cbU, 0xabd55927a02d7ab5U, 0x9ab1565ad6766e9bU,
  0xce9e4f51b94040d6U, 0x5796a3bf372e6a83U, 0xafd8d07fc0c76cbaU, 0xb69ed18b4a5432d2U,
  0x9d759cd5992a8cd8U, 0x458dd270b6d1b19eU, 0x3a8d8a3ca42ba5a5U, 0x6a7b374568cbbb4dU,
  0xc19f81924e3f8562U, 0x6d6a846048563839U, 0x9a30c5d68b365553U, 0x32d2a67025d546abU,
  0x87b8a9c092969ec7U, 0xc9d069316f423973U, 0x4e83d14ed17cb0afU, 0xa891322a663e54d2U,
  0x7a898b8b4952d559U, 0xc5c0835cb27d2ca5U, 0xd4d490c16351cdbeU, 0x337ecb529b4ecd84U,
  0x6e2e71a2b4637d77U, 0x9d81376e93317c46U, 0x32a373c530633f7eU, 0xbeb2b2a09a49c785U,
  0x2c9c5d2b3caa979fU, 0x89b7985946835865U, 0xd2845a50aa5b73a1U, 0xd6673c24d6d48645U,
  0xbb98707fb9948e8dU, 0x65b9a0c2717b3167U, 0xa9c9a785af3b5a57U, 0xd1c1633799289489U,
  0xa6c826c073414fa6U, 0xc6d24f379aac8679U, 0x95aba73e9085b3a3U, 0x28543c586c2d82c5U,
  0x5234927860a469c3U, 0x905dcbb686cd9574U, 0xce763dc363ae683cU, 0x70b45d40d7bb8392U,
  0x369256989a593042U, 0xb475484bd0d0caa1U, 0xa06c91634acf7a70U, 0xcc33754a413f5dd5U,
  0xa5376f6a3555a3c1U, 0x5560b95d2e395e2aU, 0x2f98b27fd26d488cU, 0x32c9646bd057d37aU,
  0x4079aa9e98b3a12bU, 0x51b7a2663cbb3d9eU, 0x5c4c72816c45636aU, 0x4ca0bc7272768882U,
  0xaa28aa6f75624897U, 0x2e5bc8379e8d4660U, 0x57d6855e6c2b83d7U, 0x995f265a8c91aad3U,
  0x7d643f9128b18b2eU, 0x98997055723c8368U, 0x795ca144816aad5fU, 0x4296b15a50b247cbU,
  0x40755a438c7237ccU, 0xd85f6841c02f6056U, 0xcc869f3d7642b62fU, 0xba4c97a87f4653cdU,
  0x9c8d377c6eae4ca2U, 0xbf517150bc46808bU, 0x69476f3daa3081cbU, 0xc271d366c3ac925dU,
  0x6bd57b7a48685494U, 0x756b298d7aa23d80U, 0xaf476fad55c9be38U, 0x625a866abb6e626aU,
  0x1dc379b499341591U, 0x9ce3abacdb459da2U, 0xbe98378fb4d63268U, 0xc6baba23d347179dU,
  0xd2e3b7dc949c803eU, 0x356485952f4ccfa1U, 0xbd93dd4f58cbbc41U, 0x1375d36ec48e3a8cU,
  0x7f5abb599e6b47aeU, 0x923066bbba5e7ccfU, 0x80463998b1c244cbU, 0x4a974c28b95cb234U,
  0xbfd1c38da79d5f5cU, 0x97785c1c2f778b73U, 0xdf9da33cdf972fbbU, 0xb3238c9cd6b66f4aU,
  0xb474bf3a40bd2bb0U, 0xbec5cb7db8b029b7U, 0x614a2b93386a485bU, 0x725079733fce5937U,
  0x7f6ecb7d55b26751U, 0xcb812cab30bb8752U, 0x75c4db57d18c669cU, 0x74ac224b9c1fc44eU,
  0x82c4922b7891abcdU, 0xad37bd65bbbe71c4U, 0x9a42b599b49a2dbaU, 0x223cb89545aa2f87U,
  0x7275371c66778e3dU, 0xe19bd45a51857d87U, 0xb28937b8d1cc523eU, 0x858c447a61cf2b5aU,
  0x78ab78c697646499U, 0x8cadac8146873f84U, 0xa4602a3b8e9c7091U, 0x3ad561c7b75c9895U,
  0xa2649617b3164d5fU, 0x99d38d9a799a5cbbU, 0x6621458e779cbae3U, 0x44498127b2a832d0U,
  0x6b5da66da7a13a87U, 0xa26298bea23fb67bU, 0xc893c65a57833229U, 0xca72406978d244d6U,
  0xa33bbd42569aaf20U, 0x654d7f686f7788d0U, 0x57d57a56167e89ddU, 0xaac9e17f2a567c8fU,
  0x231a3fa8ae9cc162U, 0x7950457595464536U, 0x8362654246bcd63fU, 0x51225bbc4a607399U,
  0xa0623b50623d6d2aU, 0xb042c7a2545f4e48U, 0x6968b98465921c80U, 0xbd61624b923e9b7bU,
  0xb3af51227aa0bebcU, 0xbfd9ba4a8a28966fU, 0x226a397da87ea1b9U, 0xc771ab74475fb24dU,
  0x6b5fa435bf2b74ccU, 0xa0559b63d25c64beU, 0x6336637a82a47a3cU, 0x377ab8ac68a73db7U,
  0x9249d05abfc25f56U, 0x4c327055d5b9d448U, 0x94742e37ae60ad2fU, 0x8ed767cebe6b3357U,
  0xa247ac5e32876fdbU, 0x9bb79a303e807982U, 0xaabea23b924248ccU, 0xa79fbec54d87dad2U,
  0x5780b3b290cfc698U, 0xa585418f562f80d4U, 0xd2bd803b68548d4bU, 0x9aa36fd16d4678caU,
  0x3c9339a6404163c5U, 0x2cab66da58445477U, 0x8aaf629c2ab6b167U, 0xb18337cbc37d3594U,
  0x65b5774bb7bc43a4U, 0x4a4d497b2a8c79aaU, 0x3d4faf41b9c2ba75U, 0x816ec0d8d4909638U,
  0x567f66d16a854db1U, 0x30915e5875934c31U, 0x4d61d472a29e2e5aU, 0x6b6a34d7c7d75a7bU,
  0xcfd999d7556a8736U, 0x8b87b2a578478ea9U, 0x82cb6b5ab28f949aU, 0xd19a3087a6867ac2U,
  0x965859814c38bcc3U, 0xbd274657919757a1U, 0x486b474f50697d77U, 0xa5b589512dcc6649U,
  0xa8a41d8582504c46U, 0x5848764c8a45ceacU, 0xce9c592f35a78792U, 0x505f98641f529c1bU,
  0x2fba795d864f20c7U, 0x82d3418a556a8e47U, 0xcce0662b2350cc95U, 0x5847ab9886bd316fU,
  0x2b454e56a4312b76U, 0x41bbc751b687aa26U, 0x3accbc53d3456bcdU, 0xaf97ac204630926bU,
  0x50539ca3318b70baU, 0x20c06fc78383b87eU, 0x99336fb7789751a2U, 0x34819da443897f5eU,
  0x9e9fa2bc86cc395cU, 0xbb3e86bc84349422U, 0xacba22b8cabb4d93U, 0xcf9b9e8fb2816886U,
  0x2b7c44bc50a15283U, 0x31252b4eb8bf3c74U, 0x6dcc86888984571fU, 0x998ede58c3428aa3U,
  0x729c49cd86cc2bb1U, 0x4a2970976565aa43U, 0xa4babc5e74a95533U, 0xd09dcdaaaaa0a039U,
  0xb25a6949d3692c96U, 0x4459762c58a0b635U, 0x35c8b97cb05d407cU, 0xa2566ebf984e814bU,
  0x85abdd964b3fa777U, 0x4670c7546bd34399U, 0x1f2a7da8563bcb6aU, 0x58952f88296f5d2dU,
  0x2bccb43a8c7fb46cU, 0x8343479368657fcfU, 0x6b8236c185d795aeU, 0xb6466778b2738032U,
  0x332f32cc3a94466bU, 0xc9339f977267d4adU, 0x2c7681a53e2da0ccU, 0x66a6c26db15c5d90U,
  0x28b38c7ac7469353U, 0x7353327f9f6c32beU, 0xc6b67ab0b93d3d4cU, 0x3887bdd35b91cf8dU,
  0xc9b98c417278d785U, 0xa094b7af9c55e08dU, 0xcb8b57d9af6b4dd3U, 0x4930643895c1254bU,
  0xc9744ea1635f872cU, 0xc4c83c566bc6a855U, 0xa37952d08b757b93U, 0x845da4cf4d725b64U,
  0x72af866220266d48U, 0x6ac0535ecfaf5a73U, 0x74264ebe4dc12b9dU, 0xd1bb40c2b7d7bfa9U,
  0x5f57adc68b35a03aU, 0x2e3d87523598a6c2U, 0x90732e6ac46989b6U, 0x6e8d786c4c947bb2U,
  0x8d36b0c5d2472033U, 0x937c2067aac1352aU, 0x8b9e5d6aa15cc790U, 0x879e88cf3dc76c9dU,
  0x7847294e7a5f7032U, 0xa542b34437693da9U, 0xb12e24cc67acb437U, 0x674ea66a443ec528U,
  0x7b5bcd44cc1f7644U, 0xce6232b0c07e7d4aU, 0xcca167797b7cc774U, 0x36a735d1364c9340U,
  0x71b1c34558c526b5U, 0xa7af6d44442cd248U, 0x7d4084777d513c2aU, 0x7b3c736990c44bc1U,
  0x67a93e7a4b9a2ec1U, 0xa15b207db67e67a3U, 0x8e6cb9c5c3b27080U, 0x638bcaad8f59a582U,
  0xbd4d2bd097adc559U, 0xc58dcb69a63d6984U, 0x3d5dbb7454352e9eU, 0x74d08ec8ad8496cdU,
  0xa761666ec5304abaU, 0xafa22e26c044bf3cU, 0xae34a2a57e8a6f9cU, 0x804b9fb0328e4b85U,
  0x2339aaca77e63ab6U, 0xc4ad8e6fa6b6b45cU, 0x50dbb46d978c6276U, 0x9c5622713d3b1fc9U,
  0x7b664671a956d63dU, 0xa16db9d5a2bf9b6eU, 0x8a2f4343b0b7958eU, 0xa860ce495960d95eU,
  0x6957c42e3782ab8fU, 0x3478434d98be9c6dU, 0xca6dd9e5abce567dU, 0x2e3a845132384541U,
  0x74a86f81d42f3fb7U, 0x48b4b682569ebe51U, 0x6774759d383d9d3bU, 0x98c6b740dc8b3591U,
  0xc4481c89595062afU, 0x8acfd3ba55af7c88U, 0xb5252e3fb0bc6091U, 0x2b309da1471a693fU,
  0x2badb669b2d3b822U, 0x73a824223dbadb4bU, 0x6b658a945ad15d9bU, 0xcbdbc6dfe853325bU,
  0x58522e30b798c6a8U, 0xcd9b3b58a2547687U, 0x85ab7463bf9848b5U, 0x36765fb2cc913c1aU,
  0xd7913971a83bcfbfU, 0x359c5f4cae68ba81U, 0x4cc393624c32b0bdU, 0x7c56b597adbbb633U,
  0x4b6564bd98633388U, 0x46847931b447aac8U, 0x1f5f6f32a7317a54U, 0xd061983b6b6ed587U,
  0x59cf3fbd2a7c9150U, 0x5f40b64e9a693653U, 0x678a5c2f56bbe136U, 0x27979db14cb22e60U,
  0x31bf7ab7362db079U, 0x8c69b384be3fc5b2U, 0x23b27ba074b47353U, 0x367b3d5a7d9c5848U,
  0xc19667553ea1488bU, 0x3f96bd268e5d3ccdU, 0x6132774ae4d640bcU, 0x6452745f39b8872aU,
  0x4cb8b8603bbfcbb1U, 0x4fd34620a3648ba7U, 0x95b2a0a1a592189cU, 0x444c34539b765643U,
  0x9fb084d160aaafabU, 0x86d0c77c8da075a5U, 0xd298a17c83a56431U, 0x9a8325406d836967U,
  0x7160cea24cdcd7ccU, 0x163dbeb5c5908381U, 0xaf62809e69d02c59U, 0x403cab7641b1c8baU,
  0x7e1a4a35c5ca8e8aU, 0x5b759fac6fd96839U, 0x4567a6c4a3cb298fU, 0x5e6ec6b2ad25a0afU,
  0xb56d2db3cece7f24U, 0xbf3352c57f6e8eb7U, 0x3c9795bc20957b4fU, 0x21d1cd48c398b0bdU,
  0x21815a292573d092U, 0x6272a29e93a48da0U, 0x79c4a79771b594a1U, 0xad1ec53eaa3b7a70U,
  0xa2aa8c64af7e2ccdU, 0xb88d902b366f9e9eU, 0x8e3f9d4e1d52bc3dU, 0x2dc4c078ab4daa99U,
  0x5758a3b6c295a440U, 0xca3d3740c43f547fU, 0x95d14650ac3bc777U, 0xb563b38f9b88aca2U,
  0x48778440a56ccc77U, 0xcc63ce3281982938U, 0x4d7f9e5597483421U, 0x2c64914b90a548d0U,
  0x61a76d814d686560U, 0x3b40b3506cab6561U, 0x1e4a312b549027b0U, 0xab6d22647ab18269U,
  0x79b67881461f2fa3U, 0xb7a42664ac25a05aU, 0x9b333857bc955137U, 0x768ea89b347032a8U,
  0xc933b52e70a9a060U, 0xb7ac9a35c92f5d30U, 0xb0ccb6c81e9a38b2U, 0x6584a0ac662b4b26U,
  0x5868ccaf39813fbbU, 0xacab47c3d77b9896U, 0x6d9735247d762d19U, 0x402b58d93bbdd876U,
  0x783272a0c4cfd8a3U, 0xbc9d974a5d7f767bU, 0x2da48db5c5a16d7eU, 0x1a5aa65665bc297aU,
  0xc95bbfa86bc44b56U, 0x96b3b5c64d5a4bb8U, 0x7d8b4d1d36306b64U, 0x75be7e465f503f63U,
  0x8f7ec26389a5b970U, 0xae632c7365ab5b92U, 0x9f6e925180462c87U, 0x3c4d3585cd6e5053U,
  0xa8817c3e3d5f3f9cU, 0x94d1696c7028aa97U, 0x69d34e7ddcba5d2aU, 0x4cb525a0853a7e2eU,
  0x768f7f55c4a58f8cU, 0x2b92695b4d5ccb21U, 0x4d23538e37547acbU, 0xba35924551982d55U,
  0x5d3fa0d0623d3684U, 0x7d784435c37f3048U, 0x5c93cd42c337c6acU, 0x20b2809e5d764d89U,
  0xd01e3fcc397f9e51U, 0x3d7ba33739974692U, 0x1d475c2ea86a9c45U, 0x442d58c0316185ceU,
  0xb580a1a7d2c8c2c0U, 0xb8ddc3b9b9876b9bU, 0x2ea159db3e4946bbU, 0xc5486655bfaa8ab0U,
  0x3c4665ce71c6d3d2U, 0xaa7ca58272aeab22U, 0x60a260d7bba82293U, 0x88356e87d5a47bd4U,
  0x707a9c96474dd146U, 0x435cab8698be6282U, 0xb367227794b06447U, 0x56beae9fa0c077aeU,
  0x826ec57abfa7aca2U, 0x95d96cdb5c625fbaU, 0x4730884aa3665d1cU, 0xd98734578bb87638U,
  0x3d3caa61a055c491U, 0x86d3904825b26f71U, 0x75bb4c94cfa49dd4U, 0xa8395e5eb4b87188U,
  0x9aad97caa13332ceU, 0x8881618146a8a3c3U, 0x989f559878ac8ad6U, 0x524aabbc34643dc1U,
  0xb6abb7628e886b83U, 0x82d8d86652b54db2U, 0x731d30b0c87b7ec9U, 0x7e58828e578a825dU,
  0x8e7e75668fd592b5U, 0x5f447b3020303f6aU, 0x4299566cba5ec381U, 0x82d8936a816c659cU,
  0x5497573b6d466cc6U, 0xc197417359b78e4dU, 0x2aaf1fab6a67b993U, 0x6a90af897ccb2a9cU,
  0x57634d5d751c5f5bU, 0xc5916130cec9b298U, 0x3080be7dbd61caaeU, 0xa494c6c09e50ce5bU,
  0x5b2c8cca6d9e1dbaU, 0x709b64d025cb6287U, 0x37bccb8c31cd97b5U, 0x614540d1bcc5a630U,
  0x5d8da14a9f4a5227U, 0x5c768a49ce554e37U, 0x5556a63984b562c1U, 0x36becc32b598781dU,
  0x9e7635b897c8cc79U, 0x77ca683d5b9ac6adU, 0xb2cd7e3c7a933b3cU, 0x631f6956a67bccb7U,
  0x859b7d95b0ae6690U, 0x5e27bd244d85259aU, 0xaf9651404e3cb48fU, 0x63c997bdcd84748aU,
  0xa4b2666c9e36adc0U, 0x7b5dc983865e88cbU, 0x3c4f4471c2931fc4U, 0x83cabe261c4d587bU,
  0x7b55ac93c3733e59U, 0xc5b1bd1c5070b431U, 0x95c057358eae79caU, 0xb3ae9e777f309725U,
  0x8771393d2345beb5U, 0x6ca93e8c7839c37eU, 0x39318b2eacb6475cU, 0x60502fd75a9d1b5aU,
  0x531a7d494e789bc6U, 0xbe5a543aa9337299U, 0x94a2b74896549684U, 0x5ca088333253898fU,
  0x9ed5c7a284d2b08bU, 0x87afae676f4a57a8U, 0xb05b24ae28444c6cU, 0x5e3e50407cb9ce53U,
  0x83505ba7c583aa8aU, 0xd6d36f4823555c24U, 0x296596e45a7878daU, 0x6f5d1f37caad307aU,
  0x6896dcd1823d6858U, 0x276aadcf2f593a2dU, 0xaf9470266b6757c4U, 0xa4d5617eb52e85c2U,
  0x264e30754c903867U, 0xa07e537736414dd3U, 0x891f43aab38ac6d4U, 0xd3d8828485a2237aU,
  0xcb545366ae7d7f88U, 0x4ab82c59ad8c31acU, 0xac45da3f68c2763cU, 0x61507dd4b2465874U,
  0x457f75a8a765c062U, 0x6da3cd7ad6846f60U, 0x5c3fc25b8dc4966dU, 0xd466b7b9595cb72aU,
  0xac758dabd9ab65c5U, 0x276999382c51768fU, 0xd37c7a567597ad97U, 0x3cb424b3985da8e5U,
  0x4cb86e2826af86caU, 0x8c8769d7c37c45e3U, 0xbd52bd83636ea63aU, 0x3cdbb88fd0adb656U,
  0x4662202b605c76abU, 0x4d5984a8899f8533U, 0x966e93cb88c59b57U, 0x734458ce313a94bfU,
  0x8d5d7a3326d5abacU, 0xbb7c6b48658f879cU, 0xdd2844c5a78e516dU, 0x2c98723731574ab3U,
  0xcdbe19bf76c457a5U, 0xd5773499cb8d39bdU, 0x21989a7f945b4445U, 0x374d465d72b2aeb8U,
  0xc9533d80ca3b748cU, 0x49b88c5a534337cfU, 0x8aa6a9506688cb63U, 0x6eaca8ae9f805d53U,
  0xb95eb937729e8986U, 0x8e2982cf7c66c253U, 0xa41db899362a6f7aU, 0x4bac9dc23536ad37U,
  0xcb5e466d6ad979c1U, 0xa5ae2dbb2443be6cU, 0x94b4b79d3c2e30d0U, 0x4282584fa02d5a84U,
  0x743d8c702f463cbdU, 0xc026b58b854b2e83U, 0x9fb630be2c94d68aU, 0xa2c82a96bdd45ebaU,
  0xd044256383316064U, 0x97c691c48560d63aU, 0xbbc4c4512f50793eU, 0x9980609ece5878d0U,
  0xd24ac6656a3ec143U, 0xc79c72792a2d9b76U, 0x8461d2392a9169d7U, 0x8aabb450b27e2dcaU,
  0xbebac07353753a33U, 0x7b6e4bb1b2958a73U, 0x334794813e2a3a9fU, 0x4a97ae48ba773730U,
  0x759f6bbed3c04333U, 0x7064ccab5a5ba584U, 0x53416d4560d3aa50U, 0xae7155438230a251U,
  0xa35473a65590bfa2U, 0x31247aceb73d609dU, 0xcea92d8f62bcd478U, 0x6322d02c2338cc23U,
  0x7953d78d61d2c1acU, 0xa9a9b85342458fa4U, 0x78b475c03f5ab077U, 0x7288478d2a758e99U,
  0x62aad3a0723d782cU, 0x7a625bb2488b9763U, 0x4c6241388085258eU, 0xb3a62a5cc19553c1U,
  0x722b79675e6acdc0U, 0xa0572245b2bec569U, 0x405c673e34943428U, 0x9ca45b55977d6780U,
  0x7731988f5753cac5U, 0xd094c7b23fd7a468U, 0xb7b5629e40815664U, 0x82d88a892d8b71bcU,
  0x732ac18b90dfb630U, 0x2cd1489163729b73U, 0x88c96c4097bc8f9cU, 0xb9708f60aba32fcfU,
  0x30df91646ab5974dU, 0x3fc47f3bc5a97099U, 0xc3a940732a6ab28aU, 0x595c6d8b99ad9e5eU,
  0xa6c266886aca6473U, 0x8c40b73982cb7d45U, 0x8e525cb5bf743124U, 0x9ab2665f92974653U,
  0x2e76902a5f285582U, 0x3ccba2789138b7aaU, 0xc167b87abc45653aU, 0x9187c5ce37c49f2eU,
  0x19c356576e8cc843U, 0x6576cb457b7ca63eU, 0xb9604641a78c352dU, 0x356d5f9fa078865cU,
  0xa061d0bea4386659U, 0x814c63934d637c9bU, 0x434172ab65487e88U, 0x9f964bd331bc6d3fU,
  0x8e5498ad547a4672U, 0x57b3d1a7cd86cd78U, 0x716fa5738db84451U, 0xaac037278f9eb9baU,
  0x1c23c64860328d8fU, 0xb7cb59a6353e5060U, 0x98bab34d2d33aa74U, 0xc64bc3c9989a5860U,
  0x9b808b68a021cbadU, 0x91db96853661cc9dU, 0xd18a3d5e216c89a5U, 0x37b6442a5345bddcU,
  0x4d7f916a7c9ee15bU, 0x50b5ad78d6b74d89U, 0x4bbcc66c39b66f6cU, 0x8c88bc82d083574fU,
  0x33298eb9a86c8d2fU, 0x9fbd6bc4c8577326U, 0x5a41b7ac1c54c440U, 0xa950aec1aba2585eU,
  0xa85640535676b2bdU, 0x6c87cbc69d5d663dU, 0xca7c646b7381a7adU, 0x412dc1bf3b6fca2cU,
  0x7d8f62998f6b4a97U, 0x8d7659ba9959477aU, 0xb72f2f4cdbbdab3fU, 0xc1898e6eb5a58928U,
  0x3ec4345b384940a8U, 0x9959749ed424b764U, 0xc25d5b768c975e5cU, 0x87834d9de4b089cbU,
  0x3eabb0319cc84949U, 0xd0cf365cca327ac6U, 0x2b7eaf7ba2ab798dU, 0x9f5c608084a5ab45U,
  0xb7bc5ed4863b3c4aU, 0x4a9bc5b37fafd5abU, 0x4191266035a3406eU, 0x3035526dd79bc73cU,
  0xd72a9384ca46d17dU, 0xb96162a5765c4935U, 0x2343d68e977b4ca8U, 0x60908560a6568dbbU,
  0x347bbe28d0bc82d0U, 0x7f76d34d94b7d2a0U, 0x5a6c65845c766b2aU, 0xd02b6ad4b55ab540U,
  0x6e2897317589819eU, 0x8f8781897d3da126U, 0x2b23816f2bd5915cU, 0x8b3b87ceafbf7298U,
  0xa6a08647ae70b5bcU, 0x8a3f3644392395ceU, 0x69c88488be87d591U, 0x7b578d867487a9bdU,
  0x93ae8596874f9d5fU, 0xb161242e34944a66U, 0x53b2c0c57dbdc5ceU, 0x66883e436d452689U,
  0xc36125835757c03dU, 0x3650595dcab57fafU, 0xa02fa8625138aad7U, 0x9c7d6172774ccf7eU,
  0x5ad2445b8f8651a1U, 0x77a0d84258b89855U, 0x8bacbf78a358aa4eU, 0xd67a8a3d6a9478a9U,
  0x3a8f2883a942cda4U, 0x33726547906a2d66U, 0x8e9bb0a86bb78ea9U, 0x54b6984c852f5c46U,
  0x9b69719bb944c431U, 0x2fb2337098812ecbU, 0xcb93a934c5c5b696U, 0x289a793c4ba75527U,
  0x43518150c85c6292U, 0x2a70ac53ad3d8dbbU, 0xc22c35a0789a55b2U, 0x405fa23143429bc7U,
  0x537c99867fb4bd30U, 0x4bb19d483bad6fcdU, 0x6cceaed8d16bb9bfU, 0xacc7cf3b924e442fU,
  0x6d6587476e8e42b8U, 0x7a285f86795b244aU, 0xb298a98cadb94954U, 0x54d66655a454547cU,
  0x2d8c4bca5481c471U, 0x7a2ba75e99cbb47bU, 0xb4a974564ca0a0a7U, 0x6d5497777cc9b351U,
  0xb5c7a2d57fb7d18cU, 0x79c82e42b28dc082U, 0x45b08630428a7ea4U, 0x599d326566758891U,
  0xb685c7c3d0802ab7U, 0x8c374691443a557eU, 0x9864a5a486d169b4U, 0x9eadcfb167c45791U,
  0x45adb35542ae732dU, 0x6394c950954e8429U, 0xa06061746a6a8f2eU, 0xc05e5225be365c60U,
  0x2c34c46869868c44U, 0x2cb58e62af5d2bb1U, 0x51799d89bcd13a92U, 0x4bce8b4f9f692547U,
  0x9c4daad82bad8c56U, 0x3972aacb5d29304eU, 0xa352c89632cdd0bbU, 0x4c5b6391d2373c39U,
  0x7cb338a88b26a999U, 0x53723b655bcc807aU, 0x33cb58a49d917d8cU, 0x354f952cd8b59c45U,
  0x8439a5a24c6c58bfU, 0x7a885076c262b950U, 0x2c584da8bdc5cfb8U, 0x59be8d3d45c02533U,
  0xc599c1b9bb59c18dU, 0xccaac93b62766fb2U, 0xc225a833305ac5c0U, 0xb9c95bc0979aa533U,
  0x3d5f2dc0cc912824U, 0xae2cd54f64d4b63fU, 0x6346696828cf6054U, 0x7d9c398fba2daf7fU,
  0xd39575cf59a99f77U, 0xbaa12679b9a62470U, 0xb16e474b602c888fU, 0x7f492d55cf559787U,
  0x463e6872c731997eU, 0x5943cbcd9175823dU, 0x77437232ba446e53U, 0x7da68f709880d128U,
  0x72367691d753922cU, 0x548b8c509d56a94cU, 0x47c928529565c739U, 0x81d4522abeb8a9cfU,
  0xbdb95f94b867a6ccU, 0xb367862ba5796348U, 0x8c57a4782483bc2aU, 0xc272d1307abc763fU,
  0x673156ba99995993U, 0xc17a4f24ac96a163U, 0x32cd852e24544ad8U, 0x4dbaca4ea0546d55U,
  0x9fbd755d272d56a3U, 0x48d3732da39eb191U, 0xbe9b39b45b974781U, 0xa6ca6a59926b5f8dU,
  0xb82464af3dcb5376U, 0x3ba259d05d314880U, 0xa1c967ac259f352fU, 0x687489777f3b2695U,
  0x889aa551b85e4067U, 0x8dc27ca53e7f3f88U, 0x9fad479b3b5e7b9aU, 0x343d724392bbd7b4U,
  0x72383099399bb852U, 0x6a3685c291aa9020U, 0xa4487f3a91c74a83U, 0x33823e3665353f9bU,
  0xd8849ea19793b231U, 0x7360c2955da16225U, 0xd84bcc8486c47c4fU, 0x8a747d3f642dafd5U,
  0x288fb84b47981459U, 0x4c41aa88d1889b25U, 0xa989af9879642db3U, 0xcd89a0cd76d05c86U,
  0x98b08942c79da040U, 0x2385237163be8fb5U, 0x387775e248b5d2a9U, 0x5c8ba46a607ea39cU,
  0x2f6834c07b38a384U, 0xafa7b42d27d6534cU, 0x21b998b88f2d3372U, 0xad3c986dbf666471U,
  0xc4594c603d986ddbU, 0x86565439a0468c3dU, 0x9281dfb845cedce1U, 0xbecc4e29626772aeU,
  0xd26f466293797c56U, 0x2bd73fc1629a4dc4U, 0x75666b2fb14b3eb0U, 0x75ca6e8f93c882a7U,
  0x5a96785562ab6a93U, 0x8f8a9d8f75bb8ebdU, 0x82997830633cbf6bU, 0xda6c517ebe9bc993U,
  0xbbb099eb9fb7c3b9U, 0xcf93bfa333b28ad3U, 0xd1aed3a4a49266a7U, 0xc1a06e3b55b5d273U,
  0x3980688b4729ab2dU, 0x7ca2724f4ba356bbU, 0x24c0954543b543acU, 0x822f4b4d817e5171U,
  0x6660a0767368697fU, 0x2fc15fb1a1a391bcU, 0xd8c3557f6da0c79fU, 0x5b26ae2f71353925U,
  0x6bb13eaf599264c3U, 0xb89a4c91319ba887U, 0x651cb53bbbaf7799U, 0x6b5932322f8fa998U,
  0x8c8aaa6c93bbb698U, 0x291d7dcc74b3374bU, 0x3171c277ebde4d48U, 0x1c725c1a7a53d29dU,
  0x6884897f7ec91546U, 0x7baddace35ab4ca2U, 0x6fd6675e6a49cb1cU, 0xadb0a73fc6684c36U,
  0xaf7983c65cd64d7dU, 0xc3335b40558e5975U, 0xc43e7cc375d7e042U, 0xab2f22ac5da3b1aeU,
  0x6baee170857ab98aU, 0xb99f6360392ab94cU, 0xeabec6b03e6a772dU, 0x9744764d40db3b94U,
  0xad639d9e2388bb3dU, 0x82c58b91364c8160U, 0x77c8775e5d47c734U, 0x67227228a7497f2dU,
  0xb07a737c54498491U, 0xb0396f86bf469b62U, 0x2d8248b6c05fc744U, 0xc8798c2a3649cb3cU,
  0x51995ba58740bc49U, 0x4fc16a7c7b7876c6U, 0xc1ad31964eaaa180U, 0x563f2f289eb73f7fU,
  0xaa46b144ae81cebcU, 0xba21a1bd9b5a26cdU, 0xbd51b2cd2a7b475bU, 0xa4d286785a52c2d0U,
  0x55841f218e36b347U, 0xa8a646ab41559a2aU, 0xa0d335d2c3c2bc2aU, 0x8fcc8eae5d466e3aU,
  0x6694235270644581U, 0x60ba8f737c747f61U, 0x54438c7f916ca98fU, 0x73bebc9ba8a49f40U,
  0x68a2b32e3cc26cbcU, 0x81d3c4c08292d248U, 0x5abfae719c3a839fU, 0x91778764c8944543U,
  0x6baec48021899894U, 0x609a535264a7a58bU, 0xbe505a7d3151b3bdU, 0x4a916cc45a5d2c78U,
  0xb695482dde877ad8U, 0x733b7693603bbf77U, 0xca5d8982a269213bU, 0x32c6ce34e25ac2d7U,
  0x4145b61d1f8f4142U, 0x86d6bd72575bb4d7U, 0x404b1c68ca2bd77eU, 0x2e8265d39a937073U,
  0x407db334ccdea8acU, 0x6d1fa7aeac2fa332U, 0x8de36ae848c8492eU, 0x8fcc829e59dbafd8U,
  0xae58c140ae4a598fU, 0x93dfb382da779564U, 0x39779dac8a78485cU, 0x82497bbfb1481d9cU,
  0xcc74739249bb756dU, 0xb7ada36cbd496e24U, 0x696e403980c9d38fU, 0x904ccd728da297ccU,
  0x5b9087b8d06b9cc4U, 0x98444fc4799c957fU, 0x5c4da60d74346b5fU, 0x73b7efe59b9a51ccU,
  0x8098c244386a6293U, 0x715b7f34cd19363bU, 0x459b6392b0c99aceU, 0x992f256858873853U,
  0x7174777a8864668bU, 0x6a3aa0a2b6b46141U, 0x4fd41a1d1eada26cU, 0x3a8ae8ac576384cdU,
  0x5573a471bbc48654U, 0xcdb0cfaf2f7ab384U, 0x999aa647e036c676U, 0x518d9c9c6e40918cU,
  0x4d9b9e81ce9e6d72U, 0x822a505c8548a73eU, 0x5a568686a77ecd64U, 0x96a2cd2c7479cf94U,
  0x93982bb7ba61a08fU, 0x3e636a978b7ab0d2U, 0xadcfca48bb832e8eU, 0x4b6a319b797042a7U,
  0x3b767faec0d93889U, 0x5c67551b152e3cbdU, 0xf29a6dd6c8d332caU, 0x734885783d64e0cdU,
  0x743832a0699c696cU, 0xd5994a72a2b8d0b4U, 0x8971b030a6878769U, 0x2ccb7fa0a67abd96U,
  0x339e5a6b99714b65U, 0xa7637a3898be4fb1U, 0xab637f55d2998e47U, 0xb0845653c8ad4b54U,
  0x614e6c7443326477U, 0xbd2cc6d2d1c57127U, 0x22ae24bb6f653fc4U, 0xa687bd6294c2d478U,
  0x2a8c4770753d6283U, 0xb49b95725838437aU, 0xaa7b4f51ce3a88c4U, 0x3565848d2577b9a0U,
  0x35bd3e7e2487537cU, 0xc1c68bb66773cd59U, 0xcb325cab7091b2b1U, 0x5582a038827e8cc3U,
  0x52bbce3c9639b884U, 0xd4c5bd809d4b6e41U, 0x66536268cb4d9595U, 0x4e29969a7351953fU,
  0x99be448f7d4b4bb7U, 0x2545b9aa2962a928U, 0x92b072a673277979U, 0xc64f29cfa12174cdU,
  0x95bb62c6cd8f2999U, 0x2ec0c73a7f223325U, 0xcfa2b7c13b37a8bdU, 0x315054a020535745U,
  0x5e836c746d317fbcU, 0xad80549d2d2bc4bfU, 0x78663a6da1819d9aU, 0xa1c0202286d38c71U,
  0x9f343f4a772f3f5cU, 0xcfca606669652490U, 0x3580c79486365471U, 0xa1bea78aab6739abU,
  0x3e2c7fa4405f3965U, 0xb38ed2b6336b507dU, 0x832b75b4b0747137U, 0xa9b0c093ae44b5b5U,
  0x4acd362ca1cc347dU, 0xbeb79f5082658873U, 0xb4803798adab527aU, 0x539c7b399e8ab880U,
  0x7dd628586aaa9d61U, 0x30547a67ac4196b2U, 0xd44377d5562e6079U, 0xb2402c6ab891957eU,
  0x98d228b77ca6b6bcU, 0xc92b9d6a5d2d3970U, 0x24a04a25d2d3be53U, 0xb4a86c5763d8895eU,
  0x4033a39e846b969dU, 0x2548a17c7fbca654U, 0xb89a8841d67b3777U, 0xd6b86d29902862d2U,
  0x416ba4a3bc8b23c6U, 0x8dd547583cc9d565U, 0x817154b43298bd89U, 0x31c53fd4c4a35973U,
  0x52ae4141be4a8194U, 0x5cc7cd855ac774d4U, 0xcc7166706024be4bU, 0xc524b82b58b96192U,
  0x9a9749a28a9f8691U, 0x34d35caf36498088U, 0x34c1a98ba0617c35U, 0x5c458aa45d47466fU,
  0xa9c6932a60b76c26U, 0x5c8ab0c2902b675fU, 0x8c718566725993adU, 0x30844e5cae6b6b53U,
  0xd6d056af3dac9945U, 0xae394688ca5272c6U, 0x5637c3cfd29a72ccU, 0x905cbc886e4a2e8eU,
  0xa2c3cad16aaa7ed1U, 0x59583dabc08c6885U, 0x902acf60b6c8602bU, 0x995cb5af80c0c38aU,
  0x27d240cf787b2871U, 0x852788cd29ae4c70U, 0xad869dcdbf513662U, 0xd2bdc69849338a2bU,
  0xa84a6a7a30ab6c6bU, 0x71d3a37bd1437865U, 0xccb2ac9475c8743eU, 0x3cc0af77d2294a3fU,
  0x2d25562f576a96a8U, 0x6640d1503c5ca4d2U, 0x3e45bfbad37693a8U, 0x36ce7b8f4cd52d50U,
  0x997a9978b66a98d5U, 0xae5b4a37c5c04dbdU, 0x5cbdae396b943564U, 0x60914432c6ad7a61U,
  0x7537406f9a5e2f7fU, 0x7262af4f61494096U, 0xb648717551d7b876U, 0x443c602c787b8a31U,
  0x8f876d982d5465b4U, 0x834138bf904e2456U, 0xc9b5a081d441a39bU, 0x29a37ab7b331d373U,
  0x72b7d4ac3a656566U, 0x53c2b13476959456U, 0xc0959daaae2b51ccU, 0x44c2d2308b7532c4U,
  0xbe27614e4a51cd37U, 0xc14953d7789e2c47U, 0xc5a85290655db4c2U, 0x8f5da57057625640U,
  0xbc989c85c47cd7d1U, 0xac8ca663627b2db3U, 0x855824858459b3c4U, 0x9752966358a4349aU,
  0xb12ca145495e8584U, 0xb25fa33f312a7f2dU, 0x41c552cba39b733cU, 0xcf6298d22761417bU,
  0xc4322fca5bc65379U, 0x7d65956f7c52445aU, 0x31699b4e6ed4412bU, 0x694c60b13da6358dU,
  0x4d53bf66d0ae8380U, 0xbfa5609388c83c40U, 0x403f8b8f2e6d9a7eU, 0x69a83025aad49267U,
  0x51d2683b587528d2U, 0xb22ca789985ab5a8U, 0xac85c0777b9049b8U, 0x56397430d3bdcd65U,
  0x3824c12bc529a0a2U, 0xd899492e56d4d1c6U, 0xc5cd4c78af5a7b28U, 0x91727fb55b5174b3U,
  0x2a5e8a285f92d4b2U, 0x2455a436c8c577c1U, 0x85c7d281a652554eU, 0x4b3473617d6f373fU,
  0x294cc427b296633aU, 0xa2809dc36940ac6bU, 0x5e4fbe33598c3237U, 0x5d868c9b8a532d3dU,
  0x58a3d25453245bb2U, 0x48a9be8a55ca3384U, 0x3e6330aa636953c2U, 0xd29cd12ad35662b3U,
  0xa98e60b89336ac31U, 0xa657a22946d89154U, 0xb9a47726c32e5f65U, 0x288272abc07231d8U,
  0x5445a12a3a9e4189U, 0x848fc3369fc828a1U, 0x9b656e93a3318e28U, 0x419c74afd7286476U,
  0x5eae8c6d296850d3U, 0xb1c48b4f76bccb35U, 0xcbc0baa076527451U, 0x83b97ab1d5d8c52dU,
  0x9bb9aa62c591d07bU, 0xd754519b41cd4aaaU, 0x5576482c5e3cc56aU, 0x5ca3b9612b3c53bdU,
  0xd54fa26f6dc7498eU, 0x7275a82b3eaf4abeU, 0x2d383f78a5c4cb46U, 0x2a9f87a76ab68bafU,
  0x7226242c7864612bU, 0x9d787b5e253e3e8aU, 0x4a6738995cd3d644U, 0x4c61375fcebc9026U,
  0x7bcc7e7e9e687a3aU, 0x2cb24ed1cea6255aU, 0x7663366cca719791U, 0x3c82b29a95ca8391U,
  0xc852a1aa5e909052U, 0x6d9f765351616c67U, 0x369855525c496da6U, 0x85252c7ba1aa91d1U,
  0x8632cebdcebc2a57U, 0x666983266f6ec75eU, 0x503ebace323b2d4fU, 0x9e2733675ec052c7U,
  0x3fbe3b7b2fd1933dU, 0x5c4c783a6acdc131U, 0xcea25a9ba14e2f34U, 0x9ec438d269348fcaU,
  0x4f58766969d77768U, 0x829c549a3d58c59aU, 0x435d62c4286e2968U, 0x6c81b69546a73754U,
  0x8a3b29ae96422da9U, 0x4fa03b929f3988c5U, 0xb6ba4e43268664adU, 0xa966c89966887d72U,
  0xc072b963b1c3689eU, 0x6fab678193ca592dU, 0xc578c7a6d3d09399U, 0x91495a2e28785e2eU,
  0x9e9eb13986a4c9bbU, 0x232ca1a36fb26c2eU, 0xd437b2bc94608dabU, 0x63336f705c86bc68U,
  0x8557c93d3abf7759U, 0xc0aeaad63fc73829U, 0x44425e2834b06d6eU, 0x69ac3486c6d63c36U,
  0x5b8bbe9da983982eU, 0x859a83866687afcfU, 0x56bab679aaba8d5cU, 0x4637296e627ca8b9U,
  0xc4404ac2af478a57U, 0x74678aa96fd35638U, 0x9d4684b2b29224baU, 0xb26e586230822591U,
  0x592ebbd0c224b12fU, 0x433b2e868b85735dU, 0x9b5ac1ceb66273b7U, 0xa43971c0ab684bcdU,
  0x6348a9588345cda8U, 0x992ea79732887462U, 0x3370b2428a3f9489U, 0x7f73d04ba19dbfccU,
  0xb57c7362296a717cU, 0xd6a0a53782577828U, 0xb278c85948698276U, 0xc392716c499ca431U,
  0x9232874b414e757cU, 0x6c398145a8bf9aa5U, 0x4b692f73886657b6U, 0x89d48f359c2e6f4fU,
  0xa4a4324183c2a844U, 0x642aa18d5485c5ceU, 0x96394bc4557aa565U, 0x8676623b954147b7U,
  0xa5c8ca966557a33cU, 0xa37f4ab7573fd2a0U, 0x82b2414f8e8c7669U, 0x3f5424367544b0a9U,
  0x7a6fd06a8450ceb2U, 0xc0618f4868ba5683U, 0x47c78d5b3347d74dU, 0x4d6673834c944e83U,
  0xd128aeb643c557c2U, 0xad7f80a865a23f87U, 0x2227895048b72d51U, 0xbd27ae456ec45586U,
  0xa6cbbf29b022b03fU, 0xac4b8934b0c8d555U, 0x5f687942699824c3U, 0x8770bea0a9973a76U,
  0x4d99c9a9cf64a6cdU, 0x634d7b559d97b868U, 0x7041c4524b9c5bcaU, 0x6e2e8e39c6b24361U,
  0x6ad13587aa31bb36U, 0x36508db5a7b0d629U, 0x7786cdcc254bbe4cU, 0xc4c2c174a1a35d57U,
  0xcb9e3b63be27cd93U, 0xc32bae63de728f59U, 0x8c2d906f9373a732U, 0xc287c7a08c876ec7U,
  0x38a5c26bd34b5db6U, 0xa67d21996674b931U, 0x379c81c2bc4ecc66U, 0x5d66c154d0b75549U,
  0x5c774f1b9a9c4a7eU, 0xa376c5d3973f737cU, 0x74a0383f6d51b8c7U, 0x85c9ad3d6738815cU,
  0x68552adc43b7c244U, 0xa768d4762b4019a8U, 0x946a24a89c8faa49U, 0x2b9dbc6dae98ac5dU,
  0x61757a9d95a2bf5fU, 0x3754818f8435bdc0U, 0x68581fb8553c793cU, 0x8dd6c1375757a3daU,
  0xae884fa88aa48c2fU, 0xba278096cf7030a7U, 0xa8b255488e4d7254U, 0x242fac23c0af8f9cU,
  0xa3c44fcbb53d4760U, 0x738a456459967cb9U, 0x55988e81bf3663d2U, 0x665d45ba4c42bb7dU,
  0x5c7a3fc864b67cbfU, 0x5a464388b898c47cU, 0x84a384966e4fb459U, 0x2e7d968a457a5c4cU,
  0x92923170b67f3e7eU, 0xd97ab7c358beb0afU, 0x392ed1524c54c22cU, 0x6c59c195964f9a5eU,
  0x9daeb851258cd833U, 0xa8ae63c88294cf64U, 0x4b475dbb29c7c999U, 0x5e26b166864ec2b1U,
  0xd2d649b741cf6d96U, 0x79d8625598a2d4b1U, 0xc56997ac2956ca24U, 0x3191364d84792ccbU,
  0x839c4e533d3d9dcaU, 0x313b5793ceb2d055U, 0x72a0668f519492b1U, 0x7133b2b3d59e2f66U,
  0xc85e67c2804c32bbU, 0x6880a8685b3dc249U, 0x2fc5bb60a2a7c02dU, 0xc85c82403bb5d46bU,
  0x6754aa667dcfc9b5U, 0xd2d2c64f90a33325U, 0x7c4cc68494276a8eU, 0xd22bbeb53e34c0b4U,
  0x4b90353866c9ce9eU, 0x297989426c705430U, 0xbf66347043d55b58U, 0x846d3143802b832dU,
  0x3d7a4842c7bd882aU, 0x8551a5387065b1c3U, 0x43c4cd5c626092c1U, 0x5324a7b8ced28662U,
  0x33c94d43982f2aa3U, 0xa3577aa9a07c7226U, 0x464d95bf986d4655U, 0xc2bcac9adaad9a93U,
  0x3392c9764572d293U, 0x792dd4ba46ccc432U, 0xcca7c79191a5376aU, 0x8272254cb3c4a49cU,
  0xd32eb7d3b08ec290U, 0x933f98582aa8b951U, 0x2e703260624e3859U, 0x7da6bd93a5b67862U,
  0x7bcf253ea29062abU, 0x314e978c55859dbdU, 0x2c6e3f64db54a7daU, 0xc390cd3926abc83eU,
  0x4684aca7bd6d3040U, 0x57c0552687a8aa89U, 0x41d0659232c1d064U, 0x2aad63653e4dc54eU,
  0xcb9122a3ba33b62dU, 0x4f91c33e247f37a6U, 0x6f927829da774597U, 0xa6abb94bad672a97U,
  0x67daae9ad2cdc29fU, 0x5b6a7a4ad08fc0d9U, 0x8cbcce37899a7b2cU, 0x59a8a996376e6061U,
  0xbd3fc1b722779f1fU, 0x61d26e48d8a2ab5aU, 0xadce987fab792bacU, 0x7533c47581a164bcU,
  0x71aea26ca990677aU, 0x2d7b5e8a727f2670U, 0x28c34cce714f6822U, 0x5f7aa3cc7478a46fU,
  0x422eb18d503b886bU, 0x79af42aac72935d0U, 0x977f49896393cdc6U, 0x9c2f9169c2c7695aU,
  0x6a76355144293f6bU, 0x873a94c750ba7321U, 0xc9207fb088d95d95U, 0x7add4677ba86bc48U,
  0x7ec95d87dd6e3cd7U, 0x8046756b34cec460U, 0x60b3cc57b322bac0U, 0xd79a4194b16c40c8U,
  0x28948245a5c08863U, 0x7495cb85614eaa32U, 0xc897713e5f6184d1U, 0xc877ba5d63922a7eU,
  0x1e7a474e3a6db5a2U, 0x5b29beca67da4db8U, 0x50796acf66bd334eU, 0xb23594c637322a51U,
  0x39187a5dd0385dbfU, 0x63556c6f59c5a136U, 0xcdb59e78703b71a1U, 0xd66c5d7e5f316a74U,
  0x9b8f56a5d59b8f43U, 0xd45d816f5b5d5247U, 0xc24ec8cd3f9b5585U, 0x6f9c7b33ae6dbba7U,
  0xb95b82909c58ceb3U, 0x37457a73d0c553c5U, 0xbe7eac89768e387dU, 0x919598ce7096c336U,
  0x506c9245946c6d70U, 0x8b8f8292c154a7d4U, 0x9f32c84374ada031U, 0xa05f79b6769d3f29U,
  0x1d5bcc91b184a351U, 0x46652281b4291d56U, 0xa998b2a3ad6a5598U, 0x2d8acf4a639aa342U,
  0x33aa8abd7ba97728U, 0xb5a08e6a81239a92U, 0xc62aac6fa71f489fU, 0x9945539f8837aa59U,
  0x342b45588fa29154U, 0x7a27b9cd65bb5083U, 0xbd5962b8a5b72877U, 0xc72caabbb93fc2c6U,
  0x9c82295572be1fafU, 0x8733256e44992daeU, 0xa6626571beb78e97U, 0x7084876183b99865U,
  0xcec43faeb3c2b9adU, 0x4c4a2d77713c8e1eU, 0x8493542c5d4960c9U, 0x612279a98a83cc42U,
  0x8fcbb860d0bd67c6U, 0xaaba8138a786607bU, 0x9b379a8761608dbcU, 0xc01d508559c2b08bU,
  0x2ca0c6bf5b42b174U, 0x4d36444cafaeaec2U, 0x4045ab70c072c846U, 0x4947a458b5c9cb46U,
  0xc6827f6e58317d4dU, 0x273b3bd193ad3f97U, 0x75ada42c979a8287U, 0xc759b5419a2fc6a7U,
  0x5f45b98260505784U, 0x9172b9b18bb364a6U, 0x7bb2a99b2b3a5c73U, 0x69717cb572ba2492U,
  0xcd784fb93734b350U, 0xcd9ea4a19fc42d27U, 0x9e9d7f658cd16988U, 0x78c028a663cfd3c9U,
  0x29bdb76fbd913683U, 0xd7a4747aae937774U, 0x317e6427b1a18c73U, 0x52a95b5879aa6d59U,
  0x53c35e85938b5874U, 0xc39e9990cd8fcd2bU, 0x383c6bc72971768fU, 0x978e8f7961a8b74dU,
  0x8a3fc45ec1463f67U, 0x9f9a397bd69980b0U, 0x4cd1c785645657c4U, 0xb5602d3db1426c97U,
  0x7a246e567ec56887U, 0x8277c5d23d6dc16aU, 0x5b2d278faa786c87U, 0x2c9c4648d39b7f35U,
  0x99953da64d695888U, 0xbfd8d88971b7555aU, 0x9361cf5cd3743954U, 0x37c2944ebd507e3bU,
  0x8191c0c266598b5fU, 0xc286a22fd8616154U, 0xd672a65cd68abad7U, 0xbc7088aa3d8872a6U,
  0x563967b4d86d4ba3U, 0x28249193497d8da9U, 0x7da59f706c58c42fU, 0xabcc5129ac876e7dU,
  0xbac12f27a1cbbe54U, 0x73372d41ca43aebaU, 0x3427803d7c5f3b71U, 0xccb47b486fac319dU,
  0xb64a62b64e90565bU, 0x754e90d3af6a8643U, 0x64d7655c8f4b726eU, 0x757ccb8ec079bb3eU,
  0x3457bec84b609bc3U, 0x24d13e4885b2547bU, 0x4b3ed64fa9d4692fU, 0xb19d774bb23cb2d7U,
  0x885eb8c262832633U, 0x64b5872f812648cbU, 0x80a52a4c82809ec1U, 0xaf689725c8a62cceU,
  0x9648bf4f47c7b8b0U, 0xbd8d6b8f758eb75dU, 0x9d9dbc4dcf2477a5U, 0xcda5c3d1cf293dcaU,
  0xd73826435ba18556U, 0x383c4f5d6b297d9dU, 0xba7fce5e2d6fa4d4U, 0xcc96d631ce36c178U,
  0x69af7944804e8eb2U, 0x3f25547fa76d6b2aU, 0xcab5a53cb35828bcU, 0x69c323bd6a26a13eU,
  0xa93291b847d58f51U, 0x9049b78f698a3964U, 0xaf2664a06dbcb16bU, 0xc96e694a33593f4eU,
  0xa950c646746f6d72U, 0x4f55c42baccd767cU, 0x29ac9f968ea4cdabU, 0x5ac924257ad2cea7U,
  0x69544d6071b78ab1U, 0x669e70304eac2957U, 0x71d5ac9e6f8e9863U, 0x5b4e2bac32657732U,
  0x7b67319a87b5a0bbU, 0xd1c5b0b9a74482c0U, 0x8c7a25836eaeb13cU, 0xb181b04929c92db9U,
  0x659d8a80a1a9cdd6U, 0x3d5296387a41c6bbU, 0x4b7e3ebd83805437U, 0x6037b17b69683735U,
  0xb196815444b37ad6U, 0x55bf567cd5c07c84U, 0x44a9b65d6bb9a641U, 0x529d2d466a5ec344U,
  0xb8929b924b6a84a8U, 0x4b3a30a970502d6cU, 0x80cc8824d25a484eU, 0x577152be48446e88U,
  0x832538ac4b9d997cU, 0x9e25b136b1ad9eb7U, 0x5d33a9a164248ebdU, 0x937b3bd2d83b4b6eU,
  0x555d74bf516e696aU, 0x8ea6bb7e249c5053U, 0x6b4e797c5f4659d4U, 0x9f68c264cd6f59d2U,
  0x397b965aa2c6876fU, 0x786599987ec867d0U, 0x8c895ad0988e2930U, 0x532f4ed099d76f78U,
  0xc471b6852a753e39U, 0x29cc2a984e662d8aU, 0xaa7dc87c269c8360U, 0x9aa535a63d266e53U,
  0xbac746277955515dU, 0x626bc7ac783fd75eU, 0x586f777f7f9d4271U, 0x435258758d4348c6U,
  0xd13a649b37cd623cU, 0x83ba98bac7cf9cc2U, 0x72a545487fab7792U, 0x955e8880b682d6aeU,
  0xc42c6a428e4f9e2dU, 0x2e4293565e477dbcU, 0x883c7372b86d5133U, 0xcc4824873029ae3dU,
  0x3b70772f696e99b5U, 0xd8d1777d72d26450U, 0x93be5a619fb4c533U, 0x3f5077346db4cf55U,
  0xc535679d5241a2d8U, 0x6ac16b6199bf5c61U, 0x6dcf53d0b4ae5bb8U, 0x57b99c5a36aaad4aU,
  0xa97276cf2a58845eU, 0x86496e3cd17a8fcfU, 0x5ac128bf9d6f4bd2U, 0xd3555fd7797b6a5eU,
  0xc893bc7ebd7acc82U, 0x3cd3794453b36d75U, 0xcd4bd2738f5f4c70U, 0x7d3e74307d652fa7U,
  0x4fbd84c9ba54d397U, 0xb92dd1bf25d68583U, 0x3f9e6c5a952e69b0U, 0xa6a2c63676a53d75U,
  0x356e4c2f5a75bfbaU, 0x75354e43cb5c6140U, 0x2440c09e792ea825U, 0x4d6267cf89a176d6U,
  0xbd6d68aec794ab82U, 0x263295a043becfbaU, 0xa96bac286cd1af30U, 0x927f745e3e2e667cU,
  0xb86d508dbdd76442U, 0xbcd3d4d26bc84e31U, 0x5cb6cb7da9939e7dU, 0xc724a1395f54d748U,
  0x28ce6b51773e9d82U, 0x85bd9c24974e553eU, 0xcbc68c9d5b972742U, 0x9ec6a72a74d45aa7U,
  0x6ebac42c3a85274fU, 0xc7b0c7ab9e528f7bU, 0xc335a5959cc93281U, 0x927aa22862a48dc4U,
  0xac33b74e6975663fU, 0x643c9d4439d7a05bU, 0x543144265a25754fU, 0x25b56336b8d04965U,
  0xaf86b95d80ba85b8U, 0x3a37bc4a8e29aa8dU, 0xb8656f286d6547a8U, 0x345d3d49ce4c9d51U,
  0x3b45385b8d4d8593U, 0x3688705f4ec846c0U, 0xb77639d779407e5dU, 0x6766447e61805868U,
  0xc6c374a33d4cc583U, 0xd38dba2584b57996U, 0xa25e31ab5b61d834U, 0x6f8940323c3dd351U,
  0x3a374554ab7dc18dU, 0x364271bd8eb3486dU, 0x26d39a63a94360c6U, 0xb9be5b4baa6f35aaU,
  0x6c793fcbd553aeb3U, 0xb769bfa14068ca6eU, 0x4439468755379fcaU, 0xa2518276ad6f3839U,
  0x9ad2699ec7676551U, 0x9742cfc3c9318541U, 0x37a84ea5cd359d42U, 0x71a635a678cda6c3U,
  0x39c046bbcf75d6bbU, 0xb22eaf6584503a64U, 0x30caa57385b55927U, 0xb52ab16e32b32e46U,
  0x985abe858394b6d0U, 0x2f8bcda638916383U, 0x92a34ab133446bc4U, 0x3bc151717d53c16aU,
  0xdcd2a6606f5aa8c9U, 0x79cc82865069d9d0U, 0x668c6e4f684eb9abU, 0xb6806dbf9eb05930U,
  0x54b14f6c3f509a5aU, 0x6870597d6548bf93U, 0x915099324d717274U, 0xe177392c6d74906dU,
  0xa0d2459e5f47bbb6U, 0x6d7674804f822c79U, 0x3b5cbe809a576434U, 0x86be437c4b66539fU,
  0xac1d47982d4e9b9cU, 0x83a7b1b14171691dU, 0x49a7d3bb7d7fb1bbU, 0x4b63b63331b2a4cdU,
  0x6d9f81d3377e2953U, 0x3c3a4d5d5c3e8883U, 0x9c5d952898558c2eU, 0x92c25d9766628f33U,
  0xd2b69e2f42d1aeb5U, 0x396d9d927dca5695U, 0x6181b345c9ce5d56U, 0x4c6a41cb7e242ca9U,
  0x4c66432690323c96U, 0x4dbf98cc4a8d9e56U, 0x63c9b1dab27533afU, 0x7b715f4261beb184U,
  0xd04e8d889a7728aeU, 0x77c1a03c40b7bbe3U, 0x9e866fc23e94763cU, 0x88a8b93b6ece61ceU,
  0xa0314c964e3a7d5eU, 0xa871452a676d73deU, 0x4da24070c3a1d271U, 0x84c0418850829c5cU,
  0x4d7aa83365c0ca79U, 0x7f5e878ad0ca3f66U, 0xbd3ed2543c789465U, 0xba6e6fa34458bfd3U,
  0x36cc71c5363f9a2cU, 0xd84cad9424d57b81U, 0xa08eb99270a3b072U, 0x4e57b4a598cc927fU,
  0xb25cd997846ba994U, 0x8a61bd77a8474f3aU, 0x88ad5a935c835361U, 0x7d9ea72baaddb348U,
  0x5bb27d3939ad3bc7U, 0x78a62fbcb633c9a9U, 0xb058c562905d1c46U, 0xd1315d91a3615443U,
  0x525149c1537f4d4dU, 0x506e334981b2545aU, 0x84d7de712c553347U, 0xc648c8a93f66d6c3U,
  0xb5419fc68e52646cU, 0x5386c363d86bbf23U, 0xa0dec9dc8b5f2623U, 0xb2926d82a0ab852bU,
  0xa59f71a0b12f4162U, 0xaab5357ca589638cU, 0xbe268346c8b9d639U, 0xd1ae6c8e29b14aaaU,
  0xbc9cadd5859ca98cU, 0xa7d12a9e49a5c051U, 0x7cadc9814bced7d3U, 0x742945b83876c94aU,
  0x3899ad446d9e2a50U, 0x27b5346c63c96a51U, 0x8a5347847cc5b8c2U, 0x5aa532c1344dab4fU,
  0x3987b9946d58be6cU, 0x63cdd64b4478aea2U, 0x596fcebd6a25d684U, 0x489ed3d8cb232793U,
  0x84cd33a5ce93b586U, 0x3c23ce8ab97d448eU, 0x7f27635b905b97a0U, 0x444677912ac39ebfU,
  0xb8a19dbc55a38399U, 0x3a29ae4dd6588c3aU, 0xb5ba2662357360cbU, 0x2946663c98aac57aU,
  0x6c7d5d877585c979U, 0x44b59c6f629cb0b9U, 0xc698253e6998bfb1U, 0xc393819cb374a42eU,
  0x255e3e3fa06d4075U, 0x38c5d388793bb36eU, 0x666aa09d89594b69U, 0x77b76d5f7773755eU,
  0x25b863af43bb4543U, 0xc22f443d63d5cb49U, 0xe0517c7e6b632c3dU, 0x69357648be39df62U,
  0x397280639bcd4847U, 0xa49c99d4a67aa48bU, 0x3421ab5ab95b8a4aU, 0x2d74d27cc6a5606eU,
  0xa265c0b933c3b75bU, 0xacc2bd277b62764cU, 0x67597166979957b7U, 0x526a5f5f389a556fU,
  0x83429b30c3b07255U, 0xa03cb1b839829a84U, 0xc44d912d8c909246U, 0x8c298f9e9b9f794fU,
  0x885166a6aaac3e64U, 0x826a7a5e2b248837U, 0x319340cd6e3c8471U, 0x89a21eb2d875b43fU,
  0x6d935163514d6c3aU, 0xc3985cc7403eb157U, 0x89ba42be4f2b476eU, 0xc53998a8bba13cdaU,
  0x613c878a5ec65ea4U, 0x746d2845b4d84da8U, 0x854dcd22d12b77b8U, 0x3e877ca9bb8964c4U,
  0x28a5939862389a98U, 0x411b4185484e9042U, 0x72be8c602db96728U, 0x463335963e9b8290U,
  0x345d6fbb9bc3af36U, 0x36b065648f72aec9U, 0x9058c08a52af5843U, 0x62cd3ea0d55e515dU,
  0x829a596664439559U, 0xaa33dd5f8b486bbaU, 0x90865297328d49a8U, 0xa8819ab2432b9671U,
  0x26ca553991c036d5U, 0xc05d92a69e4d88a5U, 0xc936b96085908bb6U, 0x3dc494507132b79eU,
  0x63bd58875fca6c3fU, 0x339674c654b16254U, 0xb198677ab9457eacU, 0x4cb58132b1afaa81U,
  0x2c8a5156c5bc4bb5U, 0xbd4932b3a8308967U, 0x6a32b774a27a8453U, 0xe2b0e77ead988173U,
  0x8a27154a4d31d34dU, 0xa8a7d85a98a979bdU, 0x41c68846b4395549U, 0xaf9139d7bea8817aU,
  0x5a985249d5a6c534U, 0xc86bc0d08f7a99d3U, 0xad3f846390b95582U, 0x5b9f84d6d6364f29U,
  0x59704534c37fc197U, 0xcdaf607c419326c6U, 0x75aeb4a9299727e0U, 0x684f6279e42e6057U,
  0x629ca6b184b3a75dU, 0xbcb66a533c5c5aa6U, 0xbbc19a535e7e9b67U, 0x66af70489676bd8aU,
  0xc98ed23c21987b52U, 0x91bcb258a653ccaeU, 0x252e23bc5a65929eU, 0x7b98ca90cb7b8ad3U,
  0x8771b09d818d468aU, 0x452fba4241b25e4dU, 0x9a9c9bc2a03f5a5cU, 0x5d9d967ba79b34a9U,
  0xa22626b64e85264dU, 0x512bb43eb2829f4dU, 0x93cb242b4577b6a3U, 0x8750b59cacafb433U,
  0xa14777d02750bc4cU, 0x46ceb5d09f593879U, 0xc3cfbba28e847abcU, 0x56c135a186ac7485U,
  0xa44acc316ab99626U, 0xb62665488dcc85a4U, 0x7983c028877559aeU, 0xb7cf7040659b63d1U,
  0x3ad17862664e6b83U, 0xc04688c426cab935U, 0x8ea887a2bccc63c9U, 0x63a9558294c95a3fU,
  0x4ed1d056655b50bdU, 0x534ea856af823f4dU, 0x86482d335b44c654U, 0x56be3371ae297176U,
  0x889172c1c0385f33U, 0x35b27c9624636a96U, 0x8bb78997ae80bb73U, 0x7162a16b25c0645dU,
  0x7b68564cc476c8a8U, 0x464362a5cd268533U, 0xd09369738e437cc3U, 0x5d6f707e9d8059d7U,
  0x335c3f5d95348544U, 0x6b71bb488161962aU, 0x48c125a2d0867050U, 0x7c8a3ba3a8b74b63U,
  0x67395146e44055c2U, 0x292885182dd3b330U, 0xd03a72afb5602044U, 0x8b3a8e524158a96aU,
  0x89b365b6a357ce87U, 0xdd4fbdb8d6bd75c2U, 0x1a4d777da43f6189U, 0xad3478b096529f21U,
  0x5e8d9c89c49c80dbU, 0x9486beab176242b6U, 0xb136c8b860673d50U, 0x54264183407969a0U,
  0xb4d59d743472bb44U, 0xd27a398d2f78c653U, 0x5477b86e4d30ce87U, 0x848c6bbfe2b47bcbU,
  0x424dc243d8a093a4U, 0x5f5727a85bb57c4bU, 0xa86a6049437f4b43U, 0xc67758aacca0b0aeU,
  0xb88b73bf31cc7238U, 0x68302e3d764f33abU, 0xd76e5d2051516d66U, 0x7362da81a68bd9b4U,
  0x739d8b7f62466571U, 0x2d586358396fcb63U, 0xc347558b4adb965cU, 0x436bc74998875cc1U,
  0xc5abbf926cd1d42cU, 0x5d42783587d34684U, 0xbcc67650748f3b8fU, 0x286a7277a566a1c4U,
  0xc47d4b7e40433344U, 0x5a7e82cdb2c1d1ccU, 0x9a388da2877799cbU, 0xbf9ea024c1906330U,
  0x56b3306169a8782eU, 0x26b2c657487e2c3aU, 0xb9af7b75bb7ac465U, 0x25b935d58ba595d7U,
  0xb6d4b137bdb07988U, 0x2928be94949c292aU, 0x669d8b1c47762d8dU, 0x3aca63cd23a64b36U,
  0x5636b177aa657cb2U, 0xbeccbbbabcc9b7afU, 0x7f3236a73e6ab94aU, 0x8819ca25b26a96d6U,
  0x81b2739bde6c5b5cU, 0xc85f7fcdd6a8b3c6U, 0x4397ac8972b96e97U, 0x6e7ccece60b3a2a4U,
  0x4e60d1a480c08faaU, 0x528a7987bfabae4dU, 0xcf6ad143a884cc25U, 0x702a52c2736d9b34U,
  0x33c6bc8cbfcfc723U, 0xb85521ceb7d38237U, 0x69676d5863c12223U, 0xc9516cac682658c8U,
  0x535ecd676a7cd142U, 0xa16cac4baf643fc1U, 0x44b9d152c422c756U, 0x68512a4ca587552aU,
  0x4fc53073c468517bU, 0x3c2460adbb66a671U, 0x53ccb976563453c2U, 0x79d057a8b38666afU,
  0xbcbd7c8135437dccU, 0xa1c4cf9970bda091U, 0xcb589d602a8da94fU, 0x56c57cbd79a0aa53U,
  0xb76d8872acbacea6U, 0x6889ca4dc53b7859U, 0x4357aa6fd022b739U, 0x843480d1adc687ccU,
  0x6ea3be56a58f9ac6U, 0x386bc44d3d789a95U, 0x916a8ab73579a722U, 0xb65f7ca6bfd0552dU,
  0x4fa5a69c7d54d296U, 0x284faa306fbed441U, 0x47698dcbb695bfc3U, 0x7e3e6cd17cbd665cU,
  0x959bde7d5cd9a59aU, 0x905b577d4e404b63U, 0xb6abe478c55e3c93U, 0x645d775d546ed791U,
  0xaf91608c6540b591U, 0x46dd76c89e538cc5U, 0x80b4aa36ab33bf99U, 0x4c5ec97374b24048U,
  0xd53233616557c7e3U, 0x44b74fa98b35b696U, 0xc0d157ebd5d34f66U, 0x49a312c729c0d384U,
  0x7d5c5355879e4a29U, 0x5583526894c35a36U, 0x1272465b80761ca3U, 0x6f544f803e5f8449U,
  0xa4193ac349dfafcaU, 0x803cc1639412369eU, 0x8191b4d757a4a6c7U, 0x3d103f5e822c92cfU,
  0x4f72bd5f89a23662U, 0xb43a7bddd255cdafU, 0x4f6c283720716c25U, 0x9baaedcfebc62f5dU,
  0x3f31a22ac2b49466U, 0x515d503541b14cbfU, 0x97d372a3c4868eadU, 0x5074b699b5168eabU,
  0x979d96c54595c760U, 0x2b983a19d252aebdU, 0xa59953a63db7a654U, 0xbebaa6cd735ba5c2U,
  0x5390200da2baa174U, 0x3a91749b3c7e92c1U, 0x3a163b4e967c2abcU, 0xe4753b3d809f3c5aU,
  0xcc86e0b8b06a63c2U, 0x459a624689c67d89U, 0x70d655af9284b31eU, 0xbc8ed7ac32da89e1U,
  0xc16130ba3f706a1dU, 0x754b3fa2c6c0575cU, 0x48139c1e79aa9851U, 0xcdd0d833ccb2724aU,
  0x1ec27e499f755de1U, 0x314e7d5c9b6e6b42U, 0x3b6ec3d2c1508ae1U, 0x1fa847a18c8a9ce4U,
  0x72504f7334bc1a7eU, 0x6ac3db98ccdc6e70U, 0x1e78589246415fa7U, 0x44db5e8a7cb64dcaU,
  0x501c3f1b79ac9f3cU, 0xdb9a880e5eb87d96U, 0x43dd77a2d762c481U, 0x6fa91dae6a8847b7U,
  0xbb777497d56acc0dU, 0x5f6d48ada7619d4fU, 0xbb247b7620444f38U, 0x474d873fe2e25765U,
  0xa8201d7c7a7629bdU, 0xb4916e524c6e6d4fU, 0xd2a2c443c99a65bcU, 0x81b550205e1a1e92U,
  0x3ac671c0a78c9263U, 0xacc847c95a5ec0afU, 0xcb60cf81779e4ea6U, 0xbf72a740ae4bc64eU,
  0x26d47c948e38525bU, 0xb2679d61c9ab30d0U, 0x27517d7870847341U, 0x5337b2d05f71d271U,
  0xa053baaf6ec94881U, 0x45652cbe7f8e2537U, 0x853186cd9a774a6fU, 0x38d6ac37cfd4825fU,
  0x544dd7766a99b18dU, 0x537c89d1bb495735U, 0x469084b5d1b96f5eU, 0x9325263a4643adc1U,
  0x88496b5243894986U, 0x4a24b7a0787eba6aU, 0x99773f5872d7489aU, 0x49432dc4296c614eU,
  0x898051a0cf5c2841U, 0x6eca6bbec129bf28U, 0x3fa1a7c5c4ce9a87U, 0x5360287cbc475f7aU,
  0x45ab355784359840U, 0x94b7c8a2bfb65cd6U, 0x92a5ce75628370d4U, 0x50ab3c2651836833U,
  0x76364cbeb0b36bc0U, 0xaf826c6234509f5aU, 0xb0a0832742bb28a5U, 0x975fcc6e8e8f976aU,
  0xcad3bc9a44b89741U, 0x436255762883c56cU, 0xc8348bd28b456231U, 0x782ec6a7c1b25492U,
  0x51432d5f559e4da2U, 0xa72973b7bc79cf62U, 0x58ad4b619e709a99U, 0xcba1972dc52c5acfU,
  0x7e7a9ed18c435aa7U, 0x369faa88535dbd89U, 0x6b3a5e8f3488b994U, 0xb0ba725ec75c9598U,
  0xaec85a7c71d7a491U, 0x78a0515ea02c8643U, 0xba268c4ecb392eadU, 0x296a619b3f397960U,
  0x4085a4497b41a297U, 0xc43293d234b043c0U, 0x9dbe645f73cc7545U, 0x582b24b1c2ab8da4U,
  0xc1656760544556b0U, 0xcabc4c2660265790U, 0xce51243b2b705da3U, 0xa8d7d16cba5869b2U,
  0xc895464d837387b1U, 0x4c7148cace2f497dU, 0x524fcd5469cb5ab8U, 0xa85bb55c3abf34a0U,
  0xad85a25b8f934f7aU, 0x7dbd6f6d9ca55345U, 0xba2f38592ac06f93U, 0x9fce995829895d84U,
  0x5c5b4155a650879eU, 0xd379ca903b304346U, 0x5d3d9eac5fd1242bU, 0xb04bac61bc73bf5fU,
  0x3749c16e9ccbd2beU, 0x8ab98458408cd4cfU, 0x7492538dba8439a6U, 0x94876e7f4f376eb3U,
  0x648a7551a57593a1U, 0x2b7ab0479ab6965fU, 0x8e6daf6acc99c08aU, 0xd6b490937a7a9e76U,
  0x33bbd79e3c86c13cU, 0x8cc98c6224536747U, 0x2e434c9162ce8029U, 0xd2247124b5802577U,
  0x5762979ed048a84aU, 0xc4aec85dcda26072U, 0x3b9e3a28735b294bU, 0x8cca3124d27d8f3fU,
  0x7db33e9b9039b868U, 0xb78c264e7ace39cbU, 0x707453442c37aa77U, 0xc15e4e544fbf44c4U,
  0x5bb227655dafb170U, 0xa8c567b194bb8257U, 0x82c8606b3f7e6f7bU, 0xac906ba9d04b3d6aU,
  0xb042a58d9346a6a1U, 0x732a953f2c8dcda2U, 0xbd674d33272778cdU, 0x6ad16fbc96a7ab41U,
  0x549f5888408d3f2bU, 0x7b50677fcfa8d44cU, 0xaf93bb9e2440ab31U, 0x5e51a3957327c08cU,
  0xd398d0d4a0ccabcbU, 0x49364ed4a9605767U, 0x862b957b2477b483U, 0x76372437329476adU,
  0x67896dafb5997028U, 0xd436af91b7375a78U, 0x49a946ce3642b768U, 0x4a55a97571925e54U,
  0x5c9554a5c88c92d4U, 0xd27b3335a494415cU, 0x51b26f6166cd2d38U, 0x609bc951bd383a6bU,
  0x98606848a22e7c3cU, 0x67cf4f359f7e6750U, 0x496044a2d82d975bU, 0xbcbe9c25c0c7c988U,
  0x72722b5734712661U, 0x6043384eb86a332cU, 0x358a88b7936e9667U, 0x334fce29d7bc96b1U,
  0xba316066a6299a54U, 0x418a2cd65f9e969aU, 0xbe48acc674566dabU, 0x6179a5a53bac7a91U,
  0xca609f3b6a8245b0U, 0xc83b373085a22934U, 0x9a702e4e81767cc9U, 0x405cc73e448d8263U,
  0xaab9604eca9e7486U, 0xb9768075a498b679U, 0x656dc7685db03494U, 0x463168336029389fU,
  0x73959d23c79c7089U, 0xbcb9c7975554d2aeU, 0xcbc2c88cb127cd39U, 0xb035b2b3ca65c65bU,
  0x99b781cbbdd69673U, 0x7982532ecac6ab72U, 0x88ce975e6a7dc06cU, 0x496e528a53b124c7U,
  0x4a312895a3587bceU, 0x3860d0a19dd745bbU, 0x662ea0487cd07f2bU, 0x5a3f85bab0806282U,
  0x8c40bb44b4bf806bU, 0xb9672d96c3a79a8eU, 0xa125544f44ba7561U, 0xc68bc441a15b5354U,
  0xd7c326324b788928U, 0x237a9e6d67bb5bb4U, 0x72a0c82c555e6966U, 0xacc3798d326187a9U,
  0xb74a667d2c73b174U, 0x454fd5bfcb9f33c4U, 0x96ab365655b9916fU, 0xc36cc0ba6869b4a4U,
  0x9032cdb6a542464bU, 0xbc4c80ce57d76cb6U, 0x8cbf2c49497e3f94U, 0xb1a8aad35f6e5559U,
  0x5f9139c7556b7332U, 0xc07ab0c4c2a040baU, 0x554952c2853888d6U, 0x85b3d67a78774eaeU,
  0x4c963436b978b84dU, 0xd86765bfa15a34adU, 0x4b4dc7ba99c8cd25U, 0x4c375ca57094a029U,
  0xc5c037d6588d2dcdU, 0x28ae92675858c149U, 0x2f948c9032432fb7U, 0x9892a08ab8417a34U,
  0x9fcd314a5f612e94U, 0x6daa7371668ea48dU, 0xc67ea88e36c3d372U, 0x3e2c26bac0c44297U,
  0x2c904c79627639b0U, 0xaf952b88cda6cd34U, 0x7eb3949db5a89355U, 0x4e86bd73c1d5c369U,
  0x4a7b975975929b29U, 0x5b64d52e30339c71U, 0xc7bd2f743e46a15eU, 0x4e35d779b5b834a0U,
  0xc7965558cf6b89afU, 0x32a6916bb97791caU, 0x785e47bc6b92cd65U, 0x5e3e3f852f8b7a5dU,
  0xaf96377a82605442U, 0xca6da9a37c424360U, 0xb44649d64ece9bc0U, 0xd2c9393e4b402891U,
  0x84d262728ac3ad5eU, 0xccd034a0563c43bfU, 0x3f9b3639d227aa81U, 0x2fae81d05e7d4c5aU,
  0x47a09f559c813f27U, 0x65469059b096b585U, 0xc2678e2896477e33U, 0x6842845a5f3d7c82U,
  0x6bd17a58a075417cU, 0xae8f32bc5fc7537bU, 0x4abb3442a4bf2f36U, 0xadc3476b2860a56fU,
  0x63898db370d0b636U, 0x5d475f2c2cc97581U, 0x57c39f8f75c9af37U, 0x6f8f7d99cc26d2afU,
  0x5c6e55916b409835U, 0x2b417a263a638383U, 0x7385878b7a426397U, 0x7acdbcc24970c670U,
  0x624a6b456039d252U, 0x732631668b3d8cafU, 0x77b84aca618cc2adU, 0x7d9ead86ad517d4fU,
  0x317eb3bd4886c6a5U, 0xa5a169cc81c741d4U, 0x3ac43a29d66b3868U, 0x7f5e8c9d338dd65dU,
  0x51cbd7994a345c8dU, 0x754d99b8b84f43d8U, 0x233eb4963e68c06cU, 0xd1455aaa3aa0a75bU,
  0xb26a94285bbc3b68U, 0x7a6c2f905e264ccbU, 0xcd327b6da28c366aU, 0x8bb3adcf5f3f353dU,
  0xaf787f4b93ad8da3U, 0x3f51496186d16ba0U, 0x34a0682bcca82b44U, 0x40396a948bad7c91U,
  0x2dca5dbdc654853fU, 0x904580ada73a2471U, 0xb687a456a7425677U, 0x9c29b672536461a5U,
  0x4a34b0a284b33199U, 0xb153bb2468d833d1U, 0x619c3192862e5b3aU, 0x57ca389b7c62378bU,
  0xa52b9f2e62b09f71U, 0x25b63967bd526086U, 0x877b7034702c8f43U, 0x577dd4c1a59d2ebbU,
  0x7dcb5eb5ac303b6fU, 0x277c4fc3bcd5374dU, 0x356496be6a665825U, 0x6270956fab5da2b7U,
  0x2d6c3c6b2b8a5f9eU, 0x2c547867575dceceU, 0x27cd60a6b8a04bb2U, 0x7fc2cc85c531b5a3U,
  0xa127cc96328760b1U, 0x2e2a3791ca4f3ec3U, 0xc5b12b924757bf8fU, 0xd3a43745a2b1d69dU,
  0x962d2f8926c04771U, 0x693a2754a5929543U, 0xb8ba6a8473b63d68U, 0xbeca4cb77a7d2fafU,
  0xd534b557af9cc9b1U, 0x69d33aae3ec1caa3U, 0x39ac6986d65d8762U, 0x3962c734d6bcc770U,
  0x4e47305b7b4b4c50U, 0x74c674b8733e3a97U, 0x8ccf3f3399886fa3U, 0xc2d14cc45b902e6cU,
  0x9325b26a9c417399U, 0x59702a6e8fa3b978U, 0xb77d7e2ad45c9c7dU, 0xd57892869b6977abU,
  0x40b59f7a88969356U, 0x28a85e398a7cb64cU, 0x975ed85abdd67051U, 0x2a756fae6d54be8fU,
  0x8d3887c8cc454291U, 0xc2a2d4c9a0bd2737U, 0x55c8784125d1263dU, 0x5575596b7b6e4295U,
  0xcc3ad3b54d7ab48fU, 0xc889ccb7465cb32cU, 0xc4b9b678cf6e419dU, 0x45be3668a3864848U,
  0x95635f5c69ac34a5U, 0x9eaed3d74d66735fU, 0xb592603231b88c5bU, 0x5ed32f5a943a6a29U,
  0x68403b985a589c4eU, 0x973953247abb5932U, 0x72767064a760ad77U, 0x9eaa8395ce59352cU,
  0xa7acb6ae26306b44U, 0xb15a667b2ca47bcfU, 0xc2a6935bc2904ad2U, 0xb6bdb53f609b814dU,
  0x3b3363858c893ca7U, 0x253589b1c2a3bb2fU, 0x52638e4d9f638a32U, 0x41628cb59dd7976dU,
  0x353a7967b22b6e3bU, 0x78406596bda1622aU, 0xbbc061cf9b447f5bU, 0xa1b741354855ac81U,
  0xbebe9bc4a86b9733U, 0xc37d65704c5d6e7bU, 0xb6309265cacf4a64U, 0x243fac409d81389fU,
  0x6661a266ce454c38U, 0x9639787fa6cf533aU, 0x40434794734c526bU, 0x3a454741518b8933U,
  0xd49f9cd355c5b458U, 0xaf794c968b415c5fU, 0xc77e4eb63e827336U, 0x75a22c4d77c288b0U,
  0xc0284b54b8c052b7U, 0x4a3f67d3aa3e3199U, 0xb72584263f6a24a3U, 0x2c898629aacd4d3aU,
  0x1838d980a6e5ab9dU, 0x4facab957e219621U, 0x85b8487ec087bb93U, 0x44a52ac132cc318bU,
  0xc4b68f4091354a98U, 0x52b6f05fcff0cc42U, 0x928334a3a14b77c8U, 0xe7ca9572d225b92bU,
  0xb6447bc6b7785774U, 0x65ab175b4b985da5U, 0x9155e9e5c9ba5682U, 0x50222925a8c3b5cbU,
  0xb49e813c5a5f2f96U, 0xa3cedb8ca7bfe2acU, 0x1e467371342865b6U, 0xe4c76f7a74c52f27U,
  0x4c714492863f9bafU, 0x974a6b4cbea4b88dU, 0xa8448db6ecc465d6U, 0x2d266f9529a5786dU,
  0x87f3e4886dd65287U, 0x9654543879dbd1c6U, 0xb9603c69a0584230U, 0xc5887e695881afa9U,
  0x35bc26a1b3713fdcU, 0xc4eeda6ac22427bfU, 0x8e9a7ec2b5bf53d8U, 0x2f27500f8f6f2c65U,
  0x35e66566cde74fc8U, 0x60235961a7c5575dU, 0xd390bd9ad58239b9U, 0x3438a288dc3e6d8bU,
  0x4ebe2b3e7f690c53U, 0x3fc84fc5ac5f85c9U, 0x5760759675b5b36eU, 0x467f744f3937a045U,
  0x2a84c3d1d2d4aa7cU, 0xd373571a24502d8dU, 0xb288847e5e57d356U, 0x834e7d9561476955U,
  0x4e34a7d12f95ad55U, 0x89c3b9dedbc29767U, 0x9e8e103c865f748cU, 0xb5f1b69adc4dc720U,
  0x68199e5a316c9c54U, 0xcd4e4c4a459b833fU, 0x516e6fb8d2e1eb77U, 0x8d738821bf5b8858U,
  0xa185c2d1e2a318adU, 0x82b321799b5cd463U, 0x36248fb1b693839cU, 0x425da785c9923344U,
  0x73ad3f18945d27c7U, 0xd98fbeafbf4e707eU, 0x8d6c5fb8d574574dU, 0x56323ba18e7b3198U,
  0x6274ea62bb747770U, 0x53a82c267a2b32c5U, 0x6682a86cad6214a0U, 0x6b2f737a8c954961U,
  0xbc707a838d604d3aU, 0xafe63f5573438915U, 0x677337abb95581ceU, 0x90a0458510167b7cU,
  0x8c626e5dc94fc7b8U, 0x738eb68295b65037U, 0x4a55344e82c3509dU, 0x79a3aad864864c31U,
  0xa3d47ca03ec74e59U, 0x2c996b73b62d8057U, 0x7dc32d7ebbb3a8aeU, 0x7981999ad7c87b6cU,
  0x669c942dc5355c69U, 0x484b7c477cb1a4bcU, 0xd4c949633895903bU, 0x9f4dbf828d69c77fU,
  0x42a3c9b8393d747eU, 0x6162c5c5d5905a71U, 0x57ad866b28bcb0afU, 0x3564d38e7e4381adU,
  0xa362d62caf884c84U, 0x78ae328f7b639040U, 0x8f9f41cb38d6a74bU, 0xc443643d2692d1c6U,
  0x2f4c635380356b5cU, 0x732f4855519246c7U, 0x802a6d747b99b130U, 0xc3bb2a45c52bc174U,
  0x753e7ebab44b50d0U, 0xc4d22886334c2f91U, 0x5ec44d275028bea6U, 0xc03b8169a341cd9cU,
  0x35b233377f72373aU, 0x9d46a044c2d44f48U, 0x743880a856c69eadU, 0x8589c4aa7ca17a57U,
  0x2cb57486503ac75bU, 0x60d53b80a2536ca5U, 0x5e8ca7c15f5f272fU, 0x379155478b71ad2bU,
  0xcb572c571fc4bb96U, 0x6826c861c3c794b5U, 0xb1c2414b4384259eU, 0x5371576573785088U,
  0x86cc857abe5a4f86U, 0x43c1ccdc685b4551U, 0xd1b8a2cc5e706e83U, 0x6728b6267d43a153U,
  0xa19f7ad59b9530b7U, 0xbd736a6b3dc09079U, 0x5fa01e7a293a7699U, 0x90425f763c672a7aU,
  0xb1a5704da9498db8U, 0x824783d0b36a4b41U, 0x9fdd73bd28e67d98U, 0x31a07bacae51ae59U,
  0x73a3a6a83a6dba7fU, 0xbb844151ce439dc4U, 0x9185d83d872240b3U, 0x72aaa897d39f3e37U,
  0x8cbc8bbc9da83bb5U, 0x994dcb597f704938U, 0x5dbb829ab37adb7fU, 0x5ab3bca28b889e9eU,
  0xc253a2a66c40bad5U, 0x47ad6c3ec79fc338U, 0x98cc3f64c9c6a020U, 0x51589542828ccda1U,
  0x5794bb3b5c80bc22U, 0xa468b18a2cb76e8dU, 0xb63dc279af6c33a6U, 0x7978495cc0893a69U,
  0x413a7e334d627d82U, 0x3c444c74257c55aaU, 0x3bd4b07d759e4b8cU, 0xb5362767203a81baU,
  0x4481843c60a1775bU, 0xb4bbc4afac3e8a38U, 0x8669322e3e1c7c6eU, 0x5b71c4bb6295d694U,
  0x7b65415a8fa58f65U, 0x626b963ec2b44e6cU, 0x3b698d9a6a90da49U, 0x5f91504aaed67c3dU,
  0x56b232be4e4681baU, 0xc030a7be3b748356U, 0x5677c399b5bf8472U, 0x34c95eceb53ac79aU,
  0x5b76ba3d2e64cc2fU, 0x97834a9f243298acU, 0xcb9ec17cc12e597fU, 0x98af189b5b92828eU,
  0xc5726595ca9abb78U, 0x2d22d1236b464ea3U, 0x82606d7d69884336U, 0xd4454bb85655bb3fU,
  0x725a2d4b5f4e82c2U, 0x30c1579fa14d748eU, 0x7a829c91c4907ea2U, 0x7743982e4473c926U,
  0x8684342fa0c2455eU, 0x427dc8a33dacce25U, 0x496062c8972f3022U, 0x9731c5a9348d598bU,
  0xbe979b223db489ccU, 0x61a7a865738b87a8U, 0x87c44396b06f6f8aU, 0x588d94ab97b17c60U,
  0xd159c725ab23c9d2U, 0x3e816b6688a181a8U, 0x37c95fd12d7c82b1U, 0xab8245c6d2779680U,
  0x566c777f346c2764U, 0x7d3e9ab4bd536870U, 0x345a887dba768399U, 0xaa51479ac8644462U,
  0x3fd0c0bea0c251adU, 0x5333ab515a397185U, 0xa383a86930931f76U, 0x5f786f2061815579U,
  0xd3a6a92c642476acU, 0xce55c3616933c35cU, 0x7a90c5526b47c39bU, 0x9d68746f6f849d21U,
  0x632162aa956caf76U, 0x35bf805481228896U, 0x54c49abf8c35af49U, 0xa537c29c505f21d2U,
  0x2e46b5c02d344869U, 0x2badccc5ab6372b4U, 0x667c5e9e7e7cb937U, 0x7c7db1559685bc9aU,
  0x62c737aed594bd9fU, 0x30c75735d33fafc4U, 0x4085142dbe57ab1eU, 0x7436d1b6ada47e8cU,
  0x1a37bd87a09e3e7cU, 0x4cb75051a39e6bafU, 0x6dd19d754e9c80a7U, 0x2466156b3296102cU,
  0x9652915ebedbb576U, 0xc06273327e63d6d2U, 0x35b9284d82b35076U, 0x8639358dbe55d6daU,
  0x98537caf991ecb2cU, 0xc8543a95bfa94088U, 0xc042a39699e5ba9aU, 0x3231b8228929ad68U,
  0x56d79fc873acc95cU, 0x479c3f50815a52aaU, 0x4c45e42eab68754fU, 0x7945a18d4d598d99U,
  0x604b769d778e4580U, 0xc3d76fe3ceb2af96U, 0x6c70b633aba492e4U, 0x58e5473b86aa2d8aU,
  0x508c394053cec3b7U, 0x2a9f5f3fb210b272U, 0x6379986079bc99d3U, 0x7b6f4ac88258cea8U,
  0x52dfcc807169af63U, 0x62b9bfc9516fbea8U, 0x4b7cb02e285937c3U, 0x83838ed18b21c9caU,
  0x6c3175996a286436U, 0x9d247f4fb67c26c4U, 0xcecae04fa7b2ecdbU, 0x8195189ab81848c8U,
  0x5a7951946362ba94U, 0x8f6f4387ba41e28bU, 0x5e33941e38285149U, 0x41dcb577d5687167U,
  0x43a1448a6c79193fU, 0xdab5a949994abda4U, 0x57b27db8649b84d9U, 0xbe761d57315ec073U,
  0xa5939c8d976d7053U, 0x9d3037b0badacddcU, 0xaf808e38617f231cU, 0x70428048c5dda892U,
  0x553c9b83793c1878U, 0x9d5acfd7c13b2b1fU, 0x3fbdc532ce6dba9fU, 0xa196b6b2197d8f52U,
  0xab774147a74cb561U, 0x76b0944e71a3252dU, 0xb5957cb0cfacbb63U, 0x2b33407d9bcca7dbU,
  0xb52371b06e91ab69U, 0x6d52cce3ea92846fU, 0xbb781e7162368227U, 0x7ddc43d3a4382d18U,
  0xb6615a61cb6a48b9U, 0x952a42834fb94e80U, 0xdd5d98d7806be690U, 0x988434468c838db0U,
  0x37414746a54a57a5U, 0x5b53c3996b5e66c1U, 0xa0cc88c6a4937879U, 0x9736c39c384f94d4U,
  0x3c5231bd47442835U, 0x6e446e4a61bad2b9U, 0xce3482314296b36aU, 0x909dc22b34b6ae5fU,
  0x64964b57ac5d3fa4U, 0x9bbd6c754a2a3f22U, 0xcb7ebad2237f8030U, 0x24768fb0b76aa144U,
  0x937c617147abc631U, 0xc36d44a33b244c67U, 0x35624f92c73d8b21U, 0xbf3db2d4adcc8cc6U,
  0x808f3dbe315554cfU, 0x8cb56bd0ac8d6990U, 0xacb1299acc805bbeU, 0x5e3eb6d5acb7b9b1U,
  0x69c96ca839232aaeU, 0xae243dce3921c2b0U, 0x8c7e35472a755744U, 0x49d0936f36ab3359U,
  0x5ad22d78867b6547U, 0x444ab59d3da1c2cbU, 0xcf28a9c42992afabU, 0xce7066438b38be43U,
  0xa9c29ad44eab37b1U, 0xc392627d21779446U, 0x6bc5b486b3856b78U, 0x966c66536a926034U,
  0x387853daaea2c378U, 0x316717aa54555a96U, 0x62aa46c73a326187U, 0x8acb3130449e67a1U,
  0xb17dba1c3194ac7eU, 0x56cec3535eb8a03aU, 0x3bc5acb5a3b658b9U, 0x7f422f74822c8087U,
  0xaab753e5982b4e5cU, 0xce70b7525b528eadU, 0xa1ca589370a75f21U, 0x5992bb734cae97a8U,
  0xc5838a7e7849a542U, 0x635e444b448e4235U, 0x33976584b1c283dbU, 0x8953605d2dcd716eU,
  0xc3d970cd3f7bbb39U, 0x806962c556accd3aU, 0x67673d84b335af2fU, 0xb9697d6a7a96756aU,
  0xaeb5acaf8c2d6f96U, 0x68cd41c5bd4a3a3dU, 0xb998c949758a5e57U, 0x4f425f85af766336U,
  0x1846476ed04ea239U, 0x35be3a903eb36683U, 0x52ab96b13f793d6cU, 0x228ec67e294ec18aU,
  0x8b45b92143a48670U, 0xc530d7be35b98fa9U, 0xbcbb4c8c6245b249U, 0x4484654e55bb846bU,
  0x3361b01d5062a88aU, 0xb84b76917c61338fU, 0x7a72569bb75073bcU, 0xc39bb32e60c5cc3aU,
  0x6693b2aa7d528873U, 0xbf3345d7c94d8e51U, 0x94c52e39987fb752U, 0x3c96afcc4667ae78U,
  0x94b58036afce54c7U, 0x3e93c9415d1ab83eU, 0x3b6d945f84c5a18dU, 0x54c2be82af895722U,
  0x233231525ad69546U, 0x9f516053b738adc1U, 0xb67053397ebc5d69U, 0xe2ad95bc245a667cU,
  0x414a61aaa5aa3baeU, 0x4aba9e8fa389c02aU, 0x686f4f53be3a462bU, 0x90d385792f5d445dU,
  0x37353d6daddd7e70U, 0xb1864ec090c55845U, 0x66957ab2cee247c8U, 0x2d81668acb71ae89U,
  0x555eb466b5278596U, 0xd62e2b96a6d7447aU, 0x389dac8ca2513b57U, 0xcc579e93aa804745U,
  0xce7bd6694a82af42U, 0x3e99bec13bb59967U, 0x585c5eb7827b388bU, 0x9299247bdcc7d3b1U,
  0x7e4688c274b4a29eU, 0x316084c731cd5a80U, 0x523650d868d2b827U, 0xa3657560c89ed443U,
  0x825d8a9a87877f70U, 0x955ec3b6ad5caf66U, 0xd775772c394d8c2bU, 0xa25e8344b14846a6U,
  0x5dd75a86419e8ca1U, 0x398dd890aa5a2d7fU, 0x5a35ac788a32c1ceU, 0xb2627c29cd379f32U,
  0xd5c59d317ca7b6acU, 0x87cd676d90d8a051U, 0xbeb828b9a791648cU, 0x9c83924e3851bfd1U,
  0x25374cce7cd32a5fU, 0x4074c9ca6d7bd6aeU, 0x9299769439782fb7U, 0xa9a9af298f322cd9U,
  0x98b43a42a7b3632cU, 0x77a7afaa7793cdabU, 0x7d6c479599b24f85U, 0xa3a0765c9bd1529bU,
  0x515172609284d295U, 0xc1777d553a2bd97dU, 0x56264b4c4464a159U, 0xa6375e37d1c977b5U,
  0x30b4a2d22cb79b44U, 0x928e603d9487abacU, 0x6c4588a131c69769U, 0x6138577833bc3662U,
  0x54adc373d0c15ed4U, 0x6d9228d473408435U, 0x9e309773d5235cb0U, 0xba894b636cc573aeU,
  0x696c9571d4369326U, 0x93c94c3d49905e32U, 0x9f4e60245f2c8284U, 0x98bd4a5fcf7ea557U,
  0x8433778887c14025U, 0x674f6861599f758aU, 0xa9996226a861618bU, 0xac3042ab6bbcbe57U,
  0x8b5d905ed2aa8b41U, 0x466668c7c5a08a3bU, 0xa23acb3c8926d578U, 0x27965f433abdab74U,
  0xb5488f719b238631U, 0x33ae6d6f746fb52fU, 0x98c68c79923c3230U, 0xb5339f3f59bfc9c6U,
  0x44b55fb136658f56U, 0x9db2b07c49556f57U, 0x4c8a7a78b5364bc0U, 0x796f3941cd564629U,
  0x9024a34aaab1332eU, 0x63ce62343045d73dU, 0xb32b51d5b8817654U, 0x648a5f354c842379U,
  0xa94b3462bc91b487U, 0xa12671b7c5442c34U, 0x9081a8c2ae8785d1U, 0x8e255e562f8ca5b2U,
  0x9ec14ac08c2c26beU, 0x89c428ab3dd1aa97U, 0x26d3256a887a25cdU, 0x762d82b4d72b4cd0U,
  0xa05acb42b5bb4a7dU, 0x77a1966694882550U, 0x93c6c4935280657aU, 0xb9896d605c4f7d3aU,
  0x836d6270a45a9a91U, 0x67c72b2465d893a6U, 0x2b2e334b884d999eU, 0x50256cc84f317a63U,
  0xd5783b25426a9e46U, 0x7ec1d7ca86ba74c3U, 0x704145662e6cadcfU, 0x27349d2b4ecea161U,
  0x518f3fd66aacd4a5U, 0x282e9c69b03688bbU, 0x5368d2cbbdd6c061U, 0x889db860c4bb39a1U,
  0xc7572ca47d312dc3U, 0x7646d6599591a6d1U, 0x355a947b9ac0aa9bU, 0x5f347b975f433f71U,
  0xbb68b24c43bcc239U, 0x677767a18fd1655aU, 0x593eb2bc9a6ba0c2U, 0x876dcecfb03279c8U,
  0xc6634bd0b756c977U, 0x8e5d8e88b0c7bb50U, 0x7e2e714cba4f362bU, 0x7672b16c876d86b2U,
  0x8190b9874aa170a9U, 0x8b855b3390cdd56dU, 0x819d6586a4657631U, 0x2f3a44ba9a9e2370U,
  0x9a983135744fd54bU, 0x92bea966556bc237U, 0x2547363a65b0af35U, 0x4f987845b0d04147U,
  0x6eb94cae6f3253a8U, 0x8ca13c7d3979af51U, 0x716d70c78f8f8688U, 0x503ac85eb3875971U,
  0x8344c938b03fba5eU, 0x4a269955278c42d5U, 0x3463424562bf715aU, 0x8053666d4e5e2cabU,
  0xb45d763783557026U, 0xc2625c76698262c8U, 0x27c525b88d83bb5aU, 0x6091ba7e9fbb888bU,
  0xcc477f76abc37484U, 0xd5d4398c6fb26ebfU, 0xa13b86c0899125d2U, 0x8d8da195cbae662dU,
  0x3c7e6f3b9e96559cU, 0xc5cb2866c7705f7aU, 0xc595b7663ab7c3bcU, 0x5d2f8d552d26a54eU,
  0xd193c83a4ca26367U, 0x744f3ab23b41a691U, 0xa7486d28cc7fa6baU, 0xaa732a895b954793U,
  0x94403ca03aba69c6U, 0x7d4e35d843cebc7aU, 0xdb5781c03765a925U, 0xab9b66a77f73635fU,
  0xc34f948a2d596626U, 0x40846f8ca172bd33U, 0xadb0724a47556f75U, 0x61d8cf6da25b4f8fU,
  0x3278d86b9a677abeU, 0x796eb9c3798ccf5dU, 0x443f67ac9579a07cU, 0x69ad80285980b44bU,
  0x4c34d347b2ce753bU, 0x5864d5316d8b3449U, 0xb74bd56b8bc3984aU, 0x3fd33b31aea6619bU,
  0xcf327995912f2c5fU, 0x2f64353cca9a44a2U, 0x4a2c8d764b824ba6U, 0x406b26676c9caf29U,
  0x7ee1a649d3a55181U, 0x7d51326f51ae8f7eU, 0x7bd870382c7b9279U, 0xcb52ae908088588bU,
  0x7ca29f898596d38cU, 0x7caabb5c8c372fa1U, 0x50b83f35795073acU, 0x3eadabb04266be78U,
  0x94486598346fa997U, 0xb44daebf7a9ac8c4U, 0x537095d06f21aebaU, 0x854f9f639993c594U,
  0xaf7c833924b64d3bU, 0x71a0e57c7c515c4bU, 0x473da6bc584f5d81U, 0x35c47fa8456fa453U,
  0x25c39db1ce896e60U, 0xc692c180c8245ca1U, 0x65a566d3bbce8f42U, 0x2a254c99833a62dfU,
  0x4230c388cc55785cU, 0x8e5477453475591dU, 0x5a75542f577ccdb7U, 0xc884d688bec3b935U,
  0xb86031bf6ad89c58U, 0xb7a3897ba46dcf76U, 0xbadb2eb9baabd6b7U, 0x6c41bc679979a890U,
  0xc7ab8398a632497eU, 0xc6c2d7c2a1d54ca4U, 0xa1344fab48be49c9U, 0xdfae7b8c9467af80U,
  0x1f4692c47ab1b684U, 0xd94961bdd58c8169U, 0x9f90b48a5c3a99afU, 0x81d338a93a6c59cbU,
  0xacd19ed493387475U, 0x47405f306b6086bdU, 0x2f69a66abb8495b6U, 0xa474bb82bad78929U,
  0x7bbcc8aca987cad7U, 0xbc528c92a63a7ec5U, 0x4b30392d936b959bU, 0x6b669c828b575acbU,
  0x3c5f825b5ba54f29U, 0xbdb25bd5b96091a0U, 0x8aacb330c28a41b9U, 0xb748a4953c4c656bU,
  0xd38c4f5e86613c63U, 0x99655ca29d6790baU, 0x92c4ad6f9d4746acU, 0x7bb7cf465baa5e36U,
  0x87599bca272b489cU, 0x3c37d3652a748424U, 0xbc3140bf99c9c689U, 0x2d5e835332378986U,
  0x2ab787bd7da92da3U, 0x5d934caa786cbf4dU, 0xb462c0be9dd2b0a4U, 0x2768b664d128a17dU,
  0x7e5ccd3bc0c28c50U, 0x3d44265cc4864bbaU, 0x6e45d38e6b34aed2U, 0xc25c62cea5a75560U,
  0x4794a6cd947f7178U, 0xbf56a252696d6451U, 0x4dd35ab69a3c8a25U, 0xb4673faa56435aabU,
  0xb951c2439c6b63d3U, 0x722b793a636a5198U, 0xc82a712e8cba7b38U, 0xa1825cc36045ce9aU,
  0x94aca586a7a23bb2U, 0x63438fba377944aaU, 0xa4d495895e839a8cU, 0xc05188a3c043738cU,
  0x80a17fc09a6c858aU, 0x857eac9f55cc97b5U, 0x6775634fae5d7f1aU, 0x59cec2c69bc7949cU,
  0x2e24374ca7b3ba79U, 0xae69a6338b779c3dU, 0xa04265d643554098U, 0x5f2343bca1c1b31aU,
  0x6fa0b3513aae621fU, 0xacb384c38c985fb7U, 0x4b438a407c40ae56U, 0xb1558b3091be655fU,
  0x7a55b82c5f8a7d71U, 0x4737e05434608697U, 0x507e6caf6586a19fU, 0x887179c825aa7abfU,
  0x71be4051a56d987dU, 0xb732ac5c7b454f62U, 0x6a68bd53ce72c36cU, 0x65384d45ac456c98U,
  0x4ab3927f7faa3232U, 0x846c91be3d4c649eU, 0x1b8544aa8b829980U, 0x5d32c145a2cb867fU,
  0xb3339297466c3475U, 0xa774c694a7359798U, 0x4937a1c339b794a1U, 0xcca853bbc635af4eU,
  0x247b7a8c272fb422U, 0x74397f33de53481cU, 0x5dcd977ea6b585d0U, 0x733f619c47a28d48U,
  0xa9a0ac75be927b5eU, 0x873e6d5142345336U, 0x5589a7519bad2e75U, 0x488a5fc0abc897dcU,
  0x43783adf45346e3fU, 0x4e93de98972e8ab4U, 0x29ae7d5992c7c486U, 0x6a88b594928d57b2U,
  0x5f7057aa804f699aU, 0x55688e989581adcaU, 0x5d68a65bcb455f6dU, 0x6d1c4e8159904368U,
  0x98a34c82b142a735U, 0x458750b6513fd0d4U, 0x89b188c25822583eU, 0x4cd8a38f9f38b878U,
  0x3ca27d562292a6a0U, 0xb234b864d034ca51U, 0x526fbf4dac70593aU, 0x36abc9a334a9b670U,
